<pad>	0
<unk>	0
<s>	0
</s>	0
nn	-0
in	-1
at	-2
▁t	-3
he	-4
vb	-5
▁a	-6
▁the	-7
jj	-8
pp	-9
▁o	-10
re	-11
/.	-12
be	-13
▁s	-14
nns	-15
/,	-16
▁,	-17
▁,/,	-18
▁w	-19
er	-20
▁.	-21
▁./.	-22
on	-23
en	-24
np	-25
rb	-26
▁c	-27
is	-28
cc	-29
nd	-30
it	-31
ed	-32
▁of	-33
▁f	-34
or	-35
▁p	-36
pps	-37
tl	-38
es	-39
▁h	-40
▁m	-41
ou	-42
▁in	-43
ing	-44
vbn	-45
▁to	-46
al	-47
an	-48
ar	-49
▁and	-50
▁d	-51
vbd	-52
as	-53
ic	-54
▁b	-55
▁th	-56
cs	-57
ion	-58
▁l	-59
om	-60
dt	-61
to	-62
▁n	-63
vbg	-64
``	-65
''	-66
il	-67
▁be	-68
ent	-69
▁e	-70
▁T	-71
ppss	-72
st	-73
le	-74
cd	-75
▁re	-76
ro	-77
ve	-78
md	-79
ly	-80
▁g	-81
ad	-82
▁he	-83
bed	-84
ap	-85
ac	-86
id	-87
ut	-88
im	-89
hv	-90
ot	-91
▁I	-92
se	-93
ppo	-94
▁on	-95
bez	-96
et	-97
▁A	-98
▁for	-99
▁is	-100
▁that	-101
ol	-102
ow	-103
▁was	-104
ig	-105
▁The	-106
▁u	-107
bedz	-108
▁S	-109
ur	-110
ay	-111
ct	-112
▁wh	-113
▁st	-114
ver	-115
od	-116
ql	-117
ation	-118
ir	-119
▁it	-120
''/	-121
/``	-122
▁``	-123
▁``/``	-124
ab	-125
▁''/	-126
▁''/''	-127
ld	-128
▁as	-129
ce	-130
ith	-131
ll	-132
am	-133
▁with	-134
▁H	-135
▁an	-136
▁we	-137
vbz	-138
ch	-139
▁C	-140
ber	-141
▁M	-142
hl	-143
ter	-144
▁y	-145
▁his	-146
--	-147
▁con	-148
her	-149
if	-150
▁at	-151
▁B	-152
▁r	-153
em	-154
rp	-155
ul	-156
▁ha	-157
▁W	-158
ill	-159
ould	-160
▁pro	-161
wdt	-162
ain	-163
▁su	-164
ht	-165
▁;	-166
▁;/.	-167
▁or	-168
▁fr	-169
▁se	-170
▁not	-171
res	-172
ps	-173
▁had	-174
▁ex	-175
ess	-176
hvd	-177
ag	-178
ke	-179
▁by	-180
ist	-181
ore	-182
▁P	-183
▁de	-184
./	-185
ate	-186
▁are	-187
us	-188
▁com	-189
qu	-190
ri	-191
▁?	-192
▁?/.	-193
▁ne	-194
/*	-195
wrb	-196
th	-197
ers	-198
▁sh	-199
▁you	-200
red	-201
um	-202
ight	-203
▁v	-204
▁from	-205
ive	-206
▁F	-207
est	-208
ity	-209
and	-210
ant	-211
ment	-212
os	-213
wps	-214
▁this	-215
pe	-216
ich	-217
▁D	-218
▁ch	-219
▁have	-220
▁1	-221
oug	-222
ard	-223
▁N	-224
ust	-225
un	-226
iv	-227
all	-228
▁He	-229
ie	-230
▁R	-231
ort	-232
▁which	-233
▁al	-234
ome	-235
ies	-236
el	-237
ous	-238
--/	-239
▁--/	-240
▁--/--	-241
art	-242
▁G	-243
oc	-244
▁were	-245
end	-246
op	-247
▁all	-248
▁tr	-249
▁him	-250
▁L	-251
nt	-252
▁me	-253
out	-254
▁but	-255
▁O	-256
▁whe	-257
▁her	-258
▁wor	-259
▁one	-260
ure	-261
▁pl	-262
▁ab	-263
▁le	-264
▁E	-265
abn	-266
ong	-267
ast	-268
ge	-269
ex	-270
▁k	-271
ial	-272
ud	-273
▁J	-274
dti	-275
ost	-276
▁they	-277
our	-278
▁man	-279
ical	-280
ther	-281
▁do	-282
▁would	-283
▁sa	-284
▁who	-285
pn	-286
te	-287
ide	-288
▁out	-289
ear	-290
ack	-291
act	-292
▁go	-293
ough	-294
▁their	-295
ff	-296
ound	-297
do	-298
▁up	-299
hvz	-300
▁j	-301
▁un	-302
ben	-303
▁Th	-304
)/	-305
ok	-306
ak	-307
▁been	-308
▁)/	-309
▁)/)	-310
▁so	-311
▁has	-312
pt	-313
per	-314
dts	-315
(/	-316
▁(/	-317
ions	-318
▁(/(	-319
ated	-320
▁It	-321
▁she	-322
▁ar	-323
ind	-324
ine	-325
ame	-326
pl	-327
▁will	-328
▁cl	-329
iz	-330
▁In	-331
ect	-332
▁im	-333
ary	-334
able	-335
▁ad	-336
▁there	-337
▁no	-338
ence	-339
ice	-340
▁more	-341
ace	-342
ew	-343
▁them	-344
ance	-345
ans	-346
one	-347
▁ag	-348
0/	-349
▁li	-350
ppl	-351
ble	-352
ven	-353
nr	-354
▁cont	-355
▁other	-356
▁can	-357
jjr	-358
▁sp	-359
▁comp	-360
ally	-361
▁gr	-362
ress	-363
ime	-364
▁lo	-365
ry	-366
▁per	-367
▁said	-368
age	-369
▁kn	-370
ass	-371
▁res	-372
are	-373
▁en	-374
ach	-375
ire	-376
▁dis	-377
hed	-378
wn	-379
ip	-380
▁than	-381
ations	-382
tly	-383
au	-384
very	-385
▁any	-386
▁tw	-387
▁pr	-388
ake	-389
▁us	-390
▁:	-391
▁into	-392
▁its	-393
ose	-394
▁when	-395
▁some	-396
▁about	-397
▁qu	-398
▁could	-399
mer	-400
▁:/	-401
▁ro	-402
sel	-403
▁:/:	-404
own	-405
reat	-406
ade	-407
ren	-408
▁year	-409
ction	-410
uc	-411
ue	-412
▁St	-413
▁over	-414
▁only	-415
ious	-416
ep	-417
▁ind	-418
ra	-419
▁!	-420
ign	-421
▁!/.	-422
▁bec	-423
ond	-424
▁U	-425
▁time	-426
ub	-427
▁Y	-428
vel	-429
ult	-430
▁off	-431
ition	-432
ish	-433
ree	-434
▁app	-435
ite	-436
ount	-437
▁inc	-438
▁fir	-439
▁part	-440
ell	-441
av	-442
▁2	-443
ens	-444
ail	-445
▁pre	-446
ays	-447
▁my	-448
▁if	-449
ile	-450
▁co	-451
ked	-452
▁what	-453
dod	-454
▁po	-455
urn	-456
▁sc	-457
ang	-458
orm	-459
og	-460
▁K	-461
▁like	-462
▁19	-463
▁Ch	-464
▁bo	-465
nps	-466
▁two	-467
▁und	-468
ater	-469
▁did	-470
▁But	-471
▁Mr	-472
▁rec	-473
▁may	-474
tle	-475
ings	-476
▁new	-477
old	-478
▁br	-479
hing	-480
ved	-481
▁Af	-482
ild	-483
▁imp	-484
▁pe	-485
ict	-486
ors	-487
low	-488
si	-489
ates	-490
▁first	-491
ru	-492
ents	-493
fw	-494
ory	-495
ase	-496
fore	-497
self	-498
▁fe	-499
ord	-500
ks	-501
▁our	-502
ual	-503
▁these	-504
▁acc	-505
fe	-506
▁bl	-507
▁spe	-508
▁cons	-509
ces	-510
▁comm	-511
▁des	-512
▁am	-513
▁under	-514
▁such	-515
tain	-516
rbr	-517
▁bet	-518
▁This	-519
int	-520
ful	-521
igh	-522
iss	-523
we	-524
▁te	-525
so	-526
▁again	-527
ied	-528
▁rel	-529
▁thr	-530
▁even	-531
▁back	-532
▁Wh	-533
▁att	-534
▁made	-535
▁sm	-536
ife	-537
ick	-538
▁lit	-539
▁rem	-540
ng	-541
▁ser	-542
▁ob	-543
gr	-544
rit	-545
▁work	-546
▁now	-547
ark	-548
uch	-549
▁pos	-550
▁long	-551
▁And	-552
ne	-553
ause	-554
▁through	-555
ood	-556
▁af	-557
ian	-558
▁most	-559
ty	-560
other	-561
▁fl	-562
▁must	-563
ons	-564
lect	-565
▁col	-566
▁ass	-567
ought	-568
▁sub	-569
▁She	-570
▁then	-571
▁hand	-572
▁how	-573
jjt	-574
nc	-575
▁pres	-576
▁should	-577
▁also	-578
ann	-579
hen	-580
▁down	-581
oth	-582
erm	-583
pect	-584
ink	-585
▁sy	-586
ited	-587
▁mo	-588
▁know	-589
▁V	-590
ident	-591
▁look	-592
▁after	-593
hes	-594
▁act	-595
'/	-596
▁rep	-597
▁your	-598
▁pol	-599
▁There	-600
cl	-601
▁dif	-602
▁great	-603
ities	-604
▁where	-605
▁years	-606
ily	-607
ject	-608
▁before	-609
ted	-610
▁get	-611
ia	-612
ath	-613
ting	-614
eral	-615
▁eff	-616
▁many	-617
ward	-618
ational	-619
aw	-620
▁see	-621
ool	-622
form	-623
▁own	-624
meric	-625
▁sto	-626
ise	-627
▁just	-628
ubl	-629
▁They	-630
▁much	-631
▁inter	-632
▁em	-633
▁ent	-634
row	-635
▁way	-636
▁Americ	-637
▁car	-638
ople	-639
▁form	-640
ather	-641
arly	-642
▁good	-643
▁well	-644
▁We	-645
du	-646
ave	-647
ments	-648
gan	-649
oy	-650
▁gen	-651
vers	-652
▁seem	-653
led	-654
ft	-655
omet	-656
▁3	-657
ating	-658
▁people	-659
iet	-660
cess	-661
ism	-662
▁Un	-663
▁pers	-664
les	-665
▁stud	-666
amp	-667
ness	-668
▁cent	-669
ob	-670
▁too	-671
▁because	-672
5/	-673
air	-674
orn	-675
00/	-676
▁ph	-677
▁dist	-678
ative	-679
▁inv	-680
▁sec	-681
▁As	-682
▁str	-683
▁every	-684
▁little	-685
▁sl	-686
und	-687
anc	-688
▁men	-689
▁ev	-690
ph	-691
▁those	-692
▁inst	-693
ific	-694
▁cour	-695
▁inte	-696
▁make	-697
ten	-698
ember	-699
▁very	-700
ves	-701
ern	-702
▁fact	-703
ouse	-704
atter	-705
ys	-706
▁exp	-707
▁op	-708
▁sch	-709
▁each	-710
ered	-711
▁sur	-712
ving	-713
▁world	-714
▁For	-715
▁bu	-716
ublic	-717
▁still	-718
ever	-719
way	-720
velop	-721
ont	-722
rest	-723
ween	-724
▁reg	-725
ck	-726
▁If	-727
abx	-728
▁need	-729
omm	-730
ince	-731
▁soc	-732
uring	-733
ax	-734
ures	-735
▁between	-736
▁det	-737
ros	-738
▁end	-739
ix	-740
▁call	-741
▁right	-742
▁set	-743
vern	-744
ts	-745
ared	-746
▁might	-747
▁old	-748
▁life	-749
▁never	-750
man	-751
▁count	-752
enc	-753
▁high	-754
▁being	-755
$-	-756
▁dec	-757
uh	-758
beg	-759
▁ke	-760
▁You	-761
▁day	-762
▁num	-763
▁New	-764
ower	-765
▁add	-766
▁child	-767
ement	-768
▁disc	-769
day	-770
▁same	-771
ized	-772
▁develop	-773
▁fol	-774
▁ins	-775
▁char	-776
▁head	-777
▁last	-778
ange	-779
▁met	-780
▁war	-781
ense	-782
▁turn	-783
▁exper	-784
▁int	-785
▁fin	-786
▁dr	-787
ience	-788
▁school	-789
ient	-790
ull	-791
ably	-792
▁far	-793
ility	-794
▁here	-795
ually	-796
abl	-797
ular	-798
▁both	-799
▁spec	-800
▁want	-801
▁ed	-802
▁prov	-803
ature	-804
gg	-805
▁sim	-806
▁use	-807
▁real	-808
inn	-809
▁Jo	-810
▁min	-811
ics	-812
▁conc	-813
▁read	-814
▁three	-815
li	-816
aking	-817
ody	-818
▁let	-819
als	-820
olog	-821
▁small	-822
1/	-823
der	-824
▁ac	-825
▁ext	-826
ution	-827
▁came	-828
▁tri	-829
▁dire	-830
ars	-831
▁bel	-832
▁point	-833
▁lar	-834
▁say	-835
▁against	-836
ock	-837
ertain	-838
▁gu	-839
▁few	-840
▁found	-841
ret	-842
ec	-843
4/	-844
▁Al	-845
▁used	-846
rent	-847
stem	-848
▁mar	-849
▁state	-850
▁himself	-851
cept	-852
▁diffe	-853
pped	-854
get	-855
hip	-856
▁show	-857
▁somet	-858
▁number	-859
ove	-860
ton	-861
▁Fr	-862
land	-863
ished	-864
▁come	-865
▁bas	-866
▁thought	-867
▁dep	-868
▁take	-869
▁interest	-870
ms	-871
ened	-872
▁1/	-873
ters	-874
▁ret	-875
▁When	-876
▁giv	-877
oup	-878
ines	-879
▁think	-880
doz	-881
▁bro	-882
▁American	-883
▁$	-884
▁cle	-885
any	-886
inc	-887
▁another	-888
▁fam	-889
ists	-890
▁follow	-891
gram	-892
ically	-893
▁ey	-894
imes	-895
▁val	-896
▁home	-897
▁mon	-898
▁On	-899
ield	-900
▁comple	-901
ired	-902
sible	-903
▁while	-904
iness	-905
▁proble	-906
wp	-907
▁ref	-908
its	-909
▁around	-910
ason	-911
▁system	-912
▁bus	-913
ross	-914
ib	-915
ention	-916
read	-917
▁public	-918
▁Ar	-919
ently	-920
ues	-921
▁word	-922
▁gl	-923
▁without	-924
▁place	-925
▁program	-926
▁find	-927
▁effect	-928
ank	-929
▁Mrs	-930
2/	-931
▁./.-	-932
▁His	-933
▁equ	-934
▁requ	-935
▁trans	-936
▁aut	-937
▁pur	-938
hn	-939
▁does	-940
▁def	-941
arn	-942
▁import	-943
▁present	-944
▁hel	-945
8/	-946
▁less	-947
ways	-948
▁loc	-949
▁incre	-950
ug	-951
▁pass	-952
▁cr	-953
▁member	-954
▁What	-955
▁appro	-956
▁At	-957
▁put	-958
ision	-959
ined	-960
▁contin	-961
bem	-962
rence	-963
▁went	-964
▁quest	-965
▁oper	-966
▁lead	-967
▁stand	-968
up	-969
▁partic	-970
▁conf	-971
ury	-972
ivid	-973
son	-974
▁cap	-975
▁mod	-976
▁got	-977
eg	-978
▁feel	-979
▁supp	-980
▁water	-981
alk	-982
▁cor	-983
ize	-984
▁hum	-985
ane	-986
▁night	-987
▁left	-988
▁person	-989
less	-990
con	-991
ained	-992
▁play	-993
az	-994
ger	-995
▁An	-996
▁To	-997
▁wee	-998
▁result	-999
▁sw	-1000
▁sign	-1001
▁since	-1002
6/	-1003
med	-1004
▁sit	-1005
alf	-1006
outh	-1007
▁upon	-1008
▁writ	-1009
▁occ	-1010
▁var	-1011
ric	-1012
▁el	-1013
thing	-1014
ately	-1015
rib	-1016
▁sk	-1017
here	-1018
ider	-1019
▁art	-1020
▁De	-1021
vernment	-1022
str	-1023
▁dem	-1024
▁unt	-1025
ork	-1026
▁No	-1027
most	-1028
▁ide	-1029
▁mus	-1030
▁sal	-1031
▁course	-1032
▁incl	-1033
▁United	-1034
▁Pro	-1035
▁mil	-1036
▁house	-1037
▁195	-1038
▁est	-1039
▁John	-1040
▁That	-1041
ute	-1042
io	-1043
tern	-1044
7/	-1045
pos	-1046
▁ty	-1047
▁light	-1048
iew	-1049
▁Comm	-1050
▁ste	-1051
▁law	-1052
▁away	-1053
aug	-1054
uck	-1055
▁commun	-1056
▁during	-1057
▁States	-1058
▁always	-1059
▁2/	-1060
▁So	-1061
▁How	-1062
▁four	-1063
▁che	-1064
▁help	-1065
▁open	-1066
▁produ	-1067
ude	-1068
▁adv	-1069
ages	-1070
▁cost	-1071
▁toward	-1072
duc	-1073
ices	-1074
▁par	-1075
▁certain	-1076
irl	-1077
,0	-1078
ying	-1079
▁young	-1080
ither	-1081
ee	-1082
▁cur	-1083
▁wom	-1084
▁serv	-1085
▁hist	-1086
▁until	-1087
hod	-1088
▁inf	-1089
▁large	-1090
ural	-1091
ives	-1092
▁happ	-1093
▁belie	-1094
▁Sh	-1095
▁ma	-1096
▁One	-1097
▁start	-1098
▁room	-1099
▁enough	-1100
ants	-1101
▁took	-1102
▁second	-1103
▁social	-1104
▁expl	-1105
▁once	-1106
▁stat	-1107
▁something	-1108
ization	-1109
ior	-1110
akes	-1111
▁Eng	-1112
▁resp	-1113
▁side	-1114
ched	-1115
▁don	-1116
ivers	-1117
▁const	-1118
▁care	-1119
▁told	-1120
elt	-1121
urch	-1122
▁adm	-1123
▁leg	-1124
▁hard	-1125
▁better	-1126
ets	-1127
▁beh	-1128
ived	-1129
▁almost	-1130
▁business	-1131
pr	-1132
▁mean	-1133
▁av	-1134
ling	-1135
rist	-1136
mb	-1137
aps	-1138
ins	-1139
▁group	-1140
iod	-1141
▁elect	-1142
▁order	-1143
▁power	-1144
ale	-1145
▁mind	-1146
▁class	-1147
conom	-1148
▁called	-1149
atic	-1150
▁didn	-1151
▁knew	-1152
idence	-1153
▁going	-1154
xt	-1155
iation	-1156
▁eyes	-1157
▁press	-1158
ier	-1159
▁give	-1160
chn	-1161
3/	-1162
cri	-1163
atch	-1164
ides	-1165
▁cond	-1166
iety	-1167
ried	-1168
ruct	-1169
▁big	-1170
ional	-1171
ible	-1172
orts	-1173
▁fac	-1174
▁beg	-1175
▁vis	-1176
ird	-1177
ised	-1178
▁asked	-1179
▁build	-1180
▁however	-1181
▁members	-1182
aph	-1183
iend	-1184
▁fre	-1185
jjs	-1186
▁pri	-1187
▁fore	-1188
▁196	-1189
▁days	-1190
▁face	-1191
▁though	-1192
9/	-1193
▁tre	-1194
ially	-1195
ept	-1196
▁half	-1197
ases	-1198
▁friend	-1199
▁kind	-1200
aining	-1201
ission	-1202
▁polit	-1203
ination	-1204
erv	-1205
▁aff	-1206
▁ele	-1207
,000/	-1208
arch	-1209
▁pat	-1210
▁rad	-1211
▁Pres	-1212
itions	-1213
▁possible	-1214
ley	-1215
▁given	-1216
▁ho	-1217
ided	-1218
▁girl	-1219
▁matter	-1220
side	-1221
▁expect	-1222
▁consider	-1223
ards	-1224
▁individ	-1225
stand	-1226
▁ever	-1227
▁looked	-1228
▁important	-1229
▁prof	-1230
▁God	-1231
▁next	-1232
▁Christ	-1233
▁econom	-1234
▁inform	-1235
ced	-1236
ged	-1237
▁ear	-1238
▁saw	-1239
▁prev	-1240
▁children	-1241
▁air	-1242
▁case	-1243
▁nothing	-1244
aken	-1245
▁pain	-1246
▁things	-1247
▁past	-1248
▁succ	-1249
ances	-1250
▁grow	-1251
▁become	-1252
▁proper	-1253
den	-1254
▁With	-1255
▁best	-1256
▁diff	-1257
▁Then	-1258
▁felt	-1259
▁along	-1260
▁later	-1261
▁general	-1262
ital	-1263
▁main	-1264
▁reason	-1265
▁return	-1266
▁Be	-1267
ured	-1268
▁Cl	-1269
ract	-1270
▁rather	-1271
▁All	-1272
iously	-1273
▁Ad	-1274
istr	-1275
ample	-1276
▁Re	-1277
▁tax	-1278
▁techn	-1279
ering	-1280
▁often	-1281
▁sever	-1282
▁individual	-1283
▁offic	-1284
▁contro	-1285
▁sol	-1286
ery	-1287
▁Is	-1288
▁month	-1289
ppls	-1290
selves	-1291
▁These	-1292
▁necess	-1293
ron	-1294
sib	-1295
ended	-1296
▁direct	-1297
oice	-1298
▁ant	-1299
aring	-1300
▁least	-1301
▁country	-1302
▁different	-1303
omp	-1304
ains	-1305
▁Ind	-1306
ator	-1307
▁indust	-1308
over	-1309
▁door	-1310
▁several	-1311
ency	-1312
oney	-1313
▁move	-1314
▁week	-1315
artment	-1316
rew	-1317
▁mill	-1318
▁human	-1319
▁sat	-1320
▁tell	-1321
▁early	-1322
▁mom	-1323
▁prob	-1324
▁period	-1325
▁concern	-1326
oot	-1327
istic	-1328
▁seemed	-1329
ral	-1330
▁Of	-1331
ats	-1332
▁organ	-1333
▁thing	-1334
▁name	-1335
▁field	-1336
▁hands	-1337
▁polic	-1338
iam	-1339
ream	-1340
▁fig	-1341
▁ca	-1342
rown	-1343
▁meet	-1344
▁sing	-1345
app	-1346
iver	-1347
▁land	-1348
▁simp	-1349
▁test	-1350
ified	-1351
▁York	-1352
▁hour	-1353
▁colle	-1354
▁area	-1355
uss	-1356
▁dri	-1357
orth	-1358
though	-1359
▁charac	-1360
▁within	-1361
▁eas	-1362
▁pay	-1363
▁rece	-1364
▁family	-1365
▁turned	-1366
▁Miss	-1367
▁close	-1368
▁development	-1369
▁4	-1370
jor	-1371
▁among	-1372
▁problem	-1373
'/'	-1374
ians	-1375
▁'/'	-1376
▁meas	-1377
▁whole	-1378
▁determ	-1379
▁object	-1380
gth	-1381
ony	-1382
ued	-1383
▁18	-1384
▁done	-1385
▁list	-1386
▁tem	-1387
▁ann	-1388
▁question	-1389
lf	-1390
che	-1391
▁level	-1392
ality	-1393
▁began	-1394
aid	-1395
reg	-1396
ung	-1397
▁wr	-1398
▁book	-1399
▁sense	-1400
▁special	-1401
▁es	-1402
▁eng	-1403
▁six	-1404
▁free	-1405
▁plan	-1406
▁record	-1407
▁process	-1408
aim	-1409
err	-1410
▁Not	-1411
▁term	-1412
▁design	-1413
▁includ	-1414
▁President	-1415
ook	-1416
▁sn	-1417
ames	-1418
haps	-1419
enn	-1420
ches	-1421
reet	-1422
▁job	-1423
▁hold	-1424
▁prom	-1425
wpo	-1426
ased	-1427
▁government	-1428
ploy	-1429
▁keep	-1430
▁itself	-1431
oub	-1432
por	-1433
▁dev	-1434
▁rest	-1435
oun	-1436
▁wa	-1437
▁sound	-1438
ash	-1439
▁mark	-1440
▁report	-1441
que	-1442
ising	-1443
▁indic	-1444
▁pract	-1445
icult	-1446
▁mater	-1447
▁appl	-1448
▁line	-1449
ush	-1450
▁wind	-1451
▁others	-1452
▁3/	-1453
port	-1454
used	-1455
▁cut	-1456
▁pop	-1457
▁spir	-1458
gether	-1459
▁strong	-1460
eed	-1461
ges	-1462
let	-1463
▁cann	-1464
▁major	-1465
▁subject	-1466
▁ru	-1467
▁cir	-1468
▁vol	-1469
▁means	-1470
ene	-1471
isc	-1472
▁gener	-1473
▁method	-1474
▁complete	-1475
of	-1476
▁city	-1477
▁action	-1478
▁appear	-1479
▁respon	-1480
rem	-1481
▁educ	-1482
▁success	-1483
oll	-1484
abor	-1485
▁run	-1486
▁example	-1487
▁5	-1488
▁bre	-1489
iving	-1490
▁invol	-1491
▁local	-1492
els	-1493
▁obs	-1494
▁gave	-1495
▁trad	-1496
▁material	-1497
▁character	-1498
▁Will	-1499
▁body	-1500
▁relig	-1501
▁yet	-1502
▁feet	-1503
▁State	-1504
▁moment	-1505
▁understand	-1506
edy	-1507
hvg	-1508
ries	-1509
▁Con	-1510
uation	-1511
▁difficult	-1512
ounc	-1513
▁full	-1514
▁above	-1515
▁exist	-1516
▁today	-1517
▁mot	-1518
illed	-1519
▁sure	-1520
▁death	-1521
▁short	-1522
▁Go	-1523
▁Or	-1524
▁lim	-1525
▁rev	-1526
▁taken	-1527
raw	-1528
ored	-1529
▁Now	-1530
▁fun	-1531
fully	-1532
sp	-1533
hor	-1534
▁med	-1535
▁Some	-1536
action	-1537
▁ans	-1538
ached	-1539
▁seen	-1540
▁view	-1541
▁princ	-1542
aut	-1543
aced	-1544
ready	-1545
▁town	-1546
▁across	-1547
▁ve	-1548
▁Col	-1549
▁bar	-1550
▁boy	-1551
iction	-1552
▁either	-1553
aper	-1554
ulation	-1555
▁Cong	-1556
▁five	-1557
▁experience	-1558
ape	-1559
ief	-1560
par	-1561
▁Ph	-1562
ppos	-1563
▁sum	-1564
ggest	-1565
▁money	-1566
▁quite	-1567
ert	-1568
▁iss	-1569
▁avail	-1570
▁front	-1571
▁learn	-1572
▁shall	-1573
▁themselves	-1574
▁Car	-1575
▁words	-1576
▁tot	-1577
iment	-1578
▁white	-1579
▁history	-1580
▁really	-1581
▁suggest	-1582
▁dro	-1583
▁national	-1584
men	-1585
▁anything	-1586
erc	-1587
ike	-1588
utes	-1589
▁ple	-1590
▁conv	-1591
▁love	-1592
▁music	-1593
▁times	-1594
▁Ro	-1595
▁ill	-1596
ortun	-1597
▁except	-1598
▁support	-1599
▁Was	-1600
itive	-1601
▁suff	-1602
▁accept	-1603
▁employ	-1604
▁mother	-1605
▁express	-1606
aff	-1607
agn	-1608
oss	-1609
qlp	-1610
▁del	-1611
▁fall	-1612
▁chang	-1613
▁common	-1614
▁ground	-1615
▁together	-1616
▁fil	-1617
▁deal	-1618
ending	-1619
▁information	-1620
▁held	-1621
urther	-1622
▁sent	-1623
▁talk	-1624
▁cannot	-1625
▁having	-1626
▁repres	-1627
▁whether	-1628
iting	-1629
▁road	-1630
▁already	-1631
mit	-1632
oph	-1633
ederal	-1634
ference	-1635
▁establ	-1636
▁Pl	-1637
br	-1638
▁self	-1639
▁political	-1640
ume	-1641
▁By	-1642
▁brought	-1643
osp	-1644
osed	-1645
▁priv	-1646
▁allow	-1647
▁manag	-1648
▁seems	-1649
▁descri	-1650
▁making	-1651
▁perform	-1652
▁service	-1653
▁hy	-1654
▁squ	-1655
itary	-1656
▁After	-1657
▁whose	-1658
ological	-1659
eor	-1660
▁addition	-1661
ium	-1662
▁Har	-1663
▁circ	-1664
ilities	-1665
body	-1666
reen	-1667
▁top	-1668
gress	-1669
▁Bl	-1670
empt	-1671
▁ago	-1672
▁pict	-1673
▁entire	-1674
▁aw	-1675
▁cre	-1676
▁known	-1677
▁became	-1678
▁hot	-1679
▁low	-1680
▁mor	-1681
▁wife	-1682
▁behind	-1683
▁Dr	-1684
enty	-1685
▁cal	-1686
▁why	-1687
▁West	-1688
▁change	-1689
▁ir	-1690
medi	-1691
▁Sec	-1692
▁mid	-1693
▁pie	-1694
▁camp	-1695
▁activ	-1696
▁respect	-1697
face	-1698
▁appe	-1699
inistr	-1700
▁author	-1701
▁church	-1702
iversity	-1703
▁Gen	-1704
▁heard	-1705
▁company	-1706
▁problems	-1707
▁available	-1708
▁War	-1709
▁dark	-1710
▁study	-1711
▁position	-1712
oon	-1713
▁nat	-1714
▁liter	-1715
▁control	-1716
hvn	-1717
▁abs	-1718
ively	-1719
▁woman	-1720
▁probably	-1721
lu	-1722
▁Gr	-1723
hern	-1724
▁hor	-1725
▁areas	-1726
inning	-1727
▁clear	-1728
pec	-1729
▁Co	-1730
▁spirit	-1731
▁discuss	-1732
chie	-1733
▁Rus	-1734
▁total	-1735
▁7	-1736
dle	-1737
irt	-1738
lish	-1739
ext	-1740
▁fut	-1741
aces	-1742
▁Mar	-1743
▁else	-1744
▁fail	-1745
▁wall	-1746
▁super	-1747
use	-1748
▁May	-1749
usion	-1750
alked	-1751
duced	-1752
ingly	-1753
ology	-1754
▁sens	-1755
▁ident	-1756
by	-1757
▁Q	-1758
▁hig	-1759
▁ord	-1760
▁claim	-1761
▁policy	-1762
▁wanted	-1763
ah	-1764
▁6	-1765
inal	-1766
undred	-1767
▁English	-1768
▁product	-1769
ef	-1770
▁swe	-1771
▁post	-1772
acy	-1773
ots	-1774
airs	-1775
cent	-1776
▁ten	-1777
yl	-1778
erg	-1779
▁age	-1780
ouble	-1781
▁mach	-1782
▁morn	-1783
▁amount	-1784
ead	-1785
ogn	-1786
avor	-1787
▁den	-1788
▁dom	-1789
▁red	-1790
aster	-1791
▁voice	-1792
▁necessary	-1793
co	-1794
ctor	-1795
ster	-1796
▁wond	-1797
▁heart	-1798
ipl	-1799
uro	-1800
▁ra	-1801
▁bed	-1802
▁flo	-1803
▁economic	-1804
▁relations	-1805
▁represent	-1806
ote	-1807
val	-1808
head	-1809
ison	-1810
▁opp	-1811
ences	-1812
ening	-1813
▁true	-1814
▁hundred	-1815
▁profess	-1816
▁demand	-1817
▁future	-1818
▁community	-1819
oke	-1820
▁enc	-1821
▁able	-1822
▁anal	-1823
▁prim	-1824
▁modern	-1825
▁office	-1826
▁America	-1827
▁Washing	-1828
ories	-1829
▁dest	-1830
▁beaut	-1831
▁regard	-1832
▁Washington	-1833
ocr	-1834
oud	-1835
▁La	-1836
uted	-1837
▁Ste	-1838
▁typ	-1839
▁perhaps	-1840
▁provide	-1841
ows	-1842
▁non	-1843
▁father	-1844
▁Br	-1845
ills	-1846
king	-1847
▁spr	-1848
▁Char	-1849
▁stood	-1850
sibility	-1851
▁morning	-1852
my	-1853
attle	-1854
▁Germ	-1855
▁fell	-1856
▁force	-1857
▁dead	-1858
▁fire	-1859
▁rate	-1860
▁type	-1861
▁personal	-1862
▁Do	-1863
▁Her	-1864
▁bit	-1865
iding	-1866
▁hope	-1867
▁recogn	-1868
▁Sp	-1869
itor	-1870
▁bot	-1871
ously	-1872
▁answ	-1873
▁fund	-1874
▁orig	-1875
▁prec	-1876
▁slow	-1877
retary	-1878
▁achie	-1879
▁princip	-1880
▁4/	-1881
▁norm	-1882
▁black	-1883
▁immedi	-1884
▁million	-1885
▁surface	-1886
iff	-1887
fact	-1888
▁sil	-1889
▁crit	-1890
▁doub	-1891
▁South	-1892
▁subst	-1893
▁students	-1894
ips	-1895
▁comb	-1896
▁near	-1897
▁stri	-1898
ication	-1899
▁following	-1900
▁My	-1901
ctly	-1902
itte	-1903
▁Rep	-1904
▁party	-1905
▁value	-1906
ata	-1907
ones	-1908
▁Man	-1909
▁Geor	-1910
▁heav	-1911
▁Po	-1912
road	-1913
ential	-1914
▁plann	-1915
iol	-1916
▁Dep	-1917
▁pot	-1918
ption	-1919
▁ball	-1920
▁believe	-1921
▁evidence	-1922
ems	-1923
ump	-1924
alth	-1925
tained	-1926
▁leave	-1927
▁treat	-1928
▁Commun	-1929
▁project	-1930
wh	-1931
omes	-1932
▁div	-1933
▁lay	-1934
ister	-1935
▁fear	-1936
▁stay	-1937
▁Russi	-1938
▁market	-1939
▁further	-1940
▁poet	-1941
▁occur	-1942
▁women	-1943
▁although	-1944
ument	-1945
▁phys	-1946
▁longer	-1947
▁single	-1948
▁military	-1949
sy	-1950
arent	-1951
▁House	-1952
▁prote	-1953
ability	-1954
▁invest	-1955
▁situation	-1956
aged	-1957
▁bad	-1958
▁General	-1959
▁leaders	-1960
▁society	-1961
▁various	-1962
▁Pe	-1963
▁unc	-1964
arily	-1965
pping	-1966
▁idea	-1967
▁miss	-1968
▁says	-1969
▁break	-1970
▁bring	-1971
▁lines	-1972
olution	-1973
▁require	-1974
▁started	-1975
▁increase	-1976
ift	-1977
▁Sch	-1978
▁imag	-1979
utions	-1980
▁months	-1981
▁minutes	-1982
umb	-1983
▁jud	-1984
urope	-1985
▁Even	-1986
▁soon	-1987
0,000/	-1988
▁stock	-1989
▁jo	-1990
ival	-1991
where	-1992
▁Brit	-1993
▁cell	-1994
ection	-1995
▁alone	-1996
▁stren	-1997
▁center	-1998
ification	-1999
▁Sc	-2000
▁ap	-2001
rial	-2002
rote	-2003
▁Kenn	-2004
▁cold	-2005
▁gone	-2006
▁contr	-2007
▁impro	-2008
▁Europe	-2009
▁William	-2010
▁outside	-2011
▁schools	-2012
ends	-2013
idge	-2014
ivil	-2015
imate	-2016
itude	-2017
▁agre	-2018
▁rese	-2019
▁usually	-2020
▁pressure	-2021
rop	-2022
▁Le	-2023
egro	-2024
enth	-2025
▁prep	-2026
▁wide	-2027
▁nature	-2028
▁private	-2029
ming	-2030
pose	-2031
raph	-2032
▁Phil	-2033
ctions	-2034
lected	-2035
▁board	-2036
▁third	-2037
▁needed	-2038
▁attempt	-2039
▁expected	-2040
uth	-2041
▁hon	-2042
▁grad	-2043
▁kept	-2044
ularly	-2045
▁influ	-2046
▁intern	-2047
▁living	-2048
▁tradition	-2049
▁particular	-2050
ams	-2051
▁Ex	-2052
▁ce	-2053
ilar	-2054
acher	-2055
▁live	-2056
▁tele	-2057
▁compet	-2058
▁states	-2059
▁values	-2060
▁century	-2061
fer	-2062
▁)/)-	-2063
▁basis	-2064
▁eight	-2065
▁Christian	-2066
tic	-2067
ises	-2068
▁Act	-2069
▁ran	-2070
▁food	-2071
▁favor	-2072
▁Jun	-2073
ament	-2074
ining	-2075
▁propos	-2076
▁Congress	-2077
ilt	-2078
wql	-2079
lled	-2080
▁sud	-2081
▁repl	-2082
▁moved	-2083
▁wrote	-2084
▁contrib	-2085
▁friends	-2086
▁greater	-2087
▁required	-2088
▁hus	-2089
▁obv	-2090
▁,/,-	-2091
▁decl	-2092
▁flow	-2093
▁mere	-2094
▁sour	-2095
ruction	-2096
iled	-2097
▁corn	-2098
▁oppos	-2099
▁Department	-2100
▁conditions	-2101
uff	-2102
▁fo	-2103
oles	-2104
▁Mor	-2105
▁ver	-2106
▁More	-2107
▁bene	-2108
▁late	-2109
▁Negro	-2110
▁detail	-2111
▁temper	-2112
ires	-2113
yond	-2114
▁liber	-2115
▁nation	-2116
▁attention	-2117
lex	-2118
▁fa	-2119
aching	-2120
▁account	-2121
▁industry	-2122
ma	-2123
ady	-2124
▁Tr	-2125
▁mis	-2126
ittee	-2127
▁frequ	-2128
▁space	-2129
▁stage	-2130
outhern	-2131
▁administr	-2132
▁education	-2133
ify	-2134
band	-2135
just	-2136
▁bal	-2137
▁sun	-2138
ength	-2139
epend	-2140
▁hair	-2141
▁Since	-2142
▁color	-2143
▁hours	-2144
▁makes	-2145
ler	-2146
hood	-2147
▁ess	-2148
▁son	-2149
▁lost	-2150
▁broad	-2151
▁concl	-2152
▁couldn	-2153
▁won	-2154
anger	-2155
inner	-2156
▁1960/	-2157
▁costs	-2158
▁quick	-2159
▁followed	-2160
athe	-2161
augh	-2162
▁aud	-2163
▁stra	-2164
▁North	-2165
▁added	-2166
▁carry	-2167
▁opportun	-2168
arm	-2169
▁$1	-2170
angu	-2171
aves	-2172
ille	-2173
aught	-2174
rench	-2175
attern	-2176
ipment	-2177
▁tried	-2178
▁coming	-2179
▁However	-2180
▁including	-2181
ina	-2182
duct	-2183
▁bur	-2184
▁tou	-2185
▁Just	-2186
estern	-2187
▁miles	-2188
▁sudden	-2189
▁feeling	-2190
▁reached	-2191
▁developed	-2192
lin	-2193
iful	-2194
room	-2195
▁doll	-2196
▁sort	-2197
▁peace	-2198
▁sales	-2199
▁Island	-2200
0-	-2201
ids	-2202
ney	-2203
mbol	-2204
reme	-2205
▁deep	-2206
▁fine	-2207
▁attack	-2208
▁recent	-2209
▁measure	-2210
▁National	-2211
lo	-2212
ze	-2213
▁Se	-2214
amed	-2215
eter	-2216
▁Ang	-2217
▁Let	-2218
▁Thus	-2219
▁fight	-2220
▁floor	-2221
▁shown	-2222
▁figure	-2223
▁instit	-2224
▁simply	-2225
▁symbol	-2226
▁Kennedy	-2227
▁college	-2228
isl	-2229
imum	-2230
lier	-2231
▁Cor	-2232
▁sex	-2233
▁sle	-2234
▁anti	-2235
▁aver	-2236
▁hear	-2237
▁assign	-2238
▁husband	-2239
▁meaning	-2240
$$	-2241
eth	-2242
▁Why	-2243
▁exc	-2244
▁fif	-2245
▁neg	-2246
▁data	-2247
▁port	-2248
ements	-2249
ressed	-2250
▁assoc	-2251
▁separ	-2252
▁speak	-2253
▁England	-2254
▁natural	-2255
▁pattern	-2256
▁signific	-2257
▁equipment	-2258
▁everything	-2259
&/	-2260
▁&/	-2261
▁Jew	-2262
inary	-2263
tered	-2264
▁From	-2265
▁Thom	-2266
▁cult	-2267
▁firm	-2268
▁basic	-2269
▁doing	-2270
▁earth	-2271
▁taking	-2272
▁picture	-2273
▁received	-2274
▁sometimes	-2275
iar	-2276
▁arg	-2277
▁(/(-	-2278
▁labor	-2279
▁inside	-2280
▁trying	-2281
pecially	-2282
▁looking	-2283
mp	-2284
nil	-2285
▁Ed	-2286
oard	-2287
▁194	-2288
▁dog	-2289
▁gun	-2290
ledge	-2291
▁Well	-2292
▁lack	-2293
▁street	-2294
urb	-2295
▁Tw	-2296
ighb	-2297
▁Hen	-2298
▁nor	-2299
ators	-2300
izing	-2301
▁:/:-	-2302
▁feed	-2303
idered	-2304
▁plant	-2305
▁terms	-2306
▁watch	-2307
▁concept	-2308
▁continu	-2309
▁straight	-2310
▁Secretary	-2311
hel	-2312
bert	-2313
nning	-2314
▁exam	-2315
▁phil	-2316
▁autom	-2317
▁neighb	-2318
▁simple	-2319
▁walked	-2320
▁progress	-2321
▁beginning	-2322
▁religious	-2323
like	-2324
▁bill	-2325
▁paper	-2326
▁surpr	-2327
▁accord	-2328
▁beyond	-2329
▁engine	-2330
▁struct	-2331
▁getting	-2332
▁function	-2333
▁Government	-2334
sh	-2335
ode	-2336
rel	-2337
ging	-2338
itch	-2339
raft	-2340
▁enj	-2341
▁emot	-2342
▁mann	-2343
ograph	-2344
▁story	-2345
▁table	-2346
▁assist	-2347
▁passed	-2348
▁similar	-2349
▁Mc	-2350
▁Here	-2351
▁Jack	-2352
▁mass	-2353
▁famil	-2354
▁govern	-2355
▁histor	-2356
▁techni	-2357
▁therefore	-2358
▁especially	-2359
umn	-2360
▁Don	-2361
▁pret	-2362
▁French	-2363
▁former	-2364
▁higher	-2365
▁foreign	-2366
▁purpose	-2367
itc	-2368
▁ang	-2369
▁mur	-2370
▁pull	-2371
▁walk	-2372
ension	-2373
▁assum	-2374
▁blood	-2375
▁range	-2376
▁length	-2377
ees	-2378
set	-2379
ague	-2380
atur	-2381
rang	-2382
viet	-2383
aving	-2384
▁farm	-2385
ousand	-2386
▁cross	-2387
▁growth	-2388
▁written	-2389
▁property	-2390
gin	-2391
rec	-2392
▁10/	-2393
▁deg	-2394
▁cool	-2395
▁fair	-2396
▁sold	-2397
▁final	-2398
▁needs	-2399
▁working	-2400
▁Pr	-2401
irty	-2402
pper	-2403
sequ	-2404
vere	-2405
eness	-2406
▁East	-2407
▁langu	-2408
▁likely	-2409
▁meeting	-2410
ucle	-2411
▁eye	-2412
▁tra	-2413
▁Comp	-2414
▁conn	-2415
▁draw	-2416
ishing	-2417
▁enjoy	-2418
▁obser	-2419
▁answer	-2420
▁twenty	-2421
▁considered	-2422
de	-2423
hib	-2424
ston	-2425
test	-2426
▁wood	-2427
▁cover	-2428
▁occas	-2429
▁building	-2430
lt	-2431
ici	-2432
▁Oh	-2433
oper	-2434
oted	-2435
▁Cal	-2436
▁arm	-2437
▁win	-2438
astic	-2439
ightly	-2440
▁Brown	-2441
▁satis	-2442
▁Church	-2443
▁forces	-2444
▁countries	-2445
▁difference	-2446
%/	-2447
zz	-2448
bur	-2449
▁Su	-2450
aren	-2451
anced	-2452
▁Cath	-2453
▁wasn	-2454
inated	-2455
▁cases	-2456
▁creat	-2457
▁mount	-2458
▁ready	-2459
▁letter	-2460
▁involved	-2461
▁remember	-2462
ama	-2463
onn	-2464
▁ut	-2465
▁psy	-2466
▁thus	-2467
ration	-2468
▁works	-2469
▁Soviet	-2470
▁teacher	-2471
▁happened	-2472
▁training	-2473
bel	-2474
pri	-2475
▁5/	-2476
▁Dem	-2477
▁sho	-2478
iated	-2479
▁paid	-2480
▁step	-2481
▁effort	-2482
▁philos	-2483
▁decided	-2484
▁distrib	-2485
▁Southern	-2486
▁thousand	-2487
▁knowledge	-2488
ky	-2489
▁Per	-2490
▁mem	-2491
▁yes	-2492
antly	-2493
▁init	-2494
▁issue	-2495
▁lower	-2496
▁visit	-2497
▁proced	-2498
▁condition	-2499
omb	-2500
▁Ass	-2501
▁led	-2502
▁nar	-2503
ables	-2504
icked	-2505
spect	-2506
▁base	-2507
▁whom	-2508
▁compl	-2509
▁moral	-2510
▁points	-2511
▁earlier	-2512
▁Qu	-2513
imal	-2514
mber	-2515
▁Sen	-2516
▁rul	-2517
▁coun	-2518
▁hous	-2519
ession	-2520
▁horse	-2521
▁wrong	-2522
▁summer	-2523
▁particularly	-2524
azz	-2525
the	-2526
uly	-2527
▁Ma	-2528
ixed	-2529
▁hit	-2530
▁text	-2531
rences	-2532
▁court	-2533
▁weeks	-2534
▁normal	-2535
▁permit	-2536
▁showed	-2537
▁results	-2538
▁direction	-2539
▁increased	-2540
▁president	-2541
▁statement	-2542
ceed	-2543
▁Ber	-2544
cious	-2545
▁opin	-2546
▁viol	-2547
▁girls	-2548
▁nucle	-2549
▁thick	-2550
▁thinking	-2551
▁beautiful	-2552
▁production	-2553
arp	-2554
gen	-2555
ysis	-2556
▁due	-2557
ustom	-2558
▁Cour	-2559
▁size	-2560
▁event	-2561
▁freed	-2562
▁George	-2563
▁reading	-2564
▁strength	-2565
ties	-2566
▁Par	-2567
atory	-2568
ulated	-2569
▁ideas	-2570
▁truth	-2571
▁methods	-2572
▁programs	-2573
▁research	-2574
▁8	-2575
oto	-2576
agon	-2577
ourn	-2578
wise	-2579
▁amb	-2580
▁pan	-2581
asing	-2582
▁pool	-2583
▁repe	-2584
ensive	-2585
▁mention	-2586
▁directly	-2587
▁reaction	-2588
▁experiment	-2589
amm	-2590
▁Me	-2591
oups	-2592
▁Lou	-2593
▁Yet	-2594
▁hur	-2595
lying	-2596
▁ther	-2597
▁clean	-2598
▁doubt	-2599
▁psych	-2600
▁trade	-2601
▁chance	-2602
▁Federal	-2603
▁population	-2604
nny	-2605
ball	-2606
irst	-2607
▁gas	-2608
▁wat	-2609
▁Cent	-2610
▁City	-2611
▁boys	-2612
▁police	-2613
▁command	-2614
▁prevent	-2615
▁appeared	-2616
▁concerned	-2617
arb	-2618
ergy	-2619
rief	-2620
▁Wor	-2621
▁lot	-2622
▁mer	-2623
▁1961/	-2624
▁White	-2625
▁below	-2626
itation	-2627
▁nearly	-2628
▁stress	-2629
▁consist	-2630
inet	-2631
tled	-2632
▁ter	-2633
▁comes	-2634
▁anyone	-2635
▁merely	-2636
▁scient	-2637
▁brother	-2638
▁section	-2639
▁trouble	-2640
▁physical	-2641
▁continued	-2642
▁questions	-2643
att	-2644
▁mag	-2645
▁sty	-2646
ufact	-2647
▁foot	-2648
ounced	-2649
▁civil	-2650
▁enter	-2651
▁glass	-2652
▁piece	-2653
▁using	-2654
▁During	-2655
▁editor	-2656
▁influence	-2657
ett	-2658
for	-2659
cell	-2660
▁hop	-2661
▁imm	-2662
oming	-2663
ushed	-2664
▁arri	-2665
▁fing	-2666
▁loss	-2667
▁cause	-2668
▁drink	-2669
▁arrang	-2670
▁middle	-2671
▁opened	-2672
▁conduct	-2673
▁finally	-2674
▁literature	-2675
▁Ab	-2676
time	-2677
▁try	-2678
ipped	-2679
encies	-2680
▁wonder	-2681
▁impress	-2682
▁suddenly	-2683
▁temperature	-2684
aul	-2685
▁ur	-2686
ades	-2687
hold	-2688
▁rap	-2689
iling	-2690
▁coup	-2691
▁remo	-2692
▁dream	-2693
▁evening	-2694
▁instead	-2695
▁stopped	-2696
▁official	-2697
▁University	-2698
▁industrial	-2699
-/	-2700
ik	-2701
ded	-2702
unk	-2703
fort	-2704
▁Fig	-2705
▁Sam	-2706
▁cit	-2707
erson	-2708
ights	-2709
▁game	-2710
▁hall	-2711
▁magn	-2712
▁ways	-2713
ppoint	-2714
▁worth	-2715
atively	-2716
▁Democr	-2717
▁health	-2718
▁myself	-2719
▁theory	-2720
▁worked	-2721
▁Republic	-2722
▁actually	-2723
▁provided	-2724
▁reported	-2725
▁services	-2726
▁effective	-2727
emy	-2728
aily	-2729
teen	-2730
what	-2731
▁cand	-2732
▁forms	-2733
▁manner	-2734
▁recomm	-2735
▁achieve	-2736
▁average	-2737
stit	-2738
▁easy	-2739
▁chair	-2740
▁radio	-2741
▁Cathol	-2742
▁placed	-2743
▁threat	-2744
▁changes	-2745
▁defense	-2746
▁freedom	-2747
▁specific	-2748
ner	-2749
▁di	-2750
▁la	-2751
ques	-2752
▁aid	-2753
▁unf	-2754
othes	-2755
▁Mary	-2756
icient	-2757
▁mouth	-2758
arently	-2759
▁charge	-2760
▁compar	-2761
▁degree	-2762
▁groups	-2763
▁window	-2764
▁wouldn	-2765
▁efforts	-2766
▁herself	-2767
▁systems	-2768
▁independ	-2769
ingu	-2770
year	-2771
iscal	-2772
▁Park	-2773
▁burn	-2774
▁desp	-2775
isions	-2776
▁legisl	-2777
▁square	-2778
▁carried	-2779
▁central	-2780
▁movement	-2781
ago	-2782
▁Ho	-2783
aker	-2784
chan	-2785
▁fit	-2786
asons	-2787
▁acqu	-2788
▁thin	-2789
▁financ	-2790
▁season	-2791
▁Although	-2792
▁approach	-2793
▁contract	-2794
▁electron	-2795
▁somewhat	-2796
▁performance	-2797
af	-2798
▁ult	-2799
aries	-2800
irgin	-2801
▁emer	-2802
▁excl	-2803
▁publ	-2804
▁Court	-2805
▁distr	-2806
▁faith	-2807
▁restr	-2808
▁round	-2809
ospital	-2810
▁couple	-2811
▁larger	-2812
▁latter	-2813
▁series	-2814
▁serious	-2815
▁investig	-2816
▁manufact	-2817
▁treatment	-2818
▁throughout	-2819
yro	-2820
ouncil	-2821
▁Every	-2822
▁Other	-2823
▁aftern	-2824
▁formul	-2825
▁interp	-2826
▁numbers	-2827
▁decision	-2828
▁determined	-2829
▁international	-2830
▁Aj	-2831
▁ep	-2832
come	-2833
ests	-2834
iber	-2835
resp	-2836
▁Ann	-2837
▁cho	-2838
▁esc	-2839
vered	-2840
▁role	-2841
▁First	-2842
▁While	-2843
▁distin	-2844
▁mechan	-2845
▁British	-2846
▁complex	-2847
▁forward	-2848
▁described	-2849
▁philosoph	-2850
▁opportunity	-2851
ux	-2852
well	-2853
▁dim	-2854
▁ful	-2855
▁scr	-2856
antic	-2857
▁Rich	-2858
▁fast	-2859
▁furn	-2860
▁ones	-2861
▁quar	-2862
▁tend	-2863
itable	-2864
▁marri	-2865
▁sharp	-2866
▁trial	-2867
▁compan	-2868
▁indeed	-2869
▁served	-2870
▁federal	-2871
▁running	-2872
▁generally	-2873
▁understanding	-2874
rom	-2875
aded	-2876
ford	-2877
▁ask	-2878
▁Each	-2879
▁atom	-2880
▁blue	-2881
▁mess	-2882
▁qual	-2883
▁wish	-2884
▁image	-2885
▁corner	-2886
▁clearly	-2887
▁medical	-2888
▁establish	-2889
▁technical	-2890
hr	-2891
▁'	-2892
top	-2893
▁10	-2894
rugg	-2895
▁bul	-2896
▁voc	-2897
alled	-2898
ivity	-2899
▁Sund	-2900
▁liqu	-2901
▁shot	-2902
▁song	-2903
▁vict	-2904
▁novel	-2905
▁occup	-2906
▁pleas	-2907
▁steps	-2908
aughter	-2909
▁corpor	-2910
▁interv	-2911
▁spring	-2912
▁nations	-2913
▁persons	-2914
▁certainly	-2915
▁immediately	-2916
ov	-2917
yn	-2918
▁Han	-2919
▁Pal	-2920
▁cat	-2921
bered	-2922
▁arms	-2923
▁pred	-2924
▁rock	-2925
▁Frank	-2926
▁aware	-2927
▁based	-2928
▁behav	-2929
▁brief	-2930
▁staff	-2931
▁types	-2932
▁fiscal	-2933
▁learned	-2934
▁neighbor	-2935
▁responsibility	-2936
ask	-2937
bes	-2938
unt	-2939
▁Sm	-2940
greg	-2941
iles	-2942
▁fat	-2943
▁oil	-2944
enced	-2945
▁emph	-2946
atures	-2947
ground	-2948
▁Louis	-2949
▁benef	-2950
▁displ	-2951
▁heavy	-2952
▁rapid	-2953
▁custom	-2954
▁danger	-2955
▁travel	-2956
▁volume	-2957
▁attract	-2958
▁student	-2959
▁activity	-2960
▁audience	-2961
▁obtained	-2962
▁planning	-2963
▁returned	-2964
▁organization	-2965
pir	-2966
urs	-2967
▁6/	-2968
aint	-2969
nder	-2970
▁tal	-2971
▁Rhod	-2972
▁coll	-2973
▁flat	-2974
▁redu	-2975
illing	-2976
▁Where	-2977
▁citiz	-2978
▁demon	-2979
▁gives	-2980
▁plane	-2981
▁spect	-2982
▁concent	-2983
▁science	-2984
ev	-2985
go	-2986
vey	-2987
▁Ke	-2988
rees	-2989
resh	-2990
vert	-2991
▁15/	-2992
▁Pat	-2993
▁cry	-2994
▁pow	-2995
lling	-2996
ppose	-2997
▁pick	-2998
▁rele	-2999
▁reve	-3000
▁ship	-3001
▁stop	-3002
▁Count	-3003
▁chief	-3004
▁drive	-3005
▁intro	-3006
▁lived	-3007
▁encour	-3008
▁experi	-3009
▁saying	-3010
▁popular	-3011
▁district	-3012
dy	-3013
mar	-3014
aign	-3015
irth	-3016
▁30/	-3017
orrow	-3018
▁Chic	-3019
atever	-3020
▁Thomas	-3021
▁remain	-3022
▁capital	-3023
▁quality	-3024
▁writing	-3025
▁Z	-3026
uit	-3027
uls	-3028
aled	-3029
iant	-3030
ustr	-3031
▁Can	-3032
▁Our	-3033
▁dry	-3034
▁vac	-3035
acing	-3036
ected	-3037
▁Such	-3038
▁react	-3039
▁touch	-3040
▁moving	-3041
▁parent	-3042
▁Another	-3043
▁include	-3044
▁according	-3045
▁completely	-3046
nna	-3047
erve	-3048
▁Bar	-3049
▁opt	-3050
▁born	-3051
▁disp	-3052
▁rail	-3053
▁wild	-3054
▁green	-3055
▁meant	-3056
▁parts	-3057
▁price	-3058
▁sleep	-3059
▁aspect	-3060
▁choice	-3061
▁extent	-3062
▁Chicago	-3063
▁current	-3064
▁extreme	-3065
▁letters	-3066
▁nuclear	-3067
▁officer	-3068
▁recently	-3069
▁activities	-3070
oid	-3071
▁16	-3072
aked	-3073
ayed	-3074
ayer	-3075
rect	-3076
▁cars	-3077
▁note	-3078
▁Their	-3079
▁World	-3080
▁Virgin	-3081
▁depend	-3082
▁slowly	-3083
▁constit	-3084
▁substant	-3085
▁9	-3086
ott	-3087
▁Ag	-3088
▁El	-3089
burg	-3090
ding	-3091
lege	-3092
ples	-3093
▁tro	-3094
▁wit	-3095
▁exac	-3096
▁Sunday	-3097
▁circum	-3098
▁destro	-3099
▁spread	-3100
▁effects	-3101
▁distance	-3102
▁afternoon	-3103
▁indicated	-3104
▁importance	-3105
▁established	-3106
:3	-3107
ox	-3108
equ	-3109
ien	-3110
▁Du	-3111
▁od	-3112
icip	-3113
uses	-3114
▁dam	-3115
inate	-3116
ville	-3117
▁crow	-3118
▁shel	-3119
▁built	-3120
▁plans	-3121
▁closed	-3122
▁Western	-3123
▁growing	-3124
▁neither	-3125
▁patient	-3126
▁station	-3127
▁campaign	-3128
▁demonstr	-3129
▁operation	-3130
▁principle	-3131
oul	-3132
▁17	-3133
▁8/	-3134
▁Sw	-3135
▁et	-3136
ateg	-3137
rupt	-3138
urer	-3139
▁Cap	-3140
▁bud	-3141
▁date	-3142
▁race	-3143
▁susp	-3144
▁warm	-3145
▁James	-3146
▁ahead	-3147
▁newsp	-3148
▁speed	-3149
▁actual	-3150
▁advant	-3151
▁bright	-3152
▁cities	-3153
▁doctor	-3154
▁easily	-3155
▁address	-3156
▁applied	-3157
▁attitude	-3158
▁designed	-3159
▁language	-3160
▁remained	-3161
▁existence	-3162
▁additional	-3163
▁administration	-3164
ym	-3165
▁Fl	-3166
▁Gu	-3167
omen	-3168
▁Sim	-3169
iable	-3170
isted	-3171
▁Many	-3172
▁clos	-3173
▁mult	-3174
▁poor	-3175
▁surv	-3176
▁whis	-3177
▁Rhode	-3178
▁defin	-3179
▁exerc	-3180
▁reach	-3181
▁seven	-3182
▁write	-3183
▁adjust	-3184
▁played	-3185
▁College	-3186
▁percent	-3187
▁continue	-3188
▁particip	-3189
50/	-3190
asc	-3191
dtx	-3192
▁Fe	-3193
wood	-3194
▁deb	-3195
urity	-3196
▁Most	-3197
▁deli	-3198
▁news	-3199
▁trip	-3200
▁weap	-3201
▁yell	-3202
▁Union	-3203
▁photo	-3204
▁spent	-3205
▁compos	-3206
▁Charles	-3207
▁becomes	-3208
▁covered	-3209
▁waiting	-3210
▁prepared	-3211
▁apparently	-3212
▁interested	-3213
▁192	-3214
▁Bur	-3215
▁Two	-3216
▁ded	-3217
▁inn	-3218
▁rat	-3219
ental	-3220
▁breat	-3221
▁dress	-3222
▁serve	-3223
▁emphas	-3224
▁limited	-3225
▁machine	-3226
▁analysis	-3227
▁elements	-3228
▁maintain	-3229
▁suggested	-3230
▁professional	-3231
▁Ne	-3232
semb	-3233
▁Com	-3234
▁Pol	-3235
▁Wil	-3236
▁Only	-3237
▁club	-3238
▁danc	-3239
▁pack	-3240
atives	-3241
▁1959/	-3242
▁scene	-3243
▁share	-3244
▁teeth	-3245
▁trust	-3246
imately	-3247
▁factors	-3248
▁married	-3249
▁reasons	-3250
▁original	-3251
▁religion	-3252
rbt	-3253
utl	-3254
ites	-3255
▁Red	-3256
▁hyp	-3257
▁max	-3258
▁tit	-3259
aches	-3260
▁Lord	-3261
▁rise	-3262
▁virt	-3263
▁German	-3264
▁commer	-3265
▁events	-3266
▁possib	-3267
▁raised	-3268
▁dropped	-3269
▁exactly	-3270
▁playing	-3271
sc	-3272
ese	-3273
mon	-3274
ops	-3275
ris	-3276
aped	-3277
▁pen	-3278
▁arch	-3279
▁forg	-3280
▁hero	-3281
▁impos	-3282
▁rates	-3283
▁sides	-3284
▁solid	-3285
▁Street	-3286
▁weight	-3287
▁comfort	-3288
▁figures	-3289
how	-3290
▁ox	-3291
ares	-3292
aste	-3293
▁emb	-3294
acity	-3295
eenth	-3296
ounds	-3297
▁June	-3298
▁Mike	-3299
▁dust	-3300
▁earn	-3301
▁exec	-3302
▁unit	-3303
ashion	-3304
▁Assoc	-3305
▁March	-3306
▁birth	-3307
▁daily	-3308
▁grant	-3309
respond	-3310
▁filled	-3311
▁hardly	-3312
▁places	-3313
▁pretty	-3314
▁status	-3315
▁dollars	-3316
▁related	-3317
▁talking	-3318
▁appropri	-3319
▁behavior	-3320
▁contrast	-3321
▁standard	-3322
▁Am	-3323
uous	-3324
▁Old	-3325
▁rif	-3326
▁Alex	-3327
▁Lond	-3328
▁Prov	-3329
▁bond	-3330
▁cred	-3331
▁hadn	-3332
▁kitc	-3333
ellect	-3334
▁knows	-3335
▁lives	-3336
▁schol	-3337
▁style	-3338
▁column	-3339
▁remark	-3340
▁entered	-3341
▁kitchen	-3342
▁correspond	-3343
▁facilities	-3344
▁techniques	-3345
▁university	-3346
▁z	-3347
ato	-3348
een	-3349
iny	-3350
rim	-3351
▁7/	-3352
▁Em	-3353
iers	-3354
town	-3355
unch	-3356
▁Gar	-3357
▁Res	-3358
▁Tex	-3359
apers	-3360
▁Mart	-3361
▁heat	-3362
▁poly	-3363
▁prop	-3364
overed	-3365
▁enemy	-3366
▁purch	-3367
▁caught	-3368
▁consum	-3369
▁income	-3370
▁supply	-3371
▁Commission	-3372
arsh	-3373
▁12/	-3374
▁film	-3375
▁mist	-3376
▁perf	-3377
▁purs	-3378
▁weak	-3379
ensity	-3380
porary	-3381
urches	-3382
▁books	-3383
▁fresh	-3384
▁sight	-3385
▁suppl	-3386
▁sweet	-3387
▁trees	-3388
▁usual	-3389
▁energy	-3390
▁integr	-3391
▁opinion	-3392
▁standing	-3393
▁Communist	-3394
▁materials	-3395
▁institutions	-3396
▁Je	-3397
anks	-3398
oman	-3399
ompl	-3400
▁Atl	-3401
▁Aug	-3402
▁Soc	-3403
▁err	-3404
▁gri	-3405
itted	-3406
▁soft	-3407
▁unif	-3408
▁instr	-3409
▁youth	-3410
▁London	-3411
▁detect	-3412
▁master	-3413
▁purpos	-3414
▁satisf	-3415
▁changed	-3416
▁studies	-3417
▁occasion	-3418
▁products	-3419
ino	-3420
iate	-3421
▁Luc	-3422
▁atm	-3423
▁box	-3424
▁sky	-3425
▁spl	-3426
ocked	-3427
right	-3428
▁beat	-3429
▁impl	-3430
▁none	-3431
▁poss	-3432
▁team	-3433
▁accur	-3434
▁estim	-3435
▁extra	-3436
▁shows	-3437
▁collect	-3438
▁accepted	-3439
▁circumst	-3440
▁included	-3441
▁considerable	-3442
key	-3443
icle	-3444
ique	-3445
llig	-3446
▁Dav	-3447
▁Yes	-3448
▁anc	-3449
▁ign	-3450
▁key	-3451
▁unp	-3452
icism	-3453
▁Ital	-3454
▁host	-3455
▁older	-3456
▁atmosp	-3457
▁belong	-3458
▁contem	-3459
▁giving	-3460
▁highly	-3461
▁strugg	-3462
▁Perhaps	-3463
▁consequ	-3464
▁improve	-3465
▁obvious	-3466
▁primary	-3467
▁practice	-3468
▁Americans	-3469
▁successful	-3470
ken	-3471
▁$2	-3472
apan	-3473
gest	-3474
hers	-3475
ring	-3476
▁20/	-3477
▁Cub	-3478
▁dut	-3479
▁kid	-3480
▁log	-3481
▁sad	-3482
field	-3483
▁Sept	-3484
▁symp	-3485
▁wait	-3486
urance	-3487
▁check	-3488
▁equal	-3489
▁pieces	-3490
▁search	-3491
▁secret	-3492
▁thirty	-3493
▁accompl	-3494
▁balance	-3495
▁clothes	-3496
▁convers	-3497
▁manager	-3498
▁sitting	-3499
▁marriage	-3500
▁determine	-3501
▁radiation	-3502
amb	-3503
ils	-3504
eler	-3505
emic	-3506
iced	-3507
lict	-3508
▁193	-3509
▁cop	-3510
▁sea	-3511
ashed	-3512
▁dram	-3513
▁outl	-3514
iments	-3515
▁1958/	-3516
▁Japan	-3517
▁Somet	-3518
▁forth	-3519
▁happy	-3520
lection	-3521
▁battle	-3522
▁cattle	-3523
▁dinner	-3524
▁narrow	-3525
▁teleph	-3526
▁destroy	-3527
▁intellect	-3528
▁objective	-3529
▁structure	-3530
▁management	-3531
alt	-3532
aven	-3533
▁Hol	-3534
▁Jan	-3535
▁San	-3536
▁bat	-3537
▁mel	-3538
▁Part	-3539
▁cris	-3540
▁River	-3541
▁domin	-3542
▁funds	-3543
▁names	-3544
iations	-3545
▁approx	-3546
▁caused	-3547
▁source	-3548
▁entirely	-3549
▁produced	-3550
▁purposes	-3551
▁construction	-3552
apt	-3553
tom	-3554
zen	-3555
▁Te	-3556
▁Any	-3557
▁Bro	-3558
▁Fin	-3559
▁der	-3560
▁env	-3561
▁mic	-3562
▁sac	-3563
icles	-3564
▁Cont	-3565
▁King	-3566
▁Merc	-3567
▁chem	-3568
▁goes	-3569
▁hung	-3570
▁laws	-3571
▁plat	-3572
▁star	-3573
▁vers	-3574
▁warn	-3575
terday	-3576
ternal	-3577
▁block	-3578
▁noted	-3579
▁Robert	-3580
▁annual	-3581
▁bottom	-3582
▁famous	-3583
▁marked	-3584
▁Richard	-3585
▁Committee	-3586
▁discussion	-3587
▁leadership	-3588
dom	-3589
rug	-3590
ancy	-3591
oned	-3592
▁191	-3593
▁Bob	-3594
odies	-3595
▁clim	-3596
▁neck	-3597
istics	-3598
▁Calif	-3599
00,000/	-3600
▁excell	-3601
▁unless	-3602
▁Council	-3603
▁uniform	-3604
▁announced	-3605
▁principal	-3606
▁expression	-3607
▁relationship	-3608
0.	-3609
rig	-3610
▁15	-3611
▁er	-3612
▁Rev	-3613
▁aim	-3614
▁isn	-3615
ifted	-3616
▁Both	-3617
▁hell	-3618
▁judg	-3619
▁libr	-3620
ounded	-3621
▁grand	-3622
▁ninet	-3623
▁spoke	-3624
▁units	-3625
▁disapp	-3626
▁resist	-3627
▁resour	-3628
▁contact	-3629
▁counter	-3630
▁parents	-3631
▁protect	-3632
▁quickly	-3633
▁regular	-3634
▁hospital	-3635
▁whatever	-3636
▁obviously	-3637
▁possibility	-3638
kn	-3639
uge	-3640
▁dra	-3641
▁sin	-3642
▁veh	-3643
ching	-3644
▁died	-3645
▁fort	-3646
▁kill	-3647
▁pure	-3648
▁conce	-3649
▁facts	-3650
▁hotel	-3651
▁remem	-3652
▁sched	-3653
▁shape	-3654
▁stret	-3655
▁takes	-3656
ception	-3657
▁County	-3658
▁Russia	-3659
▁belief	-3660
▁bridge	-3661
▁inches	-3662
▁poetry	-3663
▁allowed	-3664
▁fashion	-3665
▁reflect	-3666
▁familiar	-3667
▁finished	-3668
▁companies	-3669
▁yesterday	-3670
▁Association	-3671
cle	-3672
cul	-3673
ham	-3674
itz	-3675
ple	-3676
rol	-3677
reek	-3678
▁Khr	-3679
▁pal	-3680
ading	-3681
graph	-3682
rical	-3683
▁Once	-3684
▁bank	-3685
▁bird	-3686
▁clay	-3687
▁coff	-3688
▁cook	-3689
▁tour	-3690
▁Henry	-3691
▁doesn	-3692
▁quiet	-3693
iveness	-3694
▁Khrush	-3695
▁bitter	-3696
▁candid	-3697
▁produc	-3698
▁Hanover	-3699
▁failure	-3700
▁mission	-3701
▁records	-3702
▁stations	-3703
▁published	-3704
▁assistance	-3705
▁frequently	-3706
hem	-3707
uel	-3708
▁tu	-3709
chev	-3710
▁Bra	-3711
▁Des	-3712
▁Hel	-3713
▁Ray	-3714
▁Wal	-3715
▁Who	-3716
▁net	-3717
▁Club	-3718
▁Serv	-3719
▁park	-3720
▁path	-3721
▁rain	-3722
▁rang	-3723
▁seed	-3724
iverse	-3725
▁Corps	-3726
▁Franc	-3727
▁adequ	-3728
▁dance	-3729
▁frame	-3730
▁honor	-3731
▁remar	-3732
▁shout	-3733
▁trail	-3734
▁stated	-3735
izations	-3736
▁appears	-3737
▁element	-3738
▁musical	-3739
▁proceed	-3740
▁remains	-3741
▁strange	-3742
▁variety	-3743
▁Catholic	-3744
▁electric	-3745
▁greatest	-3746
▁intellig	-3747
▁officers	-3748
▁previous	-3749
▁transfer	-3750
▁carefully	-3751
▁Khrushchev	-3752
▁relatively	-3753
▁significant	-3754
▁traditional	-3755
ae	-3756
leg	-3757
lig	-3758
hest	-3759
work	-3760
▁Mos	-3761
▁Rob	-3762
▁tar	-3763
inent	-3764
▁band	-3765
▁jazz	-3766
▁stre	-3767
▁trag	-3768
▁offer	-3769
▁river	-3770
▁agreed	-3771
ications	-3772
▁Germany	-3773
▁commerc	-3774
▁offered	-3775
▁opening	-3776
▁workers	-3777
▁capacity	-3778
▁slightly	-3779
▁authority	-3780
▁essential	-3781
▁interests	-3782
▁collection	-3783
▁remembered	-3784
▁distribution	-3785
aby	-3786
cles	-3787
ores	-3788
ulty	-3789
▁25/	-3790
▁fem	-3791
▁hat	-3792
▁hun	-3793
▁lie	-3794
▁odd	-3795
tless	-3796
▁bomb	-3797
▁Black	-3798
▁arter	-3799
▁begin	-3800
▁divid	-3801
▁named	-3802
▁shoot	-3803
▁upper	-3804
▁France	-3805
▁School	-3806
▁active	-3807
▁attend	-3808
▁double	-3809
▁suppos	-3810
▁appoint	-3811
▁produce	-3812
▁someone	-3813
▁sources	-3814
▁univers	-3815
▁churches	-3816
▁director	-3817
▁instance	-3818
▁proposed	-3819
▁potential	-3820
▁presented	-3821
▁impossible	-3822
▁requirements	-3823
▁circumstances	-3824
**	-3825
ek	-3826
gl	-3827
yal	-3828
▁Gl	-3829
onom	-3830
osen	-3831
▁Mon	-3832
▁flu	-3833
▁mal	-3834
venue	-3835
▁adop	-3836
▁mail	-3837
▁nine	-3838
▁safe	-3839
change	-3840
orough	-3841
▁cells	-3842
▁fixed	-3843
▁index	-3844
▁union	-3845
▁houses	-3846
▁review	-3847
▁Russian	-3848
▁created	-3849
▁proport	-3850
▁watched	-3851
▁citizens	-3852
▁positive	-3853
▁provides	-3854
▁subjects	-3855
▁committee	-3856
▁financial	-3857
▁immediate	-3858
▁operating	-3859
▁philosophy	-3860
▁scientific	-3861
▁interesting	-3862
ses	-3863
eman	-3864
iday	-3865
isto	-3866
▁Del	-3867
▁Off	-3868
▁Sal	-3869
▁buy	-3870
▁wis	-3871
ander	-3872
tling	-3873
▁Fred	-3874
▁tool	-3875
▁fifty	-3876
▁fully	-3877
▁north	-3878
▁rough	-3879
▁store	-3880
▁Berlin	-3881
▁observ	-3882
▁stream	-3883
▁leaving	-3884
▁liberal	-3885
▁maximum	-3886
▁willing	-3887
▁features	-3888
▁indicate	-3889
▁agreement	-3890
▁apartment	-3891
▁explained	-3892
▁recognized	-3893
▁intellectual	-3894
aur	-3895
isk	-3896
sec	-3897
uzz	-3898
▁**	-3899
ager	-3900
▁mov	-3901
arden	-3902
estic	-3903
orous	-3904
▁Army	-3905
▁Fore	-3906
▁empt	-3907
▁gold	-3908
▁laug	-3909
▁nice	-3910
▁rare	-3911
▁rich	-3912
▁exhib	-3913
▁south	-3914
▁train	-3915
inating	-3916
▁compon	-3917
▁cooper	-3918
▁crisis	-3919
▁desire	-3920
▁forced	-3921
▁memory	-3922
▁murder	-3923
▁Company	-3924
▁Protest	-3925
▁illustr	-3926
▁session	-3927
▁studied	-3928
▁advantage	-3929
▁mentioned	-3930
▁atmosphere	-3931
▁operations	-3932
ha	-3933
etr	-3934
ope	-3935
▁-/	-3936
▁12	-3937
quar	-3938
▁Bel	-3939
▁Cur	-3940
▁Its	-3941
▁Out	-3942
▁anx	-3943
▁cow	-3944
▁mut	-3945
enses	-3946
iples	-3947
light	-3948
overy	-3949
▁boat	-3950
▁doct	-3951
▁edge	-3952
▁mold	-3953
▁rose	-3954
▁rout	-3955
▁Angel	-3956
▁blind	-3957
▁guess	-3958
▁match	-3959
▁poems	-3960
▁refer	-3961
▁Mercer	-3962
▁Morgan	-3963
▁apprec	-3964
▁excess	-3965
▁picked	-3966
▁winter	-3967
▁reality	-3968
▁reports	-3969
▁smaller	-3970
▁Virginia	-3971
▁opposite	-3972
▁Providence	-3973
▁differences	-3974
deg	-3975
uto	-3976
yth	-3977
▁Jr	-3978
cast	-3979
etic	-3980
isen	-3981
uded	-3982
▁Mad	-3983
▁Tom	-3984
craft	-3985
▁100/	-3986
▁Bill	-3987
▁Mass	-3988
▁Mond	-3989
▁laid	-3990
▁spot	-3991
▁tang	-3992
▁Afric	-3993
▁Jones	-3994
▁Under	-3995
▁anode	-3996
▁looks	-3997
▁Indian	-3998
▁Jewish	-3999
▁depart	-4000
▁formed	-4001
▁pointed	-4002
▁precise	-4003
▁reduced	-4004
▁believed	-4005
▁everyone	-4006
▁supposed	-4007
abb	-4008
ana	-4009
dro	-4010
ios	-4011
ule	-4012
uts	-4013
udes	-4014
▁pet	-4015
aging	-4016
onnel	-4017
▁Rome	-4018
▁diss	-4019
▁gain	-4020
▁gray	-4021
▁soul	-4022
▁terr	-4023
illage	-4024
▁award	-4025
▁knife	-4026
▁rules	-4027
▁assess	-4028
▁beside	-4029
▁bottle	-4030
▁leader	-4031
▁acceler	-4032
▁classes	-4033
▁delight	-4034
▁economy	-4035
▁follows	-4036
▁hearing	-4037
▁receive	-4038
▁weather	-4039
▁literary	-4040
▁platform	-4041
▁response	-4042
▁separate	-4043
▁buildings	-4044
▁construct	-4045
▁interpret	-4046
▁procedure	-4047
▁difficulty	-4048
uct	-4049
▁bi	-4050
▁App	-4051
▁Med	-4052
▁cam	-4053
▁eat	-4054
anche	-4055
apter	-4056
ented	-4057
verse	-4058
▁Hard	-4059
▁Nove	-4060
▁elim	-4061
▁file	-4062
▁seek	-4063
▁vary	-4064
▁vote	-4065
▁Never	-4066
▁limit	-4067
▁print	-4068
▁accomp	-4069
▁budget	-4070
▁coffee	-4071
▁killed	-4072
▁region	-4073
▁stayed	-4074
▁justice	-4075
▁removed	-4076
▁treated	-4077
▁November	-4078
▁distingu	-4079
▁presence	-4080
▁conscious	-4081
▁convention	-4082
▁corporation	-4083
▁neighborhood	-4084
ald	-4085
▁Cr	-4086
ught	-4087
▁Bec	-4088
▁Lew	-4089
▁gro	-4090
icted	-4091
obile	-4092
omial	-4093
▁tone	-4094
lement	-4095
▁Charl	-4096
▁Inter	-4097
▁Satur	-4098
▁minor	-4099
▁rifle	-4100
▁altern	-4101
▁failed	-4102
▁origin	-4103
▁seeing	-4104
▁select	-4105
▁ability	-4106
▁comment	-4107
▁congreg	-4108
▁daughter	-4109
▁observed	-4110
▁repeated	-4111
▁security	-4112
▁watching	-4113
▁entertain	-4114
▁expressed	-4115
berg	-4116
inch	-4117
pril	-4118
uate	-4119
▁Adm	-4120
▁Jes	-4121
▁die	-4122
▁eth	-4123
▁foc	-4124
▁nod	-4125
▁rid	-4126
arian	-4127
house	-4128
oting	-4129
using	-4130
▁acad	-4131
▁hors	-4132
▁snow	-4133
▁unus	-4134
icated	-4135
ournal	-4136
vision	-4137
▁bound	-4138
▁brown	-4139
▁crack	-4140
▁ideal	-4141
▁legal	-4142
theless	-4143
▁county	-4144
▁prefer	-4145
▁pulled	-4146
▁writer	-4147
atically	-4148
▁faculty	-4149
▁selected	-4150
▁background	-4151
▁discovered	-4152
ai	-4153
lec	-4154
ayne	-4155
vent	-4156
▁Mil	-4157
▁Tre	-4158
▁uns	-4159
known	-4160
udson	-4161
ulate	-4162
▁bare	-4163
▁lean	-4164
▁moon	-4165
▁Paris	-4166
▁Texas	-4167
▁analy	-4168
▁cloud	-4169
▁depth	-4170
▁loose	-4171
▁plain	-4172
▁therm	-4173
▁throw	-4174
▁animal	-4175
▁appeal	-4176
▁artist	-4177
▁unders	-4178
▁Because	-4179
▁assumed	-4180
▁planned	-4181
▁election	-4182
▁personnel	-4183
▁resources	-4184
▁standards	-4185
▁commercial	-4186
▁individuals	-4187
ey	-4188
ech	-4189
ius	-4190
lem	-4191
off	-4192
▁ge	-4193
back	-4194
icit	-4195
ship	-4196
umes	-4197
▁hab	-4198
▁tom	-4199
utive	-4200
▁Paul	-4201
▁evil	-4202
▁fool	-4203
▁hang	-4204
▁harm	-4205
▁inev	-4206
▁join	-4207
▁send	-4208
▁April	-4209
▁broke	-4210
▁faces	-4211
▁items	-4212
▁thyro	-4213
▁vital	-4214
▁Monday	-4215
▁chosen	-4216
▁factor	-4217
▁horses	-4218
▁impact	-4219
▁proved	-4220
▁smiled	-4221
▁respond	-4222
▁writers	-4223
▁Saturday	-4224
▁pictures	-4225
▁Democratic	-4226
▁increasing	-4227
▁vocational	-4228
▁responsible	-4229
tr	-4230
lim	-4231
van	-4232
▁Spe	-4233
▁sem	-4234
chest	-4235
class	-4236
orney	-4237
▁Also	-4238
▁dise	-4239
▁roof	-4240
▁situ	-4241
▁wine	-4242
▁Board	-4243
▁Great	-4244
▁Smith	-4245
▁drawn	-4246
▁paint	-4247
▁simpl	-4248
▁wants	-4249
▁August	-4250
▁advert	-4251
▁happen	-4252
▁reject	-4253
▁rights	-4254
▁target	-4255
quarters	-4256
▁Service	-4257
▁formula	-4258
▁initial	-4259
▁carrying	-4260
▁constant	-4261
▁prospect	-4262
▁interview	-4263
▁recommend	-4264
▁instrument	-4265
zy	-4266
asp	-4267
ico	-4268
ubb	-4269
amic	-4270
ears	-4271
hens	-4272
ican	-4273
roll	-4274
tood	-4275
▁Law	-4276
▁See	-4277
▁cab	-4278
▁inj	-4279
▁tim	-4280
allen	-4281
ounce	-4282
▁diam	-4283
▁lawy	-4284
▁onto	-4285
▁plus	-4286
▁innoc	-4287
▁numer	-4288
▁walls	-4289
▁Hudson	-4290
▁career	-4291
▁democr	-4292
▁expand	-4293
▁fields	-4294
▁levels	-4295
▁prepar	-4296
▁prison	-4297
▁useful	-4298
▁waited	-4299
▁ordered	-4300
▁possess	-4301
▁realize	-4302
▁request	-4303
▁shelter	-4304
▁suppose	-4305
▁Californ	-4306
▁conflict	-4307
▁realized	-4308
▁emotional	-4309
▁increases	-4310
▁otherwise	-4311
▁manufacturer	-4312
gia	-4313
igr	-4314
▁0.	-4315
▁id	-4316
anta	-4317
burn	-4318
ocks	-4319
▁Are	-4320
▁Dan	-4321
▁Ill	-4322
▁Jud	-4323
▁Lit	-4324
▁cas	-4325
▁hol	-4326
▁lad	-4327
ients	-4328
organ	-4329
range	-4330
wered	-4331
▁Fort	-4332
▁bron	-4333
▁inqu	-4334
▁jump	-4335
▁lips	-4336
▁phen	-4337
▁rule	-4338
uments	-4339
▁Those	-4340
▁agree	-4341
▁calls	-4342
▁maybe	-4343
▁ought	-4344
▁twice	-4345
ensions	-4346
iciency	-4347
▁Before	-4348
▁beauty	-4349
▁fellow	-4350
▁liquid	-4351
▁notice	-4352
▁powers	-4353
▁unique	-4354
▁largely	-4355
▁minimum	-4356
▁settled	-4357
▁compared	-4358
▁division	-4359
▁ordinary	-4360
▁completed	-4361
▁practical	-4362
▁California	-4363
▁connection	-4364
▁historical	-4365
▁principles	-4366
▁characteristic	-4367
-1	-4368
bo	-4369
kes	-4370
put	-4371
ray	-4372
sey	-4373
ugg	-4374
▁ax	-4375
five	-4376
ture	-4377
▁Acc	-4378
▁Feb	-4379
▁etc	-4380
▁sym	-4381
night	-4382
utral	-4383
▁dogs	-4384
▁ends	-4385
▁entr	-4386
▁legs	-4387
▁lock	-4388
▁luck	-4389
▁page	-4390
▁perm	-4391
▁shut	-4392
▁sick	-4393
usions	-4394
▁Lewis	-4395
▁Peace	-4396
▁grass	-4397
▁model	-4398
▁score	-4399
▁smell	-4400
▁trend	-4401
▁asking	-4402
▁broken	-4403
▁machin	-4404
▁motion	-4405
▁remind	-4406
▁speech	-4407
▁actions	-4408
▁consult	-4409
▁Moreover	-4410
▁answered	-4411
▁instruct	-4412
▁occurred	-4413
▁yourself	-4414
▁excellent	-4415
▁reference	-4416
▁telephone	-4417
▁revolution	-4418
▁statements	-4419
▁appropriate	-4420
yr	-4421
asy	-4422
ipp	-4423
rey	-4424
alle	-4425
ette	-4426
illy	-4427
iron	-4428
uary	-4429
▁Day	-4430
▁Mic	-4431
▁Pet	-4432
▁Roy	-4433
▁dil	-4434
▁pil	-4435
▁rig	-4436
▁ton	-4437
▁wel	-4438
erted	-4439
erved	-4440
iance	-4441
▁Bost	-4442
▁Carl	-4443
▁July	-4444
▁eval	-4445
▁gall	-4446
▁pock	-4447
▁subs	-4448
▁tall	-4449
▁China	-4450
▁Green	-4451
▁Jesus	-4452
▁abstr	-4453
▁apart	-4454
▁oblig	-4455
▁phase	-4456
▁signs	-4457
▁unity	-4458
eration	-4459
ography	-4460
▁Wilson	-4461
▁helped	-4462
▁issues	-4463
▁listen	-4464
▁relief	-4465
▁advance	-4466
▁despite	-4467
▁fingers	-4468
▁rapidly	-4469
▁typical	-4470
▁witness	-4471
▁declared	-4472
▁directed	-4473
▁policies	-4474
▁railroad	-4475
▁thorough	-4476
▁Administr	-4477
▁ourselves	-4478
▁membership	-4479
▁independent	-4480
▁substantial	-4481
▁significance	-4482
bs	-4483
ipe	-4484
itt	-4485
usi	-4486
arth	-4487
aval	-4488
▁Thr	-4489
▁sen	-4490
▁sor	-4491
iring	-4492
olute	-4493
uries	-4494
▁Jess	-4495
▁baby	-4496
▁blow	-4497
▁desk	-4498
▁enth	-4499
▁gets	-4500
▁isol	-4501
▁wore	-4502
ometer	-4503
urally	-4504
▁Maybe	-4505
▁entit	-4506
▁homes	-4507
▁hydro	-4508
▁plays	-4509
▁wheel	-4510
degrees	-4511
▁Boston	-4512
▁Parker	-4513
▁Though	-4514
▁claims	-4515
▁fourth	-4516
▁preced	-4517
▁stands	-4518
▁Central	-4519
▁leading	-4520
▁adequate	-4521
▁measured	-4522
▁politics	-4523
▁projects	-4524
▁sections	-4525
▁teachers	-4526
▁employees	-4527
▁estimated	-4528
▁fundament	-4529
▁spiritual	-4530
▁electronic	-4531
▁educational	-4532
▁imagination	-4533
agg	-4534
cer	-4535
cks	-4536
min	-4537
une	-4538
vis	-4539
▁Lo	-4540
cher	-4541
hlor	-4542
ooth	-4543
owed	-4544
▁Reg	-4545
▁Sir	-4546
▁fab	-4547
▁pun	-4548
allas	-4549
amber	-4550
icate	-4551
▁?/.-	-4552
▁Laos	-4553
▁grew	-4554
▁jobs	-4555
▁jury	-4556
▁sand	-4557
▁site	-4558
▁thro	-4559
▁wage	-4560
▁avoid	-4561
▁empty	-4562
▁metal	-4563
▁prior	-4564
▁yield	-4565
tenance	-4566
▁affect	-4567
▁bodies	-4568
▁forget	-4569
▁signal	-4570
▁slight	-4571
▁capable	-4572
▁closely	-4573
▁matters	-4574
▁objects	-4575
▁European	-4576
▁aircraft	-4577
▁argument	-4578
▁concentr	-4579
▁distinct	-4580
▁families	-4581
▁phenomen	-4582
▁discussed	-4583
▁everybody	-4584
▁transport	-4585
▁department	-4586
▁protection	-4587
▁reasonable	-4588
▁application	-4589
▁approximately	-4590
▁communication	-4591
va	-4592
avy	-4593
irm	-4594
▁11	-4595
▁9/	-4596
▁Mo	-4597
aret	-4598
icks	-4599
izes	-4600
omin	-4601
▁2:3	-4602
▁Att	-4603
▁Min	-4604
▁Rec	-4605
▁fle	-4606
▁phr	-4607
▁rot	-4608
▁sav	-4609
▁vig	-4610
hower	-4611
orton	-4612
▁Sher	-4613
▁anim	-4614
▁cast	-4615
▁drew	-4616
▁goal	-4617
▁iron	-4618
▁sell	-4619
▁spok	-4620
cember	-4621
▁Greek	-4622
▁Roman	-4623
▁brill	-4624
▁guard	-4625
▁spons	-4626
▁troub	-4627
▁yards	-4628
▁obtain	-4629
▁sexual	-4630
▁suburb	-4631
▁yellow	-4632
onscious	-4633
▁ancient	-4634
▁aspects	-4635
▁correct	-4636
▁cutting	-4637
▁explain	-4638
▁highest	-4639
▁holding	-4640
▁located	-4641
▁message	-4642
▁fighting	-4643
▁powerful	-4644
▁universe	-4645
▁primarily	-4646
▁Protestant	-4647
▁contemporary	-4648
ety	-4649
zed	-4650
▁pa	-4651
▁11/	-4652
▁Alf	-4653
▁Art	-4654
▁Ben	-4655
▁Wat	-4656
▁ble	-4657
▁cou	-4658
▁hen	-4659
▁lin	-4660
▁mat	-4661
▁sam	-4662
▁unw	-4663
inese	-4664
orter	-4665
umber	-4666
▁Jose	-4667
▁Wood	-4668
▁bear	-4669
▁load	-4670
▁nose	-4671
▁pale	-4672
▁Class	-4673
▁Eisen	-4674
▁Henri	-4675
▁crowd	-4676
▁drove	-4677
▁motor	-4678
▁quant	-4679
chestra	-4680
ression	-4681
▁Friday	-4682
▁Palmer	-4683
▁assume	-4684
▁escape	-4685
▁explan	-4686
▁reduce	-4687
▁affairs	-4688
▁arrived	-4689
▁benefit	-4690
▁billion	-4691
▁convinc	-4692
▁enthusi	-4693
▁greatly	-4694
▁passing	-4695
▁portion	-4696
▁towards	-4697
▁turning	-4698
▁unusual	-4699
▁December	-4700
▁achieved	-4701
▁dominant	-4702
▁dramatic	-4703
▁incident	-4704
▁relation	-4705
▁struggle	-4706
▁tomorrow	-4707
▁newspaper	-4708
▁recognize	-4709
▁assignment	-4710
▁conference	-4711
▁resolution	-4712
▁sufficient	-4713
-1/	-4714
lor	-4715
rif	-4716
ums	-4717
bell	-4718
fast	-4719
hips	-4720
raid	-4721
▁50/	-4722
▁Def	-4723
▁Pap	-4724
apped	-4725
berts	-4726
board	-4727
round	-4728
▁Cons	-4729
▁Lind	-4730
▁drop	-4731
▁folk	-4732
▁item	-4733
▁myth	-4734
ipping	-4735
▁Bible	-4736
▁chest	-4737
▁consc	-4738
▁persu	-4739
▁traff	-4740
▁truck	-4741
istrict	-4742
▁Martin	-4743
▁Senate	-4744
▁assemb	-4745
▁fright	-4746
▁owners	-4747
▁prices	-4748
▁transl	-4749
▁Britain	-4750
▁Nations	-4751
▁careful	-4752
▁challen	-4753
▁diction	-4754
▁showing	-4755
▁succeed	-4756
▁weapons	-4757
▁agencies	-4758
▁chemical	-4759
▁domestic	-4760
▁friendly	-4761
▁location	-4762
▁pleasure	-4763
▁shoulder	-4764
▁starting	-4765
▁teaching	-4766
▁sensitive	-4767
▁Eisenhower	-4768
▁procedures	-4769
▁properties	-4770
▁Administration	-4771
bl	-4772
cr	-4773
po	-4774
ss	-4775
het	-4776
acle	-4777
foot	-4778
omer	-4779
rine	-4780
▁Air	-4781
▁Joe	-4782
▁Joh	-4783
▁mix	-4784
▁pit	-4785
▁tur	-4786
itors	-4787
rible	-4788
▁Like	-4789
▁busy	-4790
▁fill	-4791
▁save	-4792
▁sets	-4793
▁stim	-4794
▁task	-4795
▁trem	-4796
▁vast	-4797
▁David	-4798
▁India	-4799
▁proud	-4800
▁worry	-4801
acement	-4802
▁Dallas	-4803
▁closer	-4804
▁insist	-4805
▁rising	-4806
▁smooth	-4807
▁stared	-4808
▁Finally	-4809
▁Further	-4810
▁Negroes	-4811
▁anticip	-4812
▁contain	-4813
▁heavily	-4814
▁perfect	-4815
▁refused	-4816
▁traffic	-4817
▁District	-4818
▁existing	-4819
▁feelings	-4820
▁learning	-4821
▁contained	-4822
▁machinery	-4823
▁experiments	-4824
col	-4825
esh	-4826
ita	-4827
more	-4828
▁Did	-4829
▁Mot	-4830
▁Mus	-4831
▁cos	-4832
▁mad	-4833
▁mir	-4834
▁sew	-4835
ureau	-4836
usive	-4837
▁Long	-4838
▁Tues	-4839
▁clar	-4840
▁conj	-4841
▁dial	-4842
▁dism	-4843
▁rear	-4844
▁shad	-4845
▁shop	-4846
▁tree	-4847
▁Three	-4848
▁allot	-4849
▁ended	-4850
▁finds	-4851
▁taste	-4852
▁guests	-4853
▁headed	-4854
▁sovere	-4855
▁struck	-4856
▁Tuesday	-4857
▁equally	-4858
▁neutral	-4859
▁setting	-4860
▁tension	-4861
▁exchange	-4862
▁scholars	-4863
▁ultimate	-4864
▁Sometimes	-4865
▁transform	-4866
▁Republican	-4867
▁concerning	-4868
▁conclusion	-4869
▁maintenance	-4870
▁organizations	-4871
now	-4872
pro	-4873
▁rh	-4874
anch	-4875
hand	-4876
mann	-4877
pson	-4878
rban	-4879
▁Ham	-4880
▁Mex	-4881
▁Tod	-4882
▁Whe	-4883
▁mob	-4884
▁rom	-4885
aying	-4886
erate	-4887
mouth	-4888
▁Hand	-4889
▁Papa	-4890
▁army	-4891
▁duty	-4892
▁lose	-4893
▁myst	-4894
▁stro	-4895
▁uses	-4896
itudes	-4897
rently	-4898
▁Congo	-4899
▁forty	-4900
▁liked	-4901
▁magaz	-4902
▁smile	-4903
▁stick	-4904
▁tests	-4905
duction	-4906
ictions	-4907
▁Alfred	-4908
▁Joseph	-4909
▁afford	-4910
▁circle	-4911
▁finger	-4912
▁plants	-4913
▁recall	-4914
▁sports	-4915
▁talked	-4916
standing	-4917
ulations	-4918
▁Chinese	-4919
▁courses	-4920
▁culture	-4921
▁equival	-4922
▁parties	-4923
▁stories	-4924
▁emphasis	-4925
▁exercise	-4926
▁judgment	-4927
▁possibly	-4928
▁wondered	-4929
▁technique	-4930
▁understood	-4931
acc	-4932
ari	-4933
gar	-4934
ole	-4935
olf	-4936
udd	-4937
▁Sy	-4938
▁cy	-4939
atin	-4940
down	-4941
oses	-4942
rete	-4943
roph	-4944
▁joy	-4945
▁san	-4946
achel	-4947
iplom	-4948
▁Good	-4949
▁Hans	-4950
▁calc	-4951
▁ring	-4952
▁west	-4953
▁aband	-4954
▁alive	-4955
▁aside	-4956
▁goods	-4957
▁shook	-4958
▁songs	-4959
attered	-4960
orthern	-4961
▁causes	-4962
▁fairly	-4963
▁invent	-4964
▁Georgia	-4965
▁Section	-4966
▁bedroom	-4967
▁charged	-4968
▁details	-4969
▁enjoyed	-4970
▁evident	-4971
▁keeping	-4972
▁somehow	-4973
▁streets	-4974
stitution	-4975
▁absolute	-4976
▁apparent	-4977
▁baseball	-4978
▁definite	-4979
▁entrance	-4980
▁majority	-4981
▁painting	-4982
▁requires	-4983
▁soldiers	-4984
▁solution	-4985
▁September	-4986
▁permitted	-4987
▁processes	-4988
▁appearance	-4989
▁associated	-4990
▁continuing	-4991
▁achievement	-4992
▁combination	-4993
,5	-4994
erk	-4995
fare	-4996
term	-4997
uild	-4998
ults	-4999
▁14/	-5000
▁Asi	-5001
▁Div	-5002
▁Hot	-5003
▁Jer	-5004
▁god	-5005
▁pul	-5006
▁row	-5007
▁wet	-5008
endit	-5009
erves	-5010
hetic	-5011
otion	-5012
ousin	-5013
uting	-5014
▁Hear	-5015
▁Inst	-5016
▁Pont	-5017
▁Your	-5018
▁mile	-5019
▁mine	-5020
▁mort	-5021
idents	-5022
irable	-5023
▁Among	-5024
▁apply	-5025
▁blank	-5026
▁enfor	-5027
▁fiber	-5028
▁loved	-5029
▁minds	-5030
▁spite	-5031
▁truly	-5032
ibility	-5033
▁Govern	-5034
▁Public	-5035
▁bought	-5036
▁formal	-5037
▁honest	-5038
▁minute	-5039
▁presum	-5040
entially	-5041
▁content	-5042
▁suspect	-5043
▁academic	-5044
▁becoming	-5045
▁critical	-5046
▁entitled	-5047
▁informed	-5048
▁breakfast	-5049
▁intensity	-5050
▁officials	-5051
▁organized	-5052
▁providing	-5053
▁surprised	-5054
▁competition	-5055
▁represented	-5056
▁headquarters	-5057
ls	-5058
oe	-5059
▁i	-5060
kin	-5061
▁Er	-5062
anke	-5063
cked	-5064
itan	-5065
olly	-5066
rbit	-5067
thur	-5068
west	-5069
▁18/	-5070
▁Met	-5071
▁Mid	-5072
▁Rem	-5073
▁Sar	-5074
▁ban	-5075
▁doc	-5076
▁gar	-5077
eping	-5078
tense	-5079
tober	-5080
▁High	-5081
▁Jews	-5082
▁coat	-5083
▁drug	-5084
▁hole	-5085
▁lady	-5086
▁runs	-5087
▁scen	-5088
iences	-5089
ieties	-5090
▁Marsh	-5091
▁firms	-5092
▁scale	-5093
▁skill	-5094
▁theme	-5095
▁track	-5096
▁urban	-5097
agement	-5098
▁Wright	-5099
▁afraid	-5100
▁begins	-5101
▁breath	-5102
▁credit	-5103
▁desper	-5104
▁device	-5105
▁diplom	-5106
▁dispos	-5107
▁expans	-5108
▁forest	-5109
▁joined	-5110
▁medium	-5111
▁perman	-5112
▁screen	-5113
▁sought	-5114
▁tables	-5115
▁vision	-5116
▁wished	-5117
idential	-5118
▁demands	-5119
▁protest	-5120
▁replied	-5121
▁discover	-5122
▁extended	-5123
▁identity	-5124
▁regarded	-5125
▁conducted	-5126
▁naturally	-5127
▁confidence	-5128
▁dictionary	-5129
▁previously	-5130
mat	-5131
oln	-5132
tts	-5133
war	-5134
▁$3	-5135
anda	-5136
apes	-5137
athy	-5138
emen	-5139
rant	-5140
tles	-5141
wide	-5142
▁16/	-5143
▁:/.	-5144
▁Fre	-5145
▁Jim	-5146
▁McC	-5147
▁bag	-5148
▁har	-5149
▁lic	-5150
▁ren	-5151
akers	-5152
ictor	-5153
itect	-5154
olved	-5155
orial	-5156
oring	-5157
▁Scot	-5158
▁defe	-5159
▁seat	-5160
▁soil	-5161
▁tiss	-5162
▁twel	-5163
ctober	-5164
itated	-5165
umbled	-5166
▁catch	-5167
▁categ	-5168
▁flesh	-5169
▁frank	-5170
▁notes	-5171
▁roads	-5172
▁rooms	-5173
▁spend	-5174
▁Edward	-5175
▁Hearst	-5176
▁forgot	-5177
▁garden	-5178
▁gather	-5179
▁sample	-5180
▁troops	-5181
▁unable	-5182
▁unlike	-5183
▁January	-5184
▁Nothing	-5185
▁conserv	-5186
▁divided	-5187
▁environ	-5188
▁grounds	-5189
▁trained	-5190
▁victory	-5191
▁governor	-5192
▁improved	-5193
▁positions	-5194
▁supported	-5195
▁wonderful	-5196
▁components	-5197
▁generation	-5198
0'	-5199
ki	-5200
ta	-5201
0%/	-5202
asm	-5203
mes	-5204
ulf	-5205
appy	-5206
oked	-5207
part	-5208
▁Nor	-5209
▁Six	-5210
▁Squ	-5211
▁Str	-5212
▁cra	-5213
▁fro	-5214
aming	-5215
icial	-5216
▁Four	-5217
▁Mosc	-5218
▁Stud	-5219
▁auto	-5220
▁bath	-5221
▁cock	-5222
▁huge	-5223
▁rend	-5224
▁risk	-5225
▁skin	-5226
▁suit	-5227
achuse	-5228
ushing	-5229
▁Brook	-5230
▁Civil	-5231
▁coord	-5232
▁drunk	-5233
▁games	-5234
▁inner	-5235
▁prove	-5236
▁title	-5237
oration	-5238
stitute	-5239
▁Watson	-5240
▁conven	-5241
▁create	-5242
▁driver	-5243
▁orders	-5244
▁pushed	-5245
▁severe	-5246
▁switch	-5247
ferences	-5248
iciently	-5249
▁absence	-5250
▁beneath	-5251
▁disease	-5252
▁fifteen	-5253
▁flowers	-5254
▁granted	-5255
▁imagine	-5256
▁largest	-5257
▁windows	-5258
achusetts	-5259
▁Japanese	-5260
▁assigned	-5261
▁expendit	-5262
▁negative	-5263
▁properly	-5264
▁satisfact	-5265
▁nineteenth	-5266
▁description	-5267
▁experienced	-5268
▁experiences	-5269
▁Massachusetts	-5270
ada	-5271
adel	-5272
ails	-5273
gers	-5274
vant	-5275
vard	-5276
▁Bay	-5277
▁Che	-5278
▁Haw	-5279
▁Jul	-5280
▁Rel	-5281
▁Win	-5282
▁egg	-5283
▁ice	-5284
▁lat	-5285
▁mos	-5286
▁por	-5287
▁saf	-5288
ansas	-5289
uable	-5290
▁Linc	-5291
▁Look	-5292
▁Poet	-5293
▁frag	-5294
▁orth	-5295
▁pian	-5296
▁swim	-5297
▁Again	-5298
▁Still	-5299
▁dozen	-5300
▁phone	-5301
▁towns	-5302
▁wagon	-5303
▁Arthur	-5304
▁Mantle	-5305
▁Moscow	-5306
▁acting	-5307
▁artery	-5308
▁handle	-5309
▁sounds	-5310
▁victim	-5311
▁widely	-5312
▁Lincoln	-5313
▁Roberts	-5314
▁captain	-5315
▁centers	-5316
▁deliber	-5317
▁payment	-5318
▁machines	-5319
▁minister	-5320
▁vacation	-5321
▁vehicles	-5322
▁decisions	-5323
▁editorial	-5324
▁provision	-5325
▁introduced	-5326
▁photograph	-5327
▁fundamental	-5328
▁institution	-5329
▁establishment	-5330
rep	-5331
rid	-5332
line	-5333
omed	-5334
onel	-5335
phia	-5336
ront	-5337
uled	-5338
▁13/	-5339
▁Gre	-5340
▁Los	-5341
▁Unc	-5342
▁Vol	-5343
▁cru	-5344
▁cup	-5345
▁fur	-5346
▁unh	-5347
ender	-5348
gency	-5349
ropol	-5350
tical	-5351
▁Hall	-5352
▁Mark	-5353
▁Prof	-5354
▁coal	-5355
▁hill	-5356
▁rent	-5357
▁scar	-5358
▁wave	-5359
vation	-5360
▁Hardy	-5361
▁Latin	-5362
▁Table	-5363
▁Yanke	-5364
▁angle	-5365
▁begun	-5366
▁boats	-5367
▁champ	-5368
▁gentl	-5369
▁grown	-5370
▁negot	-5371
▁raise	-5372
▁tired	-5373
▁views	-5374
▁waves	-5375
▁Warren	-5376
▁abroad	-5377
▁bronch	-5378
▁female	-5379
▁nodded	-5380
▁plenty	-5381
▁stages	-5382
adelphia	-5383
▁Angeles	-5384
▁October	-5385
▁animals	-5386
▁devoted	-5387
▁driving	-5388
▁enterpr	-5389
▁laughed	-5390
▁putting	-5391
▁telling	-5392
▁advanced	-5393
▁approval	-5394
▁thoughts	-5395
▁weakness	-5396
▁architect	-5397
▁shoulders	-5398
▁developing	-5399
▁profession	-5400
▁situations	-5401
▁governments	-5402
▁necessarily	-5403
▁Philadelphia	-5404
▁conventional	-5405
▁characteristics	-5406
hm	-5407
ned	-5408
rer	-5409
aton	-5410
gged	-5411
inct	-5412
lets	-5413
osph	-5414
otic	-5415
sect	-5416
▁Det	-5417
▁Spr	-5418
▁adj	-5419
▁bra	-5420
▁jur	-5421
▁pou	-5422
acket	-5423
icken	-5424
imony	-5425
osing	-5426
othal	-5427
ulous	-5428
vania	-5429
▁Conf	-5430
▁Dire	-5431
▁Have	-5432
▁merc	-5433
▁pair	-5434
▁tact	-5435
▁Earth	-5436
▁chain	-5437
▁faced	-5438
▁hoped	-5439
▁stone	-5440
▁tract	-5441
ylvania	-5442
▁advice	-5443
▁commit	-5444
▁easier	-5445
▁issued	-5446
▁multip	-5447
▁reform	-5448
▁remove	-5449
▁suspic	-5450
▁wooden	-5451
▁Charlie	-5452
▁desired	-5453
▁expense	-5454
▁housing	-5455
▁noticed	-5456
▁paralle	-5457
▁restaur	-5458
▁walking	-5459
▁accompan	-5460
▁detailed	-5461
▁internal	-5462
▁surprise	-5463
ortunately	-5464
▁brilliant	-5465
▁detective	-5466
▁elections	-5467
▁extremely	-5468
▁practices	-5469
▁conviction	-5470
▁impression	-5471
▁conversation	-5472
▁interpretation	-5473
5-	-5474
izz	-5475
isms	-5476
ucks	-5477
umin	-5478
▁Bre	-5479
▁Inc	-5480
▁Leg	-5481
▁Sus	-5482
▁bes	-5483
▁hes	-5484
▁mud	-5485
▁oxy	-5486
▁tow	-5487
▁wed	-5488
cript	-5489
ietly	-5490
▁Aust	-5491
▁Cuba	-5492
▁carb	-5493
▁cele	-5494
▁east	-5495
▁flex	-5496
▁king	-5497
▁pink	-5498
▁tiny	-5499
rehens	-5500
ricult	-5501
▁About	-5502
▁Labor	-5503
▁bonds	-5504
▁chart	-5505
▁grace	-5506
▁grave	-5507
▁hopes	-5508
▁manif	-5509
▁shore	-5510
▁utter	-5511
reation	-5512
▁Indust	-5513
▁League	-5514
▁colors	-5515
▁firmly	-5516
▁nobody	-5517
▁papers	-5518
▁pocket	-5519
▁propag	-5520
▁rolled	-5521
▁scream	-5522
▁silent	-5523
▁taught	-5524
▁twelve	-5525
▁valley	-5526
aneously	-5527
▁Through	-5528
▁depends	-5529
▁intense	-5530
▁substit	-5531
abilities	-5532
▁cultural	-5533
▁employed	-5534
▁millions	-5535
▁operator	-5536
▁rational	-5537
▁somebody	-5538
▁tendency	-5539
▁Therefore	-5540
▁childhood	-5541
▁convinced	-5542
▁criticism	-5543
▁television	-5544
▁advertising	-5545
▁environment	-5546
▁publication	-5547
▁consideration	-5548
▁administrative	-5549
abe	-5550
ini	-5551
aine	-5552
eper	-5553
ieth	-5554
isco	-5555
look	-5556
mans	-5557
▁21/	-5558
▁24/	-5559
▁Him	-5560
▁Mac	-5561
▁arc	-5562
▁cig	-5563
agged	-5564
astro	-5565
ayers	-5566
egreg	-5567
▁Adam	-5568
▁Blue	-5569
▁Stan	-5570
▁Time	-5571
▁amaz	-5572
▁deny	-5573
▁desc	-5574
▁plot	-5575
▁poem	-5576
▁prem	-5577
▁vent	-5578
akespe	-5579
ifying	-5580
▁1957/	-5581
▁habit	-5582
▁humor	-5583
▁stiff	-5584
▁swung	-5585
▁theat	-5586
▁worse	-5587
athetic	-5588
▁Accord	-5589
▁agency	-5590
▁choose	-5591
▁estate	-5592
▁exceed	-5593
▁leaves	-5594
▁territ	-5595
▁Rayburn	-5596
▁artists	-5597
▁conform	-5598
▁fiction	-5599
▁finding	-5600
▁knowing	-5601
▁missile	-5602
▁moments	-5603
▁operate	-5604
▁passage	-5605
▁quarter	-5606
▁quietly	-5607
▁remarks	-5608
▁unknown	-5609
▁Shakespe	-5610
▁abstract	-5611
▁agricult	-5612
▁announce	-5613
▁chairman	-5614
▁concrete	-5615
▁creative	-5616
▁measures	-5617
▁speaking	-5618
▁Alexander	-5619
▁attitudes	-5620
▁centuries	-5621
▁exception	-5622
▁acceptance	-5623
▁commission	-5624
▁comparison	-5625
▁efficiency	-5626
▁impressive	-5627
▁maintained	-5628
▁proportion	-5629
▁measurements	-5630
▁concentration	-5631
▁opportunities	-5632
▁X	-5633
oly	-5634
rad	-5635
▁Ac	-5636
▁Sk	-5637
▁fu	-5638
abil	-5639
nned	-5640
oral	-5641
tion	-5642
▁23/	-5643
▁Cle	-5644
▁Ser	-5645
▁aer	-5646
▁hom	-5647
▁jun	-5648
▁pup	-5649
ester	-5650
icity	-5651
ishes	-5652
ruary	-5653
▁Greg	-5654
▁calm	-5655
▁dear	-5656
▁meat	-5657
▁till	-5658
apping	-5659
▁Peter	-5660
▁alien	-5661
▁brush	-5662
▁coast	-5663
▁enorm	-5664
▁fears	-5665
▁fruit	-5666
▁mathe	-5667
▁relax	-5668
▁sheet	-5669
▁teach	-5670
century	-5671
▁Junior	-5672
▁courts	-5673
▁denied	-5674
▁strike	-5675
▁submar	-5676
▁survey	-5677
▁Italian	-5678
▁burning	-5679
▁install	-5680
▁library	-5681
▁periods	-5682
▁silence	-5683
▁tragedy	-5684
▁tremend	-5685
▁version	-5686
▁village	-5687
▁February	-5688
▁accident	-5689
▁admitted	-5690
▁contrary	-5691
▁drinking	-5692
▁examples	-5693
▁expenses	-5694
▁patterns	-5695
▁payments	-5696
▁shooting	-5697
▁expansion	-5698
▁somewhere	-5699
▁testimony	-5700
▁thickness	-5701
▁equivalent	-5702
▁remarkable	-5703
▁surprising	-5704
▁Shakespeare	-5705
▁association	-5706
▁integration	-5707
▁personality	-5708
▁practically	-5709
gt	-5710
boy	-5711
die	-5712
ele	-5713
len	-5714
pet	-5715
tes	-5716
▁$5	-5717
▁vo	-5718
char	-5719
etta	-5720
kind	-5721
otes	-5722
uman	-5723
▁22/	-5724
▁60/	-5725
▁Big	-5726
▁bin	-5727
▁fed	-5728
▁guy	-5729
▁ham	-5730
avery	-5731
clock	-5732
lfare	-5733
▁Anne	-5734
▁Clay	-5735
▁Five	-5736
▁buff	-5737
▁mood	-5738
▁stir	-5739
▁tong	-5740
isters	-5741
▁1954/	-5742
▁Adams	-5743
▁Grand	-5744
▁anger	-5745
▁birds	-5746
▁brain	-5747
▁rhyth	-5748
▁rural	-5749
▁schem	-5750
▁threw	-5751
▁veter	-5752
▁waste	-5753
▁Motors	-5754
▁arrest	-5755
▁celebr	-5756
▁decade	-5757
▁island	-5758
▁lights	-5759
▁losses	-5760
▁models	-5761
▁native	-5762
▁partly	-5763
▁stairs	-5764
ifically	-5765
▁article	-5766
▁engaged	-5767
▁strateg	-5768
▁wearing	-5769
▁welfare	-5770
▁creation	-5771
▁interior	-5772
▁numerous	-5773
nnsylvania	-5774
▁Institute	-5775
▁executive	-5776
▁functions	-5777
▁intention	-5778
▁movements	-5779
▁precisely	-5780
▁seriously	-5781
▁identified	-5782
▁percentage	-5783
▁resistance	-5784
▁recommended	-5785
▁congregation	-5786
▁difficulties	-5787
▁independence	-5788
ka	-5789
oo	-5790
.5/	-5791
ado	-5792
ait	-5793
aly	-5794
ena	-5795
ero	-5796
▁Ir	-5797
▁Ko	-5798
arby	-5799
bers	-5800
born	-5801
kins	-5802
unte	-5803
▁Kat	-5804
▁cro	-5805
▁dyn	-5806
▁lun	-5807
▁rub	-5808
inson	-5809
istry	-5810
iture	-5811
sters	-5812
▁Curt	-5813
▁Educ	-5814
▁Kate	-5815
▁Lucy	-5816
▁Mama	-5817
▁Sand	-5818
▁card	-5819
▁dict	-5820
▁dign	-5821
▁hate	-5822
▁loan	-5823
▁ride	-5824
▁roll	-5825
▁salt	-5826
▁sequ	-5827
▁sket	-5828
▁tent	-5829
▁unex	-5830
aneous	-5831
icians	-5832
itably	-5833
struct	-5834
▁Linda	-5835
▁Today	-5836
▁agent	-5837
▁bills	-5838
▁cloth	-5839
▁cryst	-5840
▁curve	-5841
▁feels	-5842
▁honey	-5843
▁horiz	-5844
▁procl	-5845
▁screw	-5846
▁sorry	-5847
▁tight	-5848
▁tough	-5849
▁Africa	-5850
▁Manche	-5851
▁attrib	-5852
▁dollar	-5853
▁fought	-5854
▁lawyer	-5855
▁panels	-5856
▁please	-5857
▁pounds	-5858
▁reader	-5859
▁safety	-5860
▁shares	-5861
▁submit	-5862
▁visual	-5863
▁waters	-5864
▁Medical	-5865
▁Society	-5866
▁adopted	-5867
▁compuls	-5868
▁curious	-5869
▁emotion	-5870
▁involve	-5871
▁promise	-5872
▁welcome	-5873
▁diameter	-5874
▁hypothal	-5875
▁includes	-5876
▁intended	-5877
▁promised	-5878
▁referred	-5879
▁supplies	-5880
▁encourage	-5881
▁precision	-5882
▁secretary	-5883
▁uncertain	-5884
▁Manchester	-5885
▁containing	-5886
▁opposition	-5887
▁legislation	-5888
▁preparation	-5889
▁Pennsylvania	-5890
aze	-5891
bal	-5892
era	-5893
ker	-5894
occ	-5895
ror	-5896
see	-5897
four	-5898
iest	-5899
ints	-5900
iors	-5901
osis	-5902
uine	-5903
umph	-5904
writ	-5905
▁Bes	-5906
▁Son	-5907
▁Tim	-5908
▁glo	-5909
▁hal	-5910
▁mun	-5911
▁raw	-5912
▁shr	-5913
▁sof	-5914
▁sup	-5915
▁une	-5916
▁wid	-5917
anish	-5918
asion	-5919
aware	-5920
eared	-5921
heast	-5922
ician	-5923
leans	-5924
onies	-5925
orage	-5926
state	-5927
tland	-5928
while	-5929
▁Asia	-5930
▁Lake	-5931
▁bell	-5932
▁lies	-5933
▁loud	-5934
▁milk	-5935
▁push	-5936
▁sale	-5937
▁tail	-5938
▁util	-5939
ailing	-5940
itting	-5941
orters	-5942
▁Chief	-5943
▁burst	-5944
▁drama	-5945
▁loyal	-5946
▁pilot	-5947
▁settl	-5948
▁shoes	-5949
▁smoke	-5950
▁snake	-5951
▁taxes	-5952
appoint	-5953
athered	-5954
section	-5955
▁Rachel	-5956
▁Social	-5957
▁boards	-5958
▁burden	-5959
▁critic	-5960
▁defend	-5961
▁height	-5962
▁marine	-5963
▁offers	-5964
▁planet	-5965
▁slaves	-5966
▁Instead	-5967
▁Johnson	-5968
▁Orleans	-5969
▁amounts	-5970
▁answers	-5971
▁calling	-5972
▁charges	-5973
▁climbed	-5974
▁genuine	-5975
▁mounted	-5976
▁singing	-5977
,000,000/	-5978
▁Governor	-5979
▁arranged	-5980
▁opinions	-5981
▁relative	-5982
▁superior	-5983
▁terrible	-5984
▁valuable	-5985
▁Francisco	-5986
▁dangerous	-5987
▁elsewhere	-5988
▁expensive	-5989
▁qualities	-5990
▁suffering	-5991
▁thousands	-5992
▁approached	-5993
▁employment	-5994
▁accomplished	-5995
▁considerably	-5996
▁intelligence	-5997
▁interference	-5998
awn	-5999
oms	-6000
ste	-6001
uce	-6002
▁ju	-6003
cure	-6004
iana	-6005
issi	-6006
rary	-6007
vest	-6008
▁189	-6009
▁Gra	-6010
▁Mir	-6011
▁iod	-6012
▁unn	-6013
▁vel	-6014
agger	-6015
aling	-6016
inois	-6017
ionna	-6018
orted	-6019
place	-6020
under	-6021
▁Does	-6022
▁Mont	-6023
▁Over	-6024
▁bull	-6025
▁core	-6026
▁crew	-6027
▁dirt	-6028
▁gest	-6029
▁pace	-6030
▁peas	-6031
▁puzz	-6032
▁toss	-6033
astics	-6034
ducing	-6035
inging	-6036
issipp	-6037
▁Hotel	-6038
▁Place	-6039
▁Uncle	-6040
▁bride	-6041
▁fired	-6042
▁heads	-6043
▁imper	-6044
▁repro	-6045
▁saved	-6046
▁ships	-6047
▁valid	-6048
asingly	-6049
istered	-6050
▁Figure	-6051
▁Indeed	-6052
▁Little	-6053
▁Scotty	-6054
▁driven	-6055
▁elabor	-6056
▁flight	-6057
▁lifted	-6058
▁liquor	-6059
▁lovely	-6060
▁nearby	-6061
▁oxygen	-6062
▁riding	-6063
▁undert	-6064
▁weapon	-6065
▁chamber	-6066
▁discipl	-6067
▁discour	-6068
▁instant	-6069
▁readily	-6070
▁soldier	-6071
▁stepped	-6072
▁warfare	-6073
▁warning	-6074
▁washing	-6075
▁Division	-6076
▁Lawrence	-6077
▁Thompson	-6078
▁believes	-6079
▁concerns	-6080
▁confused	-6081
▁consists	-6082
▁darkness	-6083
▁emotions	-6084
▁insisted	-6085
▁parallel	-6086
▁purchase	-6087
▁recorded	-6088
▁violence	-6089
▁Henrietta	-6090
▁collected	-6091
▁confusion	-6092
▁gradually	-6093
▁resulting	-6094
▁separated	-6095
▁Mississipp	-6096
▁automobile	-6097
▁contribute	-6098
▁controvers	-6099
▁eventually	-6100
▁questionna	-6101
▁essentially	-6102
▁explanation	-6103
▁recognition	-6104
▁expenditures	-6105
▁investigation	-6106
met	-6107
nes	-6108
urd	-6109
▁14	-6110
▁Pa	-6111
ales	-6112
arer	-6113
axon	-6114
cean	-6115
ieff	-6116
onic	-6117
▁190	-6118
▁Eug	-6119
▁ain	-6120
▁blo	-6121
▁bow	-6122
▁enl	-6123
▁tor	-6124
andom	-6125
angel	-6126
cence	-6127
going	-6128
ighed	-6129
onomy	-6130
order	-6131
otton	-6132
▁arts	-6133
▁craw	-6134
▁fasc	-6135
▁foam	-6136
▁glad	-6137
▁male	-6138
▁neat	-6139
▁rode	-6140
▁soph	-6141
▁stom	-6142
▁stup	-6143
▁synt	-6144
▁wire	-6145
▁wise	-6146
herent	-6147
ivered	-6148
▁Gross	-6149
▁Later	-6150
▁Stein	-6151
▁Super	-6152
▁acres	-6153
▁angry	-6154
▁chlor	-6155
▁eager	-6156
▁foods	-6157
▁panel	-6158
▁porch	-6159
▁prime	-6160
▁revol	-6161
▁steel	-6162
▁vague	-6163
▁wages	-6164
manship	-6165
utation	-6166
▁Commer	-6167
▁Office	-6168
▁Victor	-6169
▁Walter	-6170
▁exists	-6171
▁listed	-6172
▁mental	-6173
▁metaph	-6174
▁muscle	-6175
▁refrig	-6176
▁throat	-6177
▁varied	-6178
▁wisdom	-6179
▁Captain	-6180
▁Jackson	-6181
▁Without	-6182
▁anybody	-6183
▁assured	-6184
▁crossed	-6185
▁helping	-6186
▁mankind	-6187
▁passion	-6188
▁seeking	-6189
▁spirits	-6190
▁theater	-6191
▁thyroid	-6192
▁touched	-6193
▁desegreg	-6194
▁replaced	-6195
▁stranger	-6196
▁suffered	-6197
▁appointed	-6198
▁musicians	-6199
▁orchestra	-6200
▁particles	-6201
▁reactions	-6202
▁reflected	-6203
▁universal	-6204
▁Mississippi	-6205
▁Nevertheless	-6206
▁increasingly	-6207
▁sufficiently	-6208
▁manufacturers	-6209
▁possibilities	-6210
▁psychological	-6211
▁identification	-6212
cum	-6213
rie	-6214
uer	-6215
▁2:	-6216
acks	-6217
real	-6218
type	-6219
wave	-6220
▁17/	-6221
▁Ant	-6222
▁Far	-6223
▁Hug	-6224
▁Pre	-6225
▁fal	-6226
▁fly	-6227
asury	-6228
gthen	-6229
▁Come	-6230
▁Cool	-6231
▁Desp	-6232
▁Life	-6233
▁Mich	-6234
▁Oper	-6235
▁aren	-6236
▁astr	-6237
▁ease	-6238
▁guns	-6239
▁kiss	-6240
▁penc	-6241
▁swit	-6242
▁wear	-6243
astern	-6244
stairs	-6245
▁Found	-6246
▁Would	-6247
▁absor	-6248
▁bread	-6249
▁decor	-6250
▁deleg	-6251
▁haven	-6252
▁holds	-6253
▁matur	-6254
▁merch	-6255
▁pecul	-6256
▁pride	-6257
▁shift	-6258
▁storm	-6259
▁People	-6260
▁access	-6261
▁burned	-6262
▁errors	-6263
▁salary	-6264
▁shorts	-6265
▁steady	-6266
▁tissue	-6267
▁Besides	-6268
▁Defense	-6269
▁Journal	-6270
▁Justice	-6271
▁cooling	-6272
▁dancing	-6273
▁dealing	-6274
▁opposed	-6275
▁painted	-6276
▁pleased	-6277
▁stomach	-6278
▁storage	-6279
▁varying	-6280
▁visited	-6281
▁volumes	-6282
▁Atlantic	-6283
▁Illinois	-6284
▁describe	-6285
▁favorite	-6286
▁hundreds	-6287
▁involves	-6288
▁mathemat	-6289
▁proposal	-6290
▁spending	-6291
▁Democrats	-6292
▁continues	-6293
▁extensive	-6294
▁insurance	-6295
▁neighbors	-6296
▁reduction	-6297
▁remaining	-6298
▁accomplish	-6299
▁constantly	-6300
▁continuous	-6301
▁democratic	-6302
▁communities	-6303
▁distinction	-6304
▁engineering	-6305
▁residential	-6306
▁developments	-6307
▁distinguished	-6308
uo	-6309
ket	-6310
nch	-6311
run	-6312
▁13	-6313
▁cu	-6314
chen	-6315
gent	-6316
hour	-6317
orne	-6318
▁40/	-6319
▁Bus	-6320
▁Get	-6321
▁Men	-6322
▁Tur	-6323
▁nom	-6324
▁nut	-6325
▁reb	-6326
icing	-6327
leton	-6328
water	-6329
▁Hill	-6330
▁Last	-6331
▁Pike	-6332
▁capt	-6333
▁copy	-6334
▁pond	-6335
▁vice	-6336
▁wash	-6337
agging	-6338
anning	-6339
idance	-6340
inking	-6341
▁Maris	-6342
▁Sever	-6343
▁advis	-6344
▁atoms	-6345
▁decre	-6346
▁flood	-6347
▁focus	-6348
▁judge	-6349
▁param	-6350
▁shear	-6351
▁shock	-6352
▁stuff	-6353
▁Castro	-6354
▁brings	-6355
▁limits	-6356
▁missed	-6357
▁notion	-6358
▁random	-6359
▁shared	-6360
▁simult	-6361
▁talent	-6362
▁thrown	-6363
▁tongue	-6364
▁writes	-6365
▁Winston	-6366
▁anxiety	-6367
▁confron	-6368
▁dischar	-6369
▁display	-6370
▁disturb	-6371
▁drawing	-6372
▁existed	-6373
▁happens	-6374
▁liberty	-6375
▁municip	-6376
▁removal	-6377
▁shouted	-6378
▁volunte	-6379
▁worship	-6380
▁younger	-6381
▁Attorney	-6382
▁Commerce	-6383
▁Robinson	-6384
▁brothers	-6385
▁changing	-6386
▁composed	-6387
▁demanded	-6388
▁petition	-6389
ifications	-6390
▁communism	-6391
▁customers	-6392
▁indicates	-6393
▁marketing	-6394
▁permanent	-6395
▁prominent	-6396
▁reception	-6397
▁sentiment	-6398
▁societies	-6399
▁virtually	-6400
ternational	-6401
▁everywhere	-6402
▁investment	-6403
▁representative	-6404
gh	-6405
aud	-6406
icy	-6407
ige	-6408
kof	-6409
mic	-6410
▁TV	-6411
andy	-6412
erts	-6413
uten	-6414
wich	-6415
▁Bet	-6416
▁Cop	-6417
▁Fel	-6418
▁Fol	-6419
▁Mal	-6420
▁inh	-6421
adequ	-6422
earch	-6423
uated	-6424
umble	-6425
▁Dick	-6426
▁Mill	-6427
▁Navy	-6428
▁bars	-6429
▁beef	-6430
▁cruc	-6431
▁ears	-6432
▁evid	-6433
▁fant	-6434
▁gang	-6435
▁hide	-6436
▁inch	-6437
▁inex	-6438
▁lect	-6439
▁lots	-6440
▁pros	-6441
▁sake	-6442
ardens	-6443
icable	-6444
▁Carol	-6445
▁Elect	-6446
▁Judge	-6447
▁Susan	-6448
▁clerk	-6449
▁divor	-6450
▁excit	-6451
▁funny	-6452
▁grade	-6453
▁guide	-6454
▁initi	-6455
▁lingu	-6456
▁marks	-6457
▁pursu	-6458
▁relie	-6459
▁sixty	-6460
▁strip	-6461
entions	-6462
kofieff	-6463
▁Avenue	-6464
▁Center	-6465
▁Forest	-6466
▁Holmes	-6467
▁adoles	-6468
▁advent	-6469
▁calend	-6470
▁deeply	-6471
▁flying	-6472
▁gained	-6473
▁glance	-6474
▁heaven	-6475
▁rarely	-6476
▁surely	-6477
▁trials	-6478
ervation	-6479
ographic	-6480
▁Atlanta	-6481
▁Several	-6482
▁Spanish	-6483
▁Stanley	-6484
▁aggress	-6485
▁courage	-6486
▁defined	-6487
▁derived	-6488
▁fellows	-6489
▁inadequ	-6490
▁offices	-6491
▁Treasury	-6492
▁colleges	-6493
▁combined	-6494
▁downtown	-6495
▁external	-6496
▁reaching	-6497
▁revealed	-6498
▁striking	-6499
▁Education	-6500
▁allotment	-6501
▁automatic	-6502
▁dependent	-6503
▁destroyed	-6504
▁languages	-6505
▁necessity	-6506
▁primitive	-6507
▁regarding	-6508
▁selection	-6509
▁Communists	-6510
▁Prokofieff	-6511
▁attractive	-6512
▁candidates	-6513
▁comparable	-6514
▁controlled	-6515
▁disappoint	-6516
▁electrical	-6517
▁objectives	-6518
▁provisions	-6519
▁represents	-6520
▁considering	-6521
▁contributed	-6522
▁legislative	-6523
▁Constitution	-6524
▁International	-6525
▁determination	-6526
▁participation	-6527
▁transportation	-6528
gy	-6529
isp	-6530
lyn	-6531
rav	-6532
vin	-6533
ysi	-6534
▁20	-6535
atis	-6536
ault	-6537
door	-6538
mond	-6539
ogue	-6540
pled	-6541
wick	-6542
▁31/	-6543
▁Bal	-6544
▁Wed	-6545
▁dig	-6546
▁rob	-6547
arton	-6548
asted	-6549
erman	-6550
oster	-6551
venth	-6552
ylind	-6553
▁200/	-6554
▁Conn	-6555
▁Jeff	-6556
▁Mats	-6557
▁Ohio	-6558
▁barn	-6559
▁crim	-6560
▁knee	-6561
▁narr	-6562
▁nons	-6563
▁pill	-6564
ighter	-6565
inding	-6566
izable	-6567
nomial	-6568
pelled	-6569
▁Times	-6570
▁carri	-6571
▁coinc	-6572
▁goals	-6573
▁holes	-6574
▁knees	-6575
▁magic	-6576
▁newly	-6577
▁optim	-6578
▁pitch	-6579
▁turns	-6580
idation	-6581
▁Cousin	-6582
▁Within	-6583
▁agents	-6584
▁atomic	-6585
▁bullet	-6586
▁condem	-6587
▁decide	-6588
▁eleven	-6589
▁handed	-6590
▁incomp	-6591
▁leaned	-6592
▁mostly	-6593
▁sacred	-6594
▁sister	-6595
▁thrust	-6596
▁voices	-6597
▁Despite	-6598
▁briefly	-6599
▁chapter	-6600
▁concert	-6601
▁feature	-6602
▁forever	-6603
▁furnish	-6604
▁privile	-6605
▁sharply	-6606
▁species	-6607
▁triumph	-6608
▁Actually	-6609
▁Research	-6610
▁bringing	-6611
▁contains	-6612
▁doctrine	-6613
▁engineer	-6614
▁guidance	-6615
▁handsome	-6616
▁hydrogen	-6617
▁illusion	-6618
▁mountain	-6619
▁studying	-6620
▁surround	-6621
▁scheduled	-6622
▁assumption	-6623
▁newspapers	-6624
▁personally	-6625
▁polynomial	-6626
▁thoroughly	-6627
▁satisfactory	-6628
▁corresponding	-6629
▁relationships	-6630
cy	-6631
gu	-6632
me	-6633
mo	-6634
yp	-6635
aks	-6636
ara	-6637
mas	-6638
rap	-6639
▁Di	-6640
▁En	-6641
▁Im	-6642
▁Ju	-6643
▁Sl	-6644
▁Up	-6645
free	-6646
hent	-6647
iece	-6648
ifts	-6649
lock	-6650
odge	-6651
pton	-6652
▁181	-6653
▁Fif	-6654
▁Lee	-6655
▁Mod	-6656
▁Sav	-6657
▁Sto	-6658
▁gre	-6659
inite	-6660
oples	-6661
▁Andy	-6662
▁Belg	-6663
▁Much	-6664
▁Rame	-6665
▁Rock	-6666
▁Shar	-6667
▁Utop	-6668
▁acts	-6669
▁ages	-6670
▁dull	-6671
▁fulf	-6672
▁gate	-6673
▁glow	-6674
▁prol	-6675
▁sole	-6676
▁tick	-6677
▁yard	-6678
acious	-6679
cribed	-6680
ortion	-6681
pected	-6682
tering	-6683
▁Young	-6684
▁admit	-6685
▁ambig	-6686
▁arbit	-6687
▁beach	-6688
▁beard	-6689
▁blond	-6690
▁chose	-6691
▁craft	-6692
▁edges	-6693
▁greet	-6694
▁hills	-6695
▁noise	-6696
▁ocean	-6697
▁reply	-6698
▁surre	-6699
▁tempt	-6700
holders	-6701
reement	-6702
▁Gorton	-6703
▁Matsuo	-6704
▁Player	-6705
▁Wednes	-6706
▁absent	-6707
▁anyway	-6708
▁assure	-6709
▁attain	-6710
▁blocks	-6711
▁comedy	-6712
▁deeper	-6713
▁finish	-6714
▁indire	-6715
▁insect	-6716
▁output	-6717
▁patent	-6718
▁signed	-6719
▁skills	-6720
▁stored	-6721
▁tested	-6722
inations	-6723
▁Senator	-6724
▁devices	-6725
▁distant	-6726
▁license	-6727
▁mystery	-6728
▁organic	-6729
▁radical	-6730
▁serving	-6731
▁subsequ	-6732
▁anywhere	-6733
▁approved	-6734
▁enormous	-6735
▁handling	-6736
▁innocent	-6737
▁interpre	-6738
▁profound	-6739
▁regional	-6740
▁resulted	-6741
▁sleeping	-6742
▁stronger	-6743
▁strongly	-6744
▁swimming	-6745
▁variable	-6746
▁delivered	-6747
▁forgotten	-6748
▁formation	-6749
▁furniture	-6750
▁listening	-6751
▁pressures	-6752
▁authorized	-6753
▁conscience	-6754
▁restaurant	-6755
▁supplement	-6756
▁tremendous	-6757
▁comfortable	-6758
▁constructed	-6759
▁destruction	-6760
▁improvement	-6761
▁arrangements	-6762
▁civilization	-6763
▁questionnaire	-6764
dr	-6765
tw	-6766
ads	-6767
arr	-6768
rup	-6769
sem	-6770
wed	-6771
▁$4	-6772
▁24	-6773
▁Bo	-6774
▁Ge	-6775
▁NA	-6776
aved	-6777
cont	-6778
imen	-6779
oped	-6780
oven	-6781
tail	-6782
zing	-6783
▁Cam	-6784
▁Dor	-6785
▁Mel	-6786
▁Ori	-6787
▁Val	-6788
▁hem	-6789
idden	-6790
pired	-6791
usted	-6792
▁Hamm	-6793
▁Jane	-6794
▁Pope	-6795
▁beer	-6796
▁bone	-6797
▁buck	-6798
▁eggs	-6799
▁hurt	-6800
▁meal	-6801
▁pron	-6802
▁rein	-6803
▁taxp	-6804
ilarly	-6805
lywood	-6806
ptions	-6807
▁Clark	-6808
▁Field	-6809
▁Italy	-6810
▁Mayor	-6811
▁cerem	-6812
▁chann	-6813
▁error	-6814
▁hurry	-6815
▁juris	-6816
▁kinds	-6817
▁mixed	-6818
▁moves	-6819
▁pound	-6820
▁ratio	-6821
▁royal	-6822
▁seeds	-6823
▁worst	-6824
entieth	-6825
itarian	-6826
ulating	-6827
▁Second	-6828
▁Steven	-6829
▁beings	-6830
▁cylind	-6831
▁encoun	-6832
▁explos	-6833
▁images	-6834
▁jacket	-6835
▁pencil	-6836
▁phrase	-6837
▁remote	-6838
▁senior	-6839
▁serves	-6840
▁spoken	-6841
▁suffer	-6842
▁Certain	-6843
▁Chapter	-6844
▁Profess	-6845
▁Sherman	-6846
▁cigaret	-6847
▁coating	-6848
▁dressed	-6849
▁edition	-6850
▁managed	-6851
▁peoples	-6852
▁persist	-6853
▁release	-6854
▁respons	-6855
▁symbols	-6856
▁tonight	-6857
▁worried	-6858
▁Williams	-6859
▁accounts	-6860
▁affected	-6861
▁attempts	-6862
▁attended	-6863
▁cleaning	-6864
▁consumer	-6865
▁equipped	-6866
▁maturity	-6867
▁multiple	-6868
▁occupied	-6869
▁pleasant	-6870
▁schedule	-6871
▁staining	-6872
▁supplied	-6873
▁symbolic	-6874
▁Wednesday	-6875
▁desirable	-6876
▁districts	-6877
▁household	-6878
▁municipal	-6879
▁sophistic	-6880
▁characters	-6881
▁completion	-6882
▁definition	-6883
▁recreation	-6884
▁Furthermore	-6885
▁accompanied	-6886
▁authorities	-6887
▁cooperation	-6888
▁effectively	-6889
▁contribution	-6890
▁observations	-6891
▁specifically	-6892
▁substantially	-6893
TO	-6894
20/	-6895
60/	-6896
aws	-6897
cho	-6898
ura	-6899
wor	-6900
▁2-	-6901
asts	-6902
atus	-6903
book	-6904
eded	-6905
hnst	-6906
irds	-6907
leep	-6908
lete	-6909
ords	-6910
path	-6911
ules	-6912
utch	-6913
ymph	-6914
▁Had	-6915
▁Int	-6916
▁Max	-6917
▁Pri	-6918
▁Sub	-6919
▁Tit	-6920
▁Wel	-6921
▁ath	-6922
▁eld	-6923
▁ped	-6924
▁rib	-6925
▁vit	-6926
acked	-6927
aimed	-6928
anted	-6929
arted	-6930
eding	-6931
ensen	-6932
imens	-6933
onial	-6934
▁Bang	-6935
▁Bank	-6936
▁Gold	-6937
▁Hell	-6938
▁Palf	-6939
▁Pers	-6940
▁Post	-6941
▁cash	-6942
▁grab	-6943
▁irre	-6944
▁lung	-6945
▁sees	-6946
▁trib	-6947
anches	-6948
ashing	-6949
resent	-6950
ursday	-6951
▁1962/	-6952
▁Harry	-6953
▁Plato	-6954
▁alert	-6955
▁bombs	-6956
▁dirty	-6957
▁doors	-6958
▁lunch	-6959
▁naked	-6960
▁owner	-6961
▁resum	-6962
▁reven	-6963
▁vivid	-6964
hnstamm	-6965
itional	-6966
ocation	-6967
uilding	-6968
utenant	-6969
▁Canada	-6970
▁Legisl	-6971
▁Poland	-6972
▁camera	-6973
▁intens	-6974
▁jumped	-6975
▁myster	-6976
▁orthod	-6977
▁passen	-6978
▁secure	-6979
▁sevent	-6980
▁shadow	-6981
▁stupid	-6982
▁therap	-6983
▁upward	-6984
▁washed	-6985
▁Harvard	-6986
▁Palfrey	-6987
▁claimed	-6988
▁classic	-6989
▁experts	-6990
▁outlook	-6991
▁prepare	-6992
▁readers	-6993
▁regions	-6994
▁sounded	-6995
▁western	-6996
ropolitan	-6997
▁Hospital	-6998
▁Thursday	-6999
▁accuracy	-7000
▁accurate	-7001
▁magnific	-7002
▁patients	-7003
▁romantic	-7004
▁sequence	-7005
▁visiting	-7006
▁Jefferson	-7007
▁Kohnstamm	-7008
▁candidate	-7009
▁challenge	-7010
▁installed	-7011
▁mountains	-7012
▁producing	-7013
▁satisfied	-7014
▁Conference	-7015
▁calculated	-7016
▁inevitably	-7017
▁phenomenon	-7018
▁technology	-7019
▁conclusions	-7020
▁disappeared	-7021
▁outstanding	-7022
▁probability	-7023
▁sympathetic	-7024
▁agricultural	-7025
▁consequences	-7026
▁constitution	-7027
▁automatically	-7028
▁desegregation	-7029
2-	-7030
sl	-7031
Ban	-7032
fur	-7033
iat	-7034
obb	-7035
▁25	-7036
▁Ok	-7037
aise	-7038
enny	-7039
inth	-7040
ldom	-7041
ners	-7042
sing	-7043
ulpt	-7044
velt	-7045
▁Ern	-7046
▁Hal	-7047
▁Pip	-7048
▁Sup	-7049
▁Sur	-7050
▁Tor	-7051
▁bid	-7052
▁sir	-7053
▁tap	-7054
acial	-7055
ammed	-7056
chang	-7057
ector	-7058
hered	-7059
istol	-7060
ortly	-7061
pling	-7062
point	-7063
uding	-7064
worth	-7065
▁Holy	-7066
▁Land	-7067
▁Spec	-7068
▁Take	-7069
▁axis	-7070
▁bent	-7071
▁bold	-7072
▁canv	-7073
▁clin	-7074
▁flux	-7075
▁hast	-7076
▁jour	-7077
▁sust	-7078
▁tied	-7079
Banion	-7080
andler	-7081
atural	-7082
iating	-7083
monary	-7084
seless	-7085
▁Baker	-7086
▁Helva	-7087
▁Morse	-7088
▁Roose	-7089
▁badly	-7090
▁blame	-7091
▁drugs	-7092
▁erect	-7093
▁exped	-7094
▁guest	-7095
▁guilt	-7096
▁illum	-7097
▁leads	-7098
▁lists	-7099
▁lying	-7100
▁meets	-7101
▁owned	-7102
▁recru	-7103
▁rigid	-7104
▁slave	-7105
▁swept	-7106
▁tells	-7107
▁tends	-7108
▁tools	-7109
▁urged	-7110
ilation	-7111
▁Assemb	-7112
▁Middle	-7113
▁Prince	-7114
▁Samuel	-7115
▁bigger	-7116
▁clouds	-7117
▁conjug	-7118
▁inquir	-7119
▁junior	-7120
▁ladies	-7121
▁latest	-7122
▁openly	-7123
▁profit	-7124
▁retire	-7125
▁sculpt	-7126
▁stores	-7127
▁tragic	-7128
▁worker	-7129
▁Neither	-7130
▁advised	-7131
▁authent	-7132
▁context	-7133
▁decades	-7134
▁dignity	-7135
▁discrim	-7136
▁dispute	-7137
▁exposed	-7138
▁filling	-7139
▁logical	-7140
▁mistake	-7141
▁raising	-7142
▁reorgan	-7143
▁retired	-7144
▁routine	-7145
▁sending	-7146
▁thereby	-7147
▁visible	-7148
ustration	-7149
▁Chandler	-7150
▁binomial	-7151
▁chlorine	-7152
▁estimate	-7153
▁frequent	-7154
▁isolated	-7155
▁normally	-7156
▁partners	-7157
▁preserve	-7158
▁sentence	-7159
▁sympathy	-7160
▁visitors	-7161
▁Catholics	-7162
▁Roosevelt	-7163
▁extension	-7164
▁paintings	-7165
▁performed	-7166
▁realistic	-7167
▁stretched	-7168
▁mechanical	-7169
▁presumably	-7170
▁processing	-7171
▁reasonably	-7172
▁strengthen	-7173
▁suggestion	-7174
▁unexpected	-7175
▁alternative	-7176
▁illustrated	-7177
▁nationalism	-7178
▁scholarship	-7179
▁experimental	-7180
gn	-7181
ij	-7182
ami	-7183
bre	-7184
eps	-7185
irk	-7186
och	-7187
▁2.	-7188
▁Ev	-7189
bury	-7190
ibly	-7191
ours	-7192
rous	-7193
ruff	-7194
vely	-7195
yard	-7196
▁Add	-7197
▁Dol	-7198
▁Kay	-7199
▁Mer	-7200
▁Rad	-7201
▁Too	-7202
▁Tra	-7203
▁Via	-7204
▁bun	-7205
▁fix	-7206
▁pig	-7207
▁pin	-7208
▁sed	-7209
▁vic	-7210
agner	-7211
eless	-7212
faces	-7213
iders	-7214
ifies	-7215
isher	-7216
oking	-7217
osure	-7218
▁Burn	-7219
▁Case	-7220
▁Dart	-7221
▁Doug	-7222
▁Form	-7223
▁Hart	-7224
▁Nick	-7225
▁Sure	-7226
▁chap	-7227
▁cure	-7228
▁fart	-7229
▁fish	-7230
▁golf	-7231
▁grim	-7232
▁guar	-7233
▁gyro	-7234
▁kick	-7235
▁lone	-7236
▁nurs	-7237
▁phon	-7238
▁stem	-7239
▁ward	-7240
acific	-7241
coming	-7242
fectly	-7243
rupted	-7244
▁Broad	-7245
▁Early	-7246
▁Mount	-7247
▁cards	-7248
▁chron	-7249
▁crazy	-7250
▁diagn	-7251
▁dying	-7252
▁exact	-7253
▁false	-7254
▁fewer	-7255
▁filed	-7256
▁hence	-7257
▁parad	-7258
▁roles	-7259
▁route	-7260
▁stead	-7261
▁sugar	-7262
▁sweat	-7263
▁veloc	-7264
usively	-7265
▁Father	-7266
▁Howard	-7267
▁Rector	-7268
▁Sharpe	-7269
▁Square	-7270
▁Steele	-7271
▁affair	-7272
▁barrel	-7273
▁bureau	-7274
▁combat	-7275
▁damage	-7276
▁divine	-7277
▁expert	-7278
▁fallen	-7279
▁modest	-7280
▁namely	-7281
▁parked	-7282
▁propri	-7283
▁scheme	-7284
▁seldom	-7285
▁sensit	-7286
▁theore	-7287
▁wealth	-7288
together	-7289
▁Indians	-7290
▁Patchen	-7291
▁Supreme	-7292
▁citizen	-7293
▁compens	-7294
▁council	-7295
▁counsel	-7296
▁examine	-7297
▁healthy	-7298
▁highway	-7299
▁hunting	-7300
▁massive	-7301
▁missing	-7302
▁plastic	-7303
▁predict	-7304
▁registr	-7305
▁survive	-7306
▁vehicle	-7307
▁Business	-7308
▁benefits	-7309
▁branches	-7310
▁composer	-7311
▁equation	-7312
▁extraord	-7313
▁findings	-7314
▁football	-7315
▁magazine	-7316
▁peculiar	-7317
▁presents	-7318
▁quantity	-7319
▁rejected	-7320
▁suburban	-7321
▁suitable	-7322
▁survival	-7323
▁Communism	-7324
▁Dartmouth	-7325
▁admission	-7326
▁attempted	-7327
▁connected	-7328
▁discovery	-7329
▁emergency	-7330
▁favorable	-7331
▁historian	-7332
▁involving	-7333
▁succeeded	-7334
▁Revolution	-7335
▁collective	-7336
▁inevitable	-7337
▁arrangement	-7338
▁determining	-7339
▁demonstrated	-7340
▁performances	-7341
BA	-7342
eb	-7343
zg	-7344
70/	-7345
arl	-7346
eer	-7347
ica	-7348
imp	-7349
pit	-7350
ram	-7351
▁ly	-7352
▁mg	-7353
asks	-7354
emma	-7355
fall	-7356
iffe	-7357
itar	-7358
mers	-7359
nnie	-7360
oons	-7361
rian	-7362
whel	-7363
▁188	-7364
▁19/	-7365
▁26/	-7366
▁Oct	-7367
▁ack	-7368
▁avo	-7369
▁bom	-7370
▁lux	-7371
cumen	-7372
icine	-7373
ictly	-7374
inter	-7375
itual	-7376
useum	-7377
uster	-7378
▁Barn	-7379
▁Buck	-7380
▁Dave	-7381
▁Lady	-7382
▁Minn	-7383
▁Next	-7384
▁Tele	-7385
▁Verm	-7386
▁anch	-7387
▁damn	-7388
▁exha	-7389
▁fate	-7390
▁fled	-7391
▁gift	-7392
▁herd	-7393
▁kids	-7394
▁marg	-7395
▁sang	-7396
▁semi	-7397
▁teen	-7398
asters	-7399
called	-7400
errill	-7401
ifting	-7402
rifice	-7403
▁Dougl	-7404
▁Eight	-7405
▁Felix	-7406
▁alter	-7407
▁corps	-7408
▁crime	-7409
▁cruel	-7410
▁depos	-7411
▁discl	-7412
▁dwell	-7413
▁fence	-7414
▁inhib	-7415
▁joint	-7416
▁laugh	-7417
▁motiv	-7418
▁proof	-7419
▁recon	-7420
▁renew	-7421
▁spont	-7422
▁stems	-7423
▁stere	-7424
▁tears	-7425
▁toler	-7426
▁tremb	-7427
actions	-7428
igation	-7429
pective	-7430
uration	-7431
▁Columb	-7432
▁Econom	-7433
▁Harold	-7434
▁Kansas	-7435
▁Mickey	-7436
▁Miriam	-7437
▁System	-7438
▁Wagner	-7439
▁acknow	-7440
▁assert	-7441
▁borrow	-7442
▁bother	-7443
▁cotton	-7444
▁covers	-7445
▁duties	-7446
▁incred	-7447
▁jurisd	-7448
▁legend	-7449
▁lumber	-7450
▁orient	-7451
▁resemb	-7452
▁stable	-7453
▁strain	-7454
▁volunt	-7455
▁abandon	-7456
▁chicken	-7457
▁circles	-7458
▁contest	-7459
▁cooking	-7460
▁crowded	-7461
▁elected	-7462
▁gesture	-7463
▁guarant	-7464
▁partner	-7465
▁promote	-7466
▁slipped	-7467
▁smiling	-7468
▁testing	-7469
▁violent	-7470
▁Northern	-7471
▁Russians	-7472
▁Woodruff	-7473
▁artistic	-7474
▁covering	-7475
▁gathered	-7476
▁remarked	-7477
▁shouting	-7478
▁strictly	-7479
▁awareness	-7480
▁concluded	-7481
▁currently	-7482
▁efficient	-7483
▁financing	-7484
▁receiving	-7485
▁reporters	-7486
▁returning	-7487
▁variation	-7488
▁adjustment	-7489
▁conception	-7490
▁inadequate	-7491
▁initiative	-7492
▁occasional	-7493
▁reflection	-7494
▁regardless	-7495
▁competitive	-7496
▁measurement	-7497
▁instructions	-7498
▁occasionally	-7499
▁presentation	-7500
▁effectiveness	-7501
▁simultaneously	-7502
,4	-7503
Sem	-7504
car	-7505
cue	-7506
dth	-7507
hol	-7508
ona	-7509
ora	-7510
pel	-7511
▁Ry	-7512
aire	-7513
anes	-7514
aulk	-7515
inte	-7516
isan	-7517
iter	-7518
nnon	-7519
rics	-7520
▁186	-7521
▁Doc	-7522
▁Fog	-7523
▁Gil	-7524
▁Mah	-7525
▁Mem	-7526
▁Nob	-7527
▁Por	-7528
▁Que	-7529
▁Zen	-7530
▁era	-7531
▁fav	-7532
▁lob	-7533
▁van	-7534
agues	-7535
ailed	-7536
antry	-7537
assad	-7538
eling	-7539
idges	-7540
igned	-7541
inity	-7542
irmed	-7543
iston	-7544
oding	-7545
pered	-7546
pless	-7547
umped	-7548
▁Hist	-7549
▁Mull	-7550
▁Myra	-7551
▁Ruth	-7552
▁Step	-7553
▁Test	-7554
▁Vern	-7555
▁clot	-7556
▁guil	-7557
▁soci	-7558
▁tape	-7559
▁tube	-7560
▁wake	-7561
Jensen	-7562
orship	-7563
▁1952/	-7564
▁Eddie	-7565
▁Faulk	-7566
▁Force	-7567
▁Liber	-7568
▁Press	-7569
▁Ramey	-7570
▁Stand	-7571
▁appar	-7572
▁armed	-7573
▁brand	-7574
▁grate	-7575
▁movie	-7576
▁pages	-7577
▁poets	-7578
▁ruled	-7579
▁shell	-7580
▁split	-7581
▁spots	-7582
▁squee	-7583
▁surpl	-7584
▁withd	-7585
ariably	-7586
essions	-7587
itative	-7588
▁Harris	-7589
▁barely	-7590
▁butter	-7591
▁carbon	-7592
▁dancer	-7593
▁deterg	-7594
▁ending	-7595
▁facing	-7596
▁gently	-7597
▁mature	-7598
▁nights	-7599
▁poetic	-7600
▁powder	-7601
▁saline	-7602
▁scarce	-7603
▁tossed	-7604
esthetic	-7605
▁Pacific	-7606
▁blanket	-7607
▁ceiling	-7608
▁checked	-7609
▁columns	-7610
▁decline	-7611
▁density	-7612
▁divorce	-7613
▁exagger	-7614
▁fallout	-7615
▁journal	-7616
▁knocked	-7617
▁locking	-7618
▁muscles	-7619
▁network	-7620
▁parking	-7621
▁printed	-7622
▁returns	-7623
▁skywave	-7624
▁slavery	-7625
▁thermal	-7626
▁wedding	-7627
▁whereas	-7628
▁winning	-7629
conscious	-7630
ependence	-7631
▁Carleton	-7632
▁Consider	-7633
▁Faulkner	-7634
▁Franklin	-7635
▁allowing	-7636
▁counties	-7637
▁emission	-7638
▁fourteen	-7639
▁manifest	-7640
▁matching	-7641
▁metaphys	-7642
▁broadcast	-7643
▁depending	-7644
▁elaborate	-7645
▁identical	-7646
▁perfectly	-7647
▁protected	-7648
▁secondary	-7649
▁sovereign	-7650
▁Foundation	-7651
▁enterprise	-7652
▁excitement	-7653
▁invariably	-7654
▁transition	-7655
▁discussions	-7656
▁frequencies	-7657
▁Christianity	-7658
▁conservative	-7659
▁nevertheless	-7660
▁respectively	-7661
▁successfully	-7662
▁considerations	-7663
bey	-7664
cop	-7665
ede	-7666
eff	-7667
ias	-7668
jud	-7669
▁$7	-7670
▁Ek	-7671
▁Es	-7672
▁Ly	-7673
▁Ob	-7674
amin	-7675
aska	-7676
avin	-7677
fire	-7678
grap	-7679
iney	-7680
inqu	-7681
lene	-7682
lore	-7683
odes	-7684
uing	-7685
usal	-7686
▁Aut	-7687
▁Dec	-7688
▁Pam	-7689
▁Pit	-7690
▁Rod	-7691
▁Sel	-7692
▁Tem	-7693
▁Til	-7694
▁Van	-7695
▁ash	-7696
▁bac	-7697
▁bay	-7698
▁fog	-7699
▁gay	-7700
▁org	-7701
▁spo	-7702
▁tub	-7703
▁vul	-7704
,500/	-7705
anned	-7706
assed	-7707
ateur	-7708
ecess	-7709
emies	-7710
encer	-7711
idesp	-7712
isive	-7713
oused	-7714
uates	-7715
urbed	-7716
▁Alec	-7717
▁Bern	-7718
▁Kent	-7719
▁Kill	-7720
▁Tenn	-7721
▁Wall	-7722
▁chin	-7723
▁cuts	-7724
▁forb	-7725
▁maid	-7726
▁tons	-7727
active	-7728
anting	-7729
lessly	-7730
teenth	-7731
▁Fromm	-7732
▁Irish	-7733
▁Sarah	-7734
▁bench	-7735
▁dates	-7736
▁empir	-7737
▁enact	-7738
▁films	-7739
▁graph	-7740
▁grasp	-7741
▁gross	-7742
▁irrit	-7743
▁piano	-7744
▁shots	-7745
viously	-7746
▁Aristo	-7747
▁Johnny	-7748
▁Nobody	-7749
▁campus	-7750
▁conver	-7751
▁defeat	-7752
▁eating	-7753
▁ecumen	-7754
▁extend	-7755
▁fortun	-7756
▁movies	-7757
▁potato	-7758
▁poured	-7759
▁reveal	-7760
▁ritual	-7761
▁segreg	-7762
▁silver	-7763
▁softly	-7764
▁starts	-7765
▁supper	-7766
▁virtue	-7767
▁widesp	-7768
ountered	-7769
▁Brannon	-7770
▁Clayton	-7771
▁Develop	-7772
▁Juniors	-7773
▁Spencer	-7774
▁Yankees	-7775
▁builder	-7776
▁colored	-7777
▁crucial	-7778
▁dancers	-7779
▁dealers	-7780
▁dismiss	-7781
▁excited	-7782
▁extract	-7783
▁falling	-7784
▁farmers	-7785
▁farther	-7786
▁fishing	-7787
▁heading	-7788
▁helpful	-7789
▁journey	-7790
▁letting	-7791
▁lightly	-7792
▁markets	-7793
▁mixture	-7794
▁pressed	-7795
▁ranging	-7796
▁selling	-7797
▁skilled	-7798
▁textile	-7799
▁utility	-7800
▁Brooklyn	-7801
▁articles	-7802
▁basement	-7803
▁congress	-7804
▁explicit	-7805
▁listened	-7806
▁overwhel	-7807
▁reducing	-7808
▁refriger	-7809
▁southern	-7810
▁troubled	-7811
▁troubles	-7812
▁whenever	-7813
▁Louisiana	-7814
▁Professor	-7815
▁Something	-7816
▁engineers	-7817
▁excessive	-7818
▁impressed	-7819
▁instances	-7820
▁preceding	-7821
▁sponsored	-7822
▁substance	-7823
▁suspended	-7824
▁temporary	-7825
▁Industrial	-7826
▁confronted	-7827
▁occurrence	-7828
▁scientists	-7829
▁widespread	-7830
▁Republicans	-7831
▁complicated	-7832
▁consequence	-7833
▁encountered	-7834
▁concentrated	-7835
▁universities	-7836
▁extraordinary	-7837
vy	-7838
add	-7839
eal	-7840
nic	-7841
nty	-7842
uty	-7843
wen	-7844
▁gh	-7845
▁lb	-7846
grad	-7847
ixon	-7848
mile	-7849
nner	-7850
onym	-7851
otte	-7852
rene	-7853
reth	-7854
stro	-7855
▁Boy	-7856
▁Hon	-7857
▁Mag	-7858
▁Mit	-7859
▁Mur	-7860
▁Naz	-7861
▁Sky	-7862
▁Slo	-7863
▁Unt	-7864
▁gal	-7865
▁rus	-7866
▁tea	-7867
▁unl	-7868
ghman	-7869
ileen	-7870
inger	-7871
itism	-7872
quest	-7873
▁Book	-7874
▁Dean	-7875
▁Disc	-7876
▁Fair	-7877
▁Fund	-7878
▁Gene	-7879
▁Mars	-7880
▁Spir	-7881
▁Tell	-7882
▁Turn	-7883
▁barg	-7884
▁bast	-7885
▁bund	-7886
▁cher	-7887
▁mild	-7888
▁pert	-7889
▁rank	-7890
▁vari	-7891
velyan	-7892
▁Armed	-7893
▁Const	-7894
▁Davis	-7895
▁Hence	-7896
▁Mason	-7897
▁Santa	-7898
▁Small	-7899
▁accum	-7900
▁argue	-7901
▁bless	-7902
▁entry	-7903
▁explo	-7904
▁helps	-7905
▁incor	-7906
▁loans	-7907
▁oppon	-7908
▁perce	-7909
▁physi	-7910
▁steep	-7911
▁stern	-7912
▁tasks	-7913
▁thank	-7914
▁trips	-7915
▁veget	-7916
▁wound	-7917
ishment	-7918
issance	-7919
▁Albert	-7920
▁Contin	-7921
▁Eileen	-7922
▁Hughes	-7923
▁Mother	-7924
▁Others	-7925
▁Shayne	-7926
▁argued	-7927
▁asleep	-7928
▁ballet	-7929
▁buying	-7930
▁clergy	-7931
▁colony	-7932
▁farmer	-7933
▁guilty	-7934
▁hoping	-7935
▁landsc	-7936
▁lesson	-7937
▁mainly	-7938
▁patrol	-7939
▁penetr	-7940
▁phosph	-7941
▁pistol	-7942
▁prayer	-7943
▁purely	-7944
▁scenes	-7945
▁sewage	-7946
▁terror	-7947
▁thread	-7948
▁Newport	-7949
▁conspir	-7950
▁contrad	-7951
▁deliver	-7952
▁despair	-7953
▁enforce	-7954
▁ethical	-7955
▁glasses	-7956
▁grinned	-7957
▁ignored	-7958
▁mothers	-7959
▁replace	-7960
▁signals	-7961
▁Assembly	-7962
▁Tilghman	-7963
▁comments	-7964
▁controls	-7965
▁creating	-7966
▁document	-7967
▁exciting	-7968
▁instinct	-7969
▁missiles	-7970
▁morality	-7971
▁reminded	-7972
▁sciences	-7973
▁suggests	-7974
▁According	-7975
▁Trevelyan	-7976
▁bronchial	-7977
▁magnitude	-7978
▁measuring	-7979
▁recording	-7980
▁residence	-7981
▁constitute	-7982
▁evaluation	-7983
▁threatened	-7984
▁instruction	-7985
▁transferred	-7986
▁unconscious	-7987
▁consciousness	-7988
▁entertainment	-7989
za	-7990
25/	-7991
aux	-7992
ida	-7993
ola	-7994
ota	-7995
sch	-7996
upp	-7997
win	-7998
▁1.	-7999
▁21	-8000
▁Fa	-8001
▁Op	-8002
▁Sn	-8003
agan	-8004
arse	-8005
bing	-8006
idel	-8007
inge	-8008
leas	-8009
ouri	-8010
rons	-8011
▁185	-8012
▁Arn	-8013
▁Ell	-8014
▁Gro	-8015
▁Hou	-8016
▁Jac	-8017
▁Mat	-8018
▁Pod	-8019
▁bol	-8020
▁fan	-8021
▁haz	-8022
▁lap	-8023
▁ves	-8024
▁wal	-8025
after	-8026
arest	-8027
elson	-8028
erior	-8029
geant	-8030
igger	-8031
ignty	-8032
inted	-8033
itate	-8034
ommod	-8035
owned	-8036
plane	-8037
▁Budd	-8038
▁Flor	-8039
▁Jean	-8040
▁Kore	-8041
▁bend	-8042
▁boss	-8043
▁cart	-8044
▁cert	-8045
▁dawn	-8046
▁diet	-8047
▁flag	-8048
▁intr	-8049
▁nerv	-8050
▁root	-8051
▁sher	-8052
▁vacu	-8053
Americ	-8054
ancing	-8055
iently	-8056
itious	-8057
justed	-8058
letion	-8059
omptly	-8060
uction	-8061
▁1955/	-8062
▁1956/	-8063
▁Anglo	-8064
▁Beach	-8065
▁Coast	-8066
▁Pitts	-8067
▁Until	-8068
▁Wally	-8069
▁arise	-8070
▁cents	-8071
▁chrom	-8072
▁crown	-8073
▁dimin	-8074
▁drain	-8075
▁dried	-8076
▁grain	-8077
▁hated	-8078
▁ignor	-8079
▁impat	-8080
▁prest	-8081
▁ridic	-8082
▁shade	-8083
▁shirt	-8084
▁twist	-8085
▁verse	-8086
▁woods	-8087
atching	-8088
ections	-8089
estival	-8090
fulness	-8091
ologist	-8092
ructive	-8093
▁Barton	-8094
▁Copern	-8095
▁Miller	-8096
▁absurd	-8097
▁branch	-8098
▁debate	-8099
▁dining	-8100
▁embarr	-8101
▁locked	-8102
▁losing	-8103
▁meteor	-8104
▁paused	-8105
▁resent	-8106
▁retain	-8107
▁shapes	-8108
▁splend	-8109
▁studio	-8110
▁thanks	-8111
▁unions	-8112
▁voting	-8113
▁warmth	-8114
outheast	-8115
position	-8116
▁African	-8117
▁Speaker	-8118
▁Suppose	-8119
▁Whether	-8120
▁anxious	-8121
▁clarity	-8122
▁closing	-8123
▁doctors	-8124
▁fabrics	-8125
▁freight	-8126
▁funeral	-8127
▁leather	-8128
▁lighted	-8129
▁optimal	-8130
▁talents	-8131
▁veteran	-8132
▁Coolidge	-8133
▁Interior	-8134
▁Marshall	-8135
▁accommod	-8136
▁attorney	-8137
▁calendar	-8138
▁collabor	-8139
▁commonly	-8140
▁customer	-8141
▁delicate	-8142
▁examined	-8143
▁graduate	-8144
▁guerrill	-8145
▁helpless	-8146
▁laughing	-8147
▁meetings	-8148
▁offering	-8149
▁plastics	-8150
▁quarters	-8151
▁rendered	-8152
▁surfaces	-8153
▁vigorous	-8154
▁Christmas	-8155
▁Greenwich	-8156
▁apparatus	-8157
▁classical	-8158
▁committed	-8159
▁encounter	-8160
▁expanding	-8161
▁extending	-8162
▁gathering	-8163
▁happening	-8164
▁innocence	-8165
▁libraries	-8166
▁mechanism	-8167
▁professor	-8168
▁sacrifice	-8169
▁solutions	-8170
▁specified	-8171
▁consistent	-8172
▁dimensions	-8173
▁encouraged	-8174
▁enthusiasm	-8175
▁industries	-8176
▁propaganda	-8177
▁questioned	-8178
▁reputation	-8179
▁structures	-8180
▁demonstrate	-8181
▁electronics	-8182
▁sensitivity	-8183
▁sovereignty	-8184
▁deliberately	-8185
▁introduction	-8186
▁jurisdiction	-8187
▁representing	-8188
▁satisfaction	-8189
▁contributions	-8190
gs	-8191
.3/	-8192
bie	-8193
dam	-8194
iel	-8195
ogy	-8196
udo	-8197
▁$6	-8198
▁$8	-8199
▁Ol	-8200
▁ye	-8201
atom	-8202
aver	-8203
eled	-8204
erst	-8205
igan	-8206
made	-8207
mind	-8208
ning	-8209
outs	-8210
ptic	-8211
rows	-8212
tole	-8213
uits	-8214
umor	-8215
uter	-8216
utor	-8217
wing	-8218
▁Mee	-8219
▁Occ	-8220
▁SBA	-8221
▁Ven	-8222
▁Vie	-8223
abeth	-8224
aping	-8225
chell	-8226
cular	-8227
ishop	-8228
itals	-8229
lands	-8230
ousse	-8231
urred	-8232
▁Bord	-8233
▁Cady	-8234
▁Chap	-8235
▁Conc	-8236
▁Make	-8237
▁Mean	-8238
▁Pier	-8239
▁Stal	-8240
▁alco	-8241
▁ante	-8242
▁auth	-8243
▁belt	-8244
▁cens	-8245
▁dish	-8246
▁fees	-8247
▁flew	-8248
▁fold	-8249
▁gear	-8250
▁grat	-8251
▁pion	-8252
▁pitc	-8253
▁plug	-8254
▁radi	-8255
▁ranc	-8256
▁sail	-8257
▁tapp	-8258
▁toll	-8259
▁torn	-8260
▁trim	-8261
▁unre	-8262
acking	-8263
agraph	-8264
angers	-8265
avalry	-8266
employ	-8267
strohm	-8268
▁Andre	-8269
▁Brand	-8270
▁Julia	-8271
▁Ptole	-8272
▁Scott	-8273
▁cheap	-8274
▁cream	-8275
▁devil	-8276
▁inher	-8277
▁irreg	-8278
▁merit	-8279
▁micro	-8280
▁monop	-8281
▁opera	-8282
▁outer	-8283
▁patri	-8284
▁radar	-8285
▁scope	-8286
▁secre	-8287
▁slept	-8288
▁sport	-8289
▁tooth	-8290
▁vigor	-8291
▁voted	-8292
looking	-8293
▁Arlene	-8294
▁Corpor	-8295
▁Eugene	-8296
▁Forces	-8297
▁batter	-8298
▁casual	-8299
▁deduct	-8300
▁drying	-8301
▁gentle	-8302
▁holder	-8303
▁mighty	-8304
▁mirror	-8305
▁occurs	-8306
▁passes	-8307
▁rushed	-8308
▁spokes	-8309
▁substr	-8310
▁tempor	-8311
▁vessel	-8312
athology	-8313
▁Germans	-8314
▁Johnnie	-8315
▁acquire	-8316
▁confess	-8317
▁critics	-8318
▁feeding	-8319
▁finance	-8320
▁horizon	-8321
▁mineral	-8322
▁minimal	-8323
▁permits	-8324
▁players	-8325
▁samples	-8326
▁seconds	-8327
▁stained	-8328
▁surplus	-8329
▁utterly	-8330
▁weekend	-8331
▁Delaware	-8332
▁Ekstrohm	-8333
▁Maryland	-8334
▁Mitchell	-8335
▁Sandburg	-8336
▁applying	-8337
▁builders	-8338
▁clinical	-8339
▁formerly	-8340
▁imagined	-8341
▁operated	-8342
▁prestige	-8343
▁pursuant	-8344
▁recovery	-8345
▁reserved	-8346
▁shopping	-8347
▁upstairs	-8348
▁Aristotle	-8349
▁Hollywood	-8350
▁Obviously	-8351
▁Pittsburg	-8352
▁affection	-8353
▁commander	-8354
▁exclusive	-8355
▁marriages	-8356
▁presently	-8357
▁prevented	-8358
▁proposals	-8359
▁pulmonary	-8360
▁responses	-8361
▁salvation	-8362
▁scattered	-8363
▁submarine	-8364
▁territory	-8365
▁absolutely	-8366
▁advantages	-8367
▁comprehens	-8368
▁consisting	-8369
▁diplomatic	-8370
▁discipline	-8371
▁ecumenical	-8372
▁friendship	-8373
▁perception	-8374
▁permission	-8375
▁subsequent	-8376
▁Legislature	-8377
▁distributed	-8378
▁examination	-8379
▁limitations	-8380
▁maintaining	-8381
▁observation	-8382
▁regulations	-8383
▁requirement	-8384
▁associations	-8385
▁restrictions	-8386
▁representatives	-8387
fl	-8388
rs	-8389
00-	-8390
idi	-8391
lic	-8392
lot	-8393
oir	-8394
sis	-8395
▁Ki	-8396
▁du	-8397
abri	-8398
aney	-8399
ders	-8400
egan	-8401
iane	-8402
okes	-8403
orus	-8404
rell	-8405
sell	-8406
ulin	-8407
ulus	-8408
▁184	-8409
▁27/	-8410
▁Aff	-8411
▁Gib	-8412
▁Hem	-8413
▁Mol	-8414
▁Nov	-8415
▁Sum	-8416
▁ecc	-8417
▁ens	-8418
▁fee	-8419
▁fer	-8420
▁lab	-8421
▁pse	-8422
▁sne	-8423
▁wra	-8424
-1/2/	-8425
adium	-8426
aggie	-8427
amily	-8428
attan	-8429
bably	-8430
cheon	-8431
derer	-8432
iants	-8433
ilton	-8434
occup	-8435
osity	-8436
oters	-8437
owell	-8438
press	-8439
throp	-8440
trust	-8441
▁Camp	-8442
▁Fall	-8443
▁Fogg	-8444
▁Krim	-8445
▁Main	-8446
▁NATO	-8447
▁Port	-8448
▁Show	-8449
▁alle	-8450
▁echo	-8451
▁fist	-8452
▁gamb	-8453
▁horn	-8454
▁intu	-8455
▁ours	-8456
▁zero	-8457
atched	-8458
ductor	-8459
erable	-8460
erring	-8461
orious	-8462
ouched	-8463
roscop	-8464
▁1953/	-8465
▁Barco	-8466
▁Billy	-8467
▁Child	-8468
▁Garry	-8469
▁Griff	-8470
▁Moore	-8471
▁Nixon	-8472
▁annoy	-8473
▁barri	-8474
▁cabin	-8475
▁charm	-8476
▁cheek	-8477
▁chore	-8478
▁cried	-8479
▁meals	-8480
▁memor	-8481
▁minim	-8482
▁ordin	-8483
▁ranch	-8484
▁reass	-8485
▁sidew	-8486
▁stall	-8487
▁swall	-8488
▁swell	-8489
▁sympt	-8490
▁trace	-8491
ersonal	-8492
rethane	-8493
▁--/---	-8494
▁Almost	-8495
▁Bureau	-8496
▁Follow	-8497
▁Jersey	-8498
▁Maggie	-8499
▁Nation	-8500
▁Should	-8501
▁ancest	-8502
▁athlet	-8503
▁basket	-8504
▁cellar	-8505
▁client	-8506
▁commod	-8507
▁dealer	-8508
▁dreams	-8509
▁fabric	-8510
▁frames	-8511
▁frozen	-8512
▁golden	-8513
▁immort	-8514
▁injury	-8515
▁lively	-8516
▁paying	-8517
▁quoted	-8518
▁reluct	-8519
▁reward	-8520
▁saddle	-8521
▁sheets	-8522
▁sitter	-8523
▁wholly	-8524
American	-8525
ologists	-8526
▁Colonel	-8527
▁Science	-8528
▁amateur	-8529
▁climate	-8530
▁compare	-8531
▁comprom	-8532
▁emerged	-8533
▁enemies	-8534
▁eternal	-8535
▁handled	-8536
▁invited	-8537
▁justify	-8538
▁lacking	-8539
▁milligr	-8540
▁outcome	-8541
▁placing	-8542
▁quarrel	-8543
▁reinfor	-8544
▁reserve	-8545
▁spectac	-8546
▁staring	-8547
▁tangent	-8548
▁traders	-8549
▁unhappy	-8550
▁Carolina	-8551
▁Missouri	-8552
▁Portland	-8553
▁acquired	-8554
▁breaking	-8555
▁concepts	-8556
▁disaster	-8557
▁fraction	-8558
▁humanity	-8559
▁identify	-8560
▁inherent	-8561
▁marginal	-8562
▁overcome	-8563
▁pointing	-8564
▁publicly	-8565
▁recalled	-8566
▁released	-8567
▁revenues	-8568
▁velocity	-8569
▁Agreement	-8570
▁Certainly	-8571
▁Pathology	-8572
▁aesthetic	-8573
▁conceived	-8574
▁conductor	-8575
▁desperate	-8576
▁disturbed	-8577
▁gentleman	-8578
▁judgments	-8579
▁literally	-8580
▁phenomena	-8581
▁preferred	-8582
▁responsib	-8583
▁suspicion	-8584
▁trembling	-8585
▁variables	-8586
▁altogether	-8587
▁appreciate	-8588
▁delightful	-8589
▁fellowship	-8590
▁frightened	-8591
▁mysterious	-8592
▁Southerners	-8593
▁appointment	-8594
▁approaching	-8595
▁controversy	-8596
▁electricity	-8597
▁intelligent	-8598
▁magnificent	-8599
▁perspective	-8600
▁threatening	-8601
▁establishing	-8602
▁stockholders	-8603
▁sophisticated	-8604
▁reorganization	-8605
//	-8606
ns	-8607
.2/	-8608
07/	-8609
bro	-8610
cut	-8611
ili	-8612
nut	-8613
osa	-8614
six	-8615
▁$.	-8616
▁6-	-8617
▁Ap	-8618
▁Av	-8619
▁Kn	-8620
▁Lu	-8621
▁Ye	-8622
alph	-8623
amps	-8624
apol	-8625
assy	-8626
cing	-8627
iami	-8628
inks	-8629
iser	-8630
olas	-8631
pent	-8632
resa	-8633
roit	-8634
sets	-8635
▁10-	-8636
▁Ath	-8637
▁Den	-8638
▁Est	-8639
▁Gal	-8640
▁Lar	-8641
▁Rog	-8642
▁Sol	-8643
▁Sud	-8644
▁Tar	-8645
▁Tri	-8646
▁Use	-8647
▁reh	-8648
▁ske	-8649
▁tip	-8650
▁vag	-8651
▁wip	-8652
altim	-8653
aylor	-8654
ectic	-8655
gered	-8656
iolet	-8657
itter	-8658
itzer	-8659
liest	-8660
ommun	-8661
posed	-8662
stein	-8663
unted	-8664
▁300/	-8665
▁Cook	-8666
▁Dill	-8667
▁Home	-8668
▁Love	-8669
▁Norm	-8670
▁Owen	-8671
▁Prem	-8672
▁Puer	-8673
▁Soon	-8674
▁Viet	-8675
▁Walk	-8676
▁cott	-8677
▁dece	-8678
▁disk	-8679
▁embr	-8680
▁fert	-8681
▁harb	-8682
▁laun	-8683
▁nest	-8684
▁oral	-8685
▁sink	-8686
▁ster	-8687
▁tire	-8688
▁vein	-8689
▁vill	-8690
▁wars	-8691
▁wart	-8692
▁worn	-8693
5,000/	-8694
omfort	-8695
ousing	-8696
urable	-8697
▁Casey	-8698
▁Gavin	-8699
▁Guard	-8700
▁Hills	-8701
▁Miami	-8702
▁Relig	-8703
▁Sloan	-8704
▁Title	-8705
▁Women	-8706
▁actor	-8707
▁clock	-8708
▁coach	-8709
▁disag	-8710
▁fever	-8711
▁flash	-8712
▁flour	-8713
▁march	-8714
▁moist	-8715
▁noble	-8716
▁posts	-8717
▁resto	-8718
▁stamp	-8719
▁stars	-8720
▁suitc	-8721
▁suits	-8722
▁surve	-8723
▁treas	-8724
▁uncle	-8725
aration	-8726
assador	-8727
isition	-8728
liament	-8729
mission	-8730
ruption	-8731
▁Baltim	-8732
▁Cooper	-8733
▁Palace	-8734
▁Quiney	-8735
▁Spirit	-8736
▁Valley	-8737
▁aboard	-8738
▁blonde	-8739
▁convey	-8740
▁correl	-8741
▁eighty	-8742
▁linear	-8743
▁lonely	-8744
▁mobile	-8745
▁prohib	-8746
▁prosec	-8747
▁repeat	-8748
▁retail	-8749
▁rhythm	-8750
▁subtle	-8751
▁vacuum	-8752
▁worthy	-8753
cription	-8754
▁Blanche	-8755
▁Foreign	-8756
▁Houston	-8757
▁Village	-8758
▁accused	-8759
▁bearing	-8760
▁besides	-8761
▁delayed	-8762
▁denomin	-8763
▁designs	-8764
▁dilemma	-8765
▁discont	-8766
▁drivers	-8767
▁exhibit	-8768
▁fortune	-8769
▁glanced	-8770
▁hanging	-8771
▁hurried	-8772
▁landing	-8773
▁nervous	-8774
▁observe	-8775
▁painful	-8776
▁reaches	-8777
▁roughly	-8778
▁shortly	-8779
▁speaker	-8780
▁stretch	-8781
▁Broadway	-8782
▁Director	-8783
▁Killpath	-8784
▁Probably	-8785
▁Whatever	-8786
▁attached	-8787
▁attacked	-8788
▁disappro	-8789
▁employee	-8790
▁flexible	-8791
▁frontier	-8792
▁generous	-8793
▁grateful	-8794
▁inspired	-8795
▁medicine	-8796
▁monument	-8797
▁murderer	-8798
▁northern	-8799
▁peaceful	-8800
▁philosop	-8801
▁promptly	-8802
▁propriet	-8803
▁scarcely	-8804
▁sessions	-8805
▁shelters	-8806
▁switches	-8807
▁Baltimore	-8808
▁abandoned	-8809
▁accompany	-8810
▁afterward	-8811
▁attracted	-8812
▁component	-8813
▁eliminate	-8814
▁imitation	-8815
▁intervals	-8816
▁magazines	-8817
▁partially	-8818
▁proceeded	-8819
▁publicity	-8820
▁Pittsburgh	-8821
▁allowances	-8822
▁approaches	-8823
▁complement	-8824
▁directions	-8825
▁exceptions	-8826
▁functional	-8827
▁laboratory	-8828
▁prevention	-8829
▁productive	-8830
▁settlement	-8831
▁supporting	-8832
▁volunteers	-8833
▁composition	-8834
▁continually	-8835
▁departments	-8836
▁destructive	-8837
▁instruments	-8838
▁surrounding	-8839
▁transformed	-8840
▁hypothalamic	-8841
▁temperatures	-8842
▁demonstration	-8843
▁communications	-8844
EA	-8845
jo	-8846
05/	-8847
gly	-8848
hop	-8849
oma	-8850
oty	-8851
phe	-8852
sun	-8853
unc	-8854
ups	-8855
▁cm	-8856
▁na	-8857
:30/	-8858
ache	-8859
anim	-8860
edip	-8861
lley	-8862
olve	-8863
oyce	-8864
quer	-8865
uced	-8866
umps	-8867
▁70/	-8868
▁Bas	-8869
▁Bou	-8870
▁Eve	-8871
▁Gun	-8872
▁Nic	-8873
▁Pur	-8874
▁Shu	-8875
▁cha	-8876
▁tie	-8877
▁ven	-8878
aired	-8879
denly	-8880
essee	-8881
hless	-8882
icide	-8883
oning	-8884
owing	-8885
piece	-8886
rison	-8887
tedly	-8888
works	-8889
▁Alab	-8890
▁Arts	-8891
▁Back	-8892
▁Bell	-8893
▁Eliz	-8894
▁Ford	-8895
▁Gall	-8896
▁Harb	-8897
▁Hoag	-8898
▁Pete	-8899
▁Sign	-8900
▁Very	-8901
▁bore	-8902
▁brut	-8903
▁deck	-8904
▁dent	-8905
▁eleg	-8906
▁lion	-8907
▁murm	-8908
▁noon	-8909
▁pine	-8910
▁pipe	-8911
▁reck	-8912
▁rice	-8913
▁slid	-8914
▁tear	-8915
agonal	-8916
encing	-8917
erving	-8918
iosity	-8919
minded	-8920
obiles	-8921
semble	-8922
uating	-8923
weight	-8924
▁Homer	-8925
▁Keith	-8926
▁Organ	-8927
▁Penny	-8928
▁abund	-8929
▁adult	-8930
▁advoc	-8931
▁aimed	-8932
▁amend	-8933
▁aston	-8934
▁belly	-8935
▁bored	-8936
▁brick	-8937
▁cited	-8938
▁compr	-8939
▁cycle	-8940
▁drill	-8941
▁faint	-8942
▁fluid	-8943
▁hired	-8944
▁morph	-8945
▁polar	-8946
▁shame	-8947
▁stuck	-8948
▁tubes	-8949
▁widow	-8950
▁wines	-8951
▁wings	-8952
▁yours	-8953
istence	-8954
ometric	-8955
▁Bobbie	-8956
▁Common	-8957
▁Confed	-8958
▁Deegan	-8959
▁Freddy	-8960
▁Heaven	-8961
▁Katang	-8962
▁Member	-8963
▁Method	-8964
▁Milton	-8965
▁Puerto	-8966
▁Spring	-8967
▁Vernon	-8968
▁allies	-8969
▁arrive	-8970
▁autumn	-8971
▁backed	-8972
▁consol	-8973
▁excuse	-8974
▁firing	-8975
▁insure	-8976
▁interl	-8977
▁league	-8978
▁parade	-8979
▁perpet	-8980
▁phases	-8981
▁planes	-8982
▁portra	-8983
▁prejud	-8984
▁pupils	-8985
▁racial	-8986
▁repair	-8987
▁seized	-8988
▁tended	-8989
▁viewed	-8990
▁wildly	-8991
▁wishes	-8992
oubtedly	-8993
▁Madison	-8994
▁Mexican	-8995
▁Premier	-8996
▁Theresa	-8997
▁antagon	-8998
▁artific	-8999
▁authors	-9000
▁chances	-9001
▁desires	-9002
▁honored	-9003
▁lawyers	-9004
▁nearest	-9005
▁nowhere	-9006
▁plaster	-9007
▁procure	-9008
▁prosper	-9009
▁realism	-9010
▁tribute	-9011
▁warrant	-9012
▁Economic	-9013
▁absorbed	-9014
▁cocktail	-9015
▁contacts	-9016
▁contempl	-9017
▁contempt	-9018
▁entering	-9019
▁exposure	-9020
▁forecast	-9021
▁luncheon	-9022
▁magnetic	-9023
▁managers	-9024
▁probable	-9025
▁regiment	-9026
▁specimen	-9027
▁wherever	-9028
ographical	-9029
▁Elizabeth	-9030
▁Tennessee	-9031
▁assembled	-9032
▁consisted	-9033
▁contracts	-9034
▁detergent	-9035
▁diffusion	-9036
▁disappear	-9037
▁frequency	-9038
▁orthodont	-9039
▁paragraph	-9040
▁promising	-9041
▁promotion	-9042
▁prospects	-9043
▁qualified	-9044
▁subjected	-9045
▁Everything	-9046
▁accurately	-9047
▁categories	-9048
▁continuity	-9049
▁expressing	-9050
▁occupation	-9051
▁retirement	-9052
▁Development	-9053
▁automobiles	-9054
▁exclusively	-9055
▁impressions	-9056
▁interpreted	-9057
▁neighboring	-9058
▁operational	-9059
▁realization	-9060
▁theological	-9061
▁Independence	-9062
▁announcement	-9063
▁applications	-9064
▁enthusiastic	-9065
▁philosophical	-9066
▁constitutional	-9067
▁correspondence	-9068
▁recommendation	-9069
8-	-9070
OD	-9071
ho	-9072
yo	-9073
30/	-9074
80/	-9075
iac	-9076
ikk	-9077
pic	-9078
rog	-9079
rum	-9080
ucc	-9081
vie	-9082
ymn	-9083
zer	-9084
zes	-9085
▁22	-9086
▁3.	-9087
▁5-	-9088
▁Ox	-9089
▁ri	-9090
amus	-9091
asso	-9092
away	-9093
fold	-9094
itol	-9095
ivic	-9096
kill	-9097
lemn	-9098
life	-9099
mark	-9100
rble	-9101
shot	-9102
step	-9103
uity	-9104
▁29/	-9105
▁Fri	-9106
▁Het	-9107
▁Hun	-9108
▁Jen	-9109
▁Lie	-9110
▁Lum	-9111
▁Pas	-9112
▁dow	-9113
▁hay	-9114
▁vir	-9115
▁voy	-9116
Saxon	-9117
abled	-9118
acent	-9119
armed	-9120
ashes	-9121
ctors	-9122
erald	-9123
inals	-9124
izzie	-9125
omers	-9126
ouses	-9127
stage	-9128
▁Bapt	-9129
▁Crom	-9130
▁Hold	-9131
▁Juan	-9132
▁List	-9133
▁Town	-9134
▁ampl	-9135
▁bunk	-9136
▁butt	-9137
▁code	-9138
▁dive	-9139
▁elev	-9140
▁epic	-9141
apolis	-9142
assion	-9143
endent	-9144
inates	-9145
irling	-9146
onomic	-9147
rugged	-9148
▁Artic	-9149
▁Could	-9150
▁Daily	-9151
▁Hawai	-9152
▁Mills	-9153
▁Onset	-9154
▁Symph	-9155
▁admin	-9156
▁antib	-9157
▁aspir	-9158
▁bases	-9159
▁cheer	-9160
▁chuck	-9161
▁falls	-9162
▁fault	-9163
▁fifth	-9164
▁folks	-9165
▁giant	-9166
▁intim	-9167
▁lands	-9168
▁legit	-9169
▁molec	-9170
▁norms	-9171
▁overt	-9172
▁rebel	-9173
▁rival	-9174
▁rocks	-9175
▁sauce	-9176
▁sober	-9177
▁souls	-9178
▁spell	-9179
▁tourn	-9180
minster	-9181
ouncing	-9182
ousseau	-9183
pection	-9184
ulative	-9185
unction	-9186
▁Arnold	-9187
▁Elaine	-9188
▁Michel	-9189
▁Philip	-9190
▁Podger	-9191
▁Revere	-9192
▁Taylor	-9193
▁Twenty	-9194
▁Vienna	-9195
▁attach	-9196
▁calcul	-9197
▁defect	-9198
▁enable	-9199
▁fibers	-9200
▁genius	-9201
▁grades	-9202
▁grants	-9203
▁harder	-9204
▁hungry	-9205
▁mutual	-9206
▁overse	-9207
▁prelim	-9208
▁regime	-9209
▁regret	-9210
▁savage	-9211
▁settle	-9212
▁snakes	-9213
▁string	-9214
▁superb	-9215
▁supern	-9216
▁thinks	-9217
▁weekly	-9218
▁whisky	-9219
Semitism	-9220
itations	-9221
ortunate	-9222
▁Century	-9223
▁Douglas	-9224
▁Vermont	-9225
▁arrival	-9226
▁beliefs	-9227
▁cleared	-9228
▁compete	-9229
▁confirm	-9230
▁degrees	-9231
▁factory	-9232
▁feather	-9233
▁heating	-9234
▁immense	-9235
▁killing	-9236
▁lengths	-9237
▁outdoor	-9238
▁resumed	-9239
▁sheriff	-9240
▁tractor	-9241
▁trading	-9242
▁wounded	-9243
istically	-9244
▁Cromwell	-9245
▁Hamilton	-9246
▁Rousseau	-9247
▁Suddenly	-9248
▁Symphony	-9249
▁adjusted	-9250
▁backward	-9251
▁category	-9252
▁channels	-9253
▁charming	-9254
▁civilian	-9255
▁coverage	-9256
▁distress	-9257
▁folklore	-9258
▁historic	-9259
▁midnight	-9260
▁musician	-9261
▁reflects	-9262
▁register	-9263
▁relieved	-9264
▁restrict	-9265
▁stressed	-9266
▁Represent	-9267
▁Testament	-9268
▁assistant	-9269
▁astronomy	-9270
▁cigarette	-9271
▁classroom	-9272
▁curiosity	-9273
▁dedicated	-9274
▁empirical	-9275
▁estimates	-9276
▁exercises	-9277
▁furnished	-9278
▁intermedi	-9279
▁justified	-9280
▁narrative	-9281
▁seventeen	-9282
▁substrate	-9283
▁voluntary	-9284
▁whispered	-9285
▁attempting	-9286
▁colleagues	-9287
▁convenient	-9288
▁depression	-9289
▁eighteenth	-9290
▁incredible	-9291
▁meaningful	-9292
▁Westminster	-9293
▁assumptions	-9294
▁controlling	-9295
▁distinguish	-9296
▁generations	-9297
▁suggestions	-9298
▁Presidential	-9299
▁continuously	-9300
▁governmental	-9301
▁mathematical	-9302
▁metropolitan	-9303
▁refrigerator	-9304
▁registration	-9305
▁discrimination	-9306
,2	-9307
OC	-9308
ds	-9309
eu	-9310
ael	-9311
aus	-9312
kel	-9313
ped	-9314
yer	-9315
zym	-9316
▁0/	-9317
▁4-	-9318
▁AI	-9319
▁Ca	-9320
▁Hi	-9321
▁Ta	-9322
dikk	-9323
emon	-9324
erry	-9325
grat	-9326
gypt	-9327
idth	-9328
igen	-9329
illo	-9330
mary	-9331
osts	-9332
rael	-9333
tery	-9334
ythe	-9335
▁Amb	-9336
▁Bor	-9337
▁Bud	-9338
▁Bul	-9339
▁Ten	-9340
▁asc	-9341
▁dug	-9342
▁jar	-9343
▁lip	-9344
▁lou	-9345
▁seg	-9346
▁sod	-9347
▁wax	-9348
aints	-9349
annel	-9350
chief	-9351
color	-9352
ensed	-9353
estly	-9354
eters	-9355
eting	-9356
idget	-9357
level	-9358
oping	-9359
ourke	-9360
peror	-9361
terol	-9362
ubble	-9363
▁Abel	-9364
▁Arch	-9365
▁Bonn	-9366
▁Drug	-9367
▁Fell	-9368
▁Food	-9369
▁Gree	-9370
▁Note	-9371
▁Poor	-9372
▁Song	-9373
▁Swed	-9374
▁aids	-9375
▁curb	-9376
▁fond	-9377
▁hosp	-9378
▁joke	-9379
▁jung	-9380
▁lift	-9381
▁nuts	-9382
▁pump	-9383
▁soap	-9384
▁solo	-9385
▁stag	-9386
▁unst	-9387
▁vert	-9388
▁wing	-9389
assing	-9390
dikkat	-9391
haired	-9392
making	-9393
mented	-9394
obulin	-9395
ribing	-9396
rolled	-9397
school	-9398
sunami	-9399
ulsion	-9400
▁Above	-9401
▁Byron	-9402
▁Egypt	-9403
▁Exper	-9404
▁Light	-9405
▁Maude	-9406
▁Music	-9407
▁Party	-9408
▁Queen	-9409
▁Ralph	-9410
▁Royal	-9411
▁Start	-9412
▁Swift	-9413
▁adapt	-9414
▁cease	-9415
▁dealt	-9416
▁dread	-9417
▁elder	-9418
▁enlar	-9419
▁fatal	-9420
▁foams	-9421
▁frown	-9422
▁grows	-9423
▁indul	-9424
▁inhab	-9425
▁knock	-9426
▁label	-9427
▁milit	-9428
▁motel	-9429
▁panic	-9430
▁penal	-9431
▁recip	-9432
▁reson	-9433
▁revel	-9434
▁scrut	-9435
▁sixth	-9436
▁spare	-9437
▁stair	-9438
▁stake	-9439
▁straw	-9440
▁swing	-9441
▁teams	-9442
amation	-9443
ighters	-9444
raction	-9445
rounded	-9446
umbling	-9447
veloped	-9448
▁Alaska	-9449
▁Donald	-9450
▁Freder	-9451
▁Israel	-9452
▁Mexico	-9453
▁Morris	-9454
▁Rourke	-9455
▁Skyros	-9456
▁Stalin	-9457
▁adding	-9458
▁adults	-9459
▁catast	-9460
▁chairs	-9461
▁clever	-9462
▁curric	-9463
▁decent	-9464
▁divers	-9465
▁drinks	-9466
▁flower	-9467
▁freely	-9468
▁indign	-9469
▁loaded	-9470
▁novels	-9471
▁plates	-9472
▁poison	-9473
▁reserv	-9474
▁rifles	-9475
▁sighed	-9476
▁sphere	-9477
▁sticks	-9478
▁suited	-9479
▁temple	-9480
▁timber	-9481
▁trucks	-9482
▁uneasy	-9483
▁warned	-9484
▁yelled	-9485
▁Affairs	-9486
▁Article	-9487
▁Bridget	-9488
▁Capitol	-9489
▁Detroit	-9490
▁Eastern	-9491
▁Florida	-9492
▁Program	-9493
▁Student	-9494
▁alcohol	-9495
▁altered	-9496
▁assault	-9497
▁belongs	-9498
▁biggest	-9499
▁bombers	-9500
▁bridges	-9501
▁carries	-9502
▁destiny	-9503
▁expects	-9504
▁illness	-9505
▁insects	-9506
▁insight	-9507
▁melting	-9508
▁multipl	-9509
▁painter	-9510
▁planets	-9511
▁protein	-9512
▁pulling	-9513
▁rehabil	-9514
▁secular	-9515
▁sharing	-9516
▁shouldn	-9517
▁supreme	-9518
▁synthes	-9519
▁targets	-9520
▁totally	-9521
▁useless	-9522
olesterol	-9523
▁confront	-9524
▁dressing	-9525
▁earliest	-9526
▁formulas	-9527
▁hypothes	-9528
▁laughter	-9529
▁moderate	-9530
▁overseas	-9531
▁pressing	-9532
▁relevant	-9533
▁reliable	-9534
▁respects	-9535
▁retained	-9536
▁sampling	-9537
▁servants	-9538
▁splendid	-9539
▁steadily	-9540
▁traveled	-9541
▁urethane	-9542
imensional	-9543
▁Meanwhile	-9544
▁ambiguous	-9545
▁attending	-9546
▁democracy	-9547
▁describes	-9548
▁evidently	-9549
▁factories	-9550
▁happiness	-9551
▁irregular	-9552
▁occasions	-9553
▁ownership	-9554
▁oxidation	-9555
▁possessed	-9556
▁preparing	-9557
▁prisoners	-9558
▁regularly	-9559
▁searching	-9560
▁successes	-9561
▁surrender	-9562
▁taxpayers	-9563
▁twentieth	-9564
▁alienation	-9565
▁assessment	-9566
▁complained	-9567
▁conspiracy	-9568
▁economical	-9569
▁elementary	-9570
▁eliminated	-9571
▁engagement	-9572
▁intentions	-9573
▁registered	-9574
▁structural	-9575
▁anticipated	-9576
▁exploration	-9577
▁obligations	-9578
▁participate	-9579
▁unfortunate	-9580
▁appreciation	-9581
▁capabilities	-9582
▁displacement	-9583
▁implications	-9584
▁manufacturing	-9585
▁classification	-9586
TV	-9587
kj	-9588
rd	-9589
sk	-9590
alo	-9591
cus	-9592
eds	-9593
eem	-9594
ela	-9595
esc	-9596
fit	-9597
log	-9598
neg	-9599
ois	-9600
ula	-9601
zza	-9602
▁27	-9603
▁38	-9604
▁Ah	-9605
▁Rh	-9606
▁SA	-9607
▁Wy	-9608
abel	-9609
adow	-9610
aldi	-9611
ands	-9612
apor	-9613
azed	-9614
ften	-9615
grim	-9616
icus	-9617
load	-9618
ocal	-9619
ogan	-9620
ommy	-9621
quet	-9622
raux	-9623
rich	-9624
tler	-9625
wart	-9626
▁178	-9627
▁183	-9628
▁28/	-9629
▁34/	-9630
▁Ada	-9631
▁BOD	-9632
▁Hor	-9633
▁Imp	-9634
▁Lal	-9635
▁McK	-9636
▁Ple	-9637
▁Sty	-9638
▁caf	-9639
▁cul	-9640
▁gle	-9641
▁jer	-9642
▁jet	-9643
▁lif	-9644
▁nur	-9645
▁pic	-9646
adine	-9647
agers	-9648
apsed	-9649
arded	-9650
arskj	-9651
atisf	-9652
eches	-9653
gging	-9654
ifier	-9655
ishly	-9656
itage	-9657
luent	-9658
quire	-9659
story	-9660
ulose	-9661
verty	-9662
▁Beck	-9663
▁Keys	-9664
▁Kitt	-9665
▁Lang	-9666
▁Manh	-9667
▁Need	-9668
▁Rico	-9669
▁Rose	-9670
▁Russ	-9671
▁Thor	-9672
▁Wait	-9673
▁abol	-9674
▁acre	-9675
▁bang	-9676
▁cope	-9677
▁damp	-9678
▁dare	-9679
▁drum	-9680
▁encl	-9681
▁fans	-9682
▁grip	-9683
▁hits	-9684
▁leaf	-9685
▁mate	-9686
▁mode	-9687
▁pile	-9688
▁plun	-9689
▁rabb	-9690
▁slee	-9691
▁subt	-9692
▁tale	-9693
▁tetr	-9694
▁trap	-9695
▁ugly	-9696
▁volt	-9697
▁wool	-9698
angelo	-9699
arling	-9700
asting	-9701
entric	-9702
formed	-9703
ibaldi	-9704
mitted	-9705
omatic	-9706
retion	-9707
utable	-9708
velope	-9709
▁1948/	-9710
▁1950/	-9711
▁Allen	-9712
▁Being	-9713
▁Bobby	-9714
▁Cathy	-9715
▁Haney	-9716
▁Joyce	-9717
▁Letch	-9718
▁Major	-9719
▁Oedip	-9720
▁Opera	-9721
▁Paula	-9722
▁Trans	-9723
▁Water	-9724
▁Which	-9725
▁boost	-9726
▁brass	-9727
▁delay	-9728
▁heels	-9729
▁input	-9730
▁insol	-9731
▁keeps	-9732
▁marry	-9733
▁midst	-9734
▁mines	-9735
▁mortg	-9736
▁pause	-9737
▁plate	-9738
▁postp	-9739
▁races	-9740
▁roots	-9741
▁skirt	-9742
▁slide	-9743
▁smart	-9744
▁spark	-9745
▁suite	-9746
▁symph	-9747
▁trick	-9748
▁vocal	-9749
▁weren	-9750
▁wrink	-9751
onymous	-9752
ountain	-9753
versely	-9754
▁Having	-9755
▁Lalaur	-9756
▁Madden	-9757
▁Police	-9758
▁Report	-9759
▁Utopia	-9760
▁affirm	-9761
▁anatom	-9762
▁applic	-9763
▁bacter	-9764
▁behalf	-9765
▁constr	-9766
▁cowboy	-9767
▁crises	-9768
▁criter	-9769
▁dances	-9770
▁denial	-9771
▁dishes	-9772
▁frustr	-9773
▁garage	-9774
▁habits	-9775
▁hearts	-9776
▁killer	-9777
▁luxury	-9778
▁masses	-9779
▁patron	-9780
▁player	-9781
▁racing	-9782
▁refund	-9783
▁ruling	-9784
▁saving	-9785
▁seated	-9786
▁solemn	-9787
▁subord	-9788
▁urgent	-9789
▁voyage	-9790
▁vulner	-9791
▁wheels	-9792
arskjold	-9793
iversary	-9794
▁Austral	-9795
▁Francis	-9796
▁Katanga	-9797
▁Malraux	-9798
▁Marshal	-9799
▁Stephen	-9800
▁Warwick	-9801
▁boating	-9802
▁charter	-9803
▁chiefly	-9804
▁convert	-9805
▁dynamic	-9806
▁earnest	-9807
▁forming	-9808
▁fulfill	-9809
▁harmony	-9810
▁inspect	-9811
▁lowered	-9812
▁loyalty	-9813
▁nonspec	-9814
▁obliged	-9815
▁poverty	-9816
▁profits	-9817
▁reveals	-9818
▁shining	-9819
▁sincere	-9820
▁Belgians	-9821
▁Everyone	-9822
▁Johnston	-9823
▁Michigan	-9824
▁Remember	-9825
▁Reverend	-9826
▁assembly	-9827
▁balanced	-9828
▁computed	-9829
▁concerts	-9830
▁displays	-9831
▁doubtful	-9832
▁drawings	-9833
▁educated	-9834
▁envelope	-9835
▁inclined	-9836
▁incorpor	-9837
▁intimate	-9838
▁launched	-9839
▁liberals	-9840
▁meanings	-9841
▁moreover	-9842
▁particle	-9843
▁preoccup	-9844
▁proclaim	-9845
▁strategy	-9846
▁stumbled	-9847
▁unlikely	-9848
▁Garibaldi	-9849
▁Manhattan	-9850
▁accepting	-9851
▁addresses	-9852
▁arbitrary	-9853
▁authentic	-9854
▁certainty	-9855
▁companion	-9856
▁enjoyment	-9857
▁fortunate	-9858
▁governing	-9859
▁hesitated	-9860
▁objection	-9861
▁occurring	-9862
▁persuaded	-9863
▁pertinent	-9864
▁planetary	-9865
▁relatives	-9866
▁submitted	-9867
▁suspected	-9868
▁therapist	-9869
▁wondering	-9870
dimensional	-9871
▁Apparently	-9872
▁Christians	-9873
▁Completion	-9874
▁conversion	-9875
▁definitely	-9876
▁foundation	-9877
▁milligrams	-9878
▁originally	-9879
▁passengers	-9880
▁petitioner	-9881
▁possession	-9882
▁statistics	-9883
▁substitute	-9884
▁traditions	-9885
▁conferences	-9886
▁desperately	-9887
▁fascinating	-9888
▁ideological	-9889
▁preliminary	-9890
▁prospective	-9891
▁questioning	-9892
▁respectable	-9893
▁spectacular	-9894
▁Hammarskjold	-9895
▁Michelangelo	-9896
▁availability	-9897
▁corporations	-9898
▁supernatural	-9899
▁characterized	-9900
▁investigations	-9901
▁recommendations	-9902
.'	-9903
3-	-9904
ez	-9905
zo	-9906
-19	-9907
ags	-9908
bet	-9909
fay	-9910
gun	-9911
/	-9912
▁	-9913
n	-9914
e	-9915
t	-9916
a	-9917
i	-9918
s	-9919
o	-9920
r	-9921
d	-9922
p	-9923
h	-9924
b	-9925
c	-9926
l	-9927
v	-9928
j	-9929
u	-9930
m	-9931
,	-9932
.	-9933
g	-9934
f	-9935
w	-9936
y	-9937
-	-9938
'	-9939
z	-9940
`	-9941
k	-9942
$	-9943
T	-9944
q	-9945
I	-9946
x	-9947
A	-9948
S	-9949
H	-9950
C	-9951
M	-9952
*	-9953
B	-9954
W	-9955
;	-9956
1	-9957
P	-9958
)	-9959
(	-9960
?	-9961
0	-9962
F	-9963
D	-9964
N	-9965
:	-9966
R	-9967
G	-9968
O	-9969
L	-9970
E	-9971
J	-9972
+	-9973
2	-9974
5	-9975
9	-9976
3	-9977
U	-9978
Y	-9979
!	-9980
K	-9981
4	-9982
6	-9983
8	-9984
7	-9985
V	-9986
Q	-9987
&	-9988
%	-9989
Z	-9990
X	-9991
{	-9992
}	-9993
[	-9994
]	-9995
