<pad>	0
<unk>	0
<s>	0
</s>	0
▁t	-0
in	-1
▁a	-2
he	-3
re	-4
▁s	-5
on	-6
er	-7
▁the	-8
an	-9
▁o	-10
▁c	-11
es	-12
▁p	-13
ar	-14
it	-15
en	-16
▁b	-17
▁m	-18
ed	-19
at	-20
or	-21
▁w	-22
▁in	-23
al	-24
▁f	-25
▁d	-26
▁of	-27
▁to	-28
ro	-29
id	-30
is	-31
ing	-32
▁1	-33
nd	-34
ion	-35
il	-36
as	-37
ct	-38
▁sa	-39
ic	-40
▁S	-41
▁said	-42
om	-43
ou	-44
▁and	-45
et	-46
▁re	-47
ent	-48
▁T	-49
00	-50
▁l	-51
▁C	-52
▁e	-53
st	-54
▁n	-55
▁A	-56
▁h	-57
ln	-58
▁v	-59
▁mln	-60
▁I	-61
▁th	-62
ad	-63
▁it	-64
▁M	-65
ur	-66
el	-67
ut	-68
▁2	-69
▁st	-70
ill	-71
▁B	-72
ld	-73
▁be	-74
ter	-75
▁pro	-76
▁for	-77
ts	-78
ment	-79
▁g	-80
ve	-81
▁N	-82
▁vs	-83
▁P	-84
▁F	-85
ly	-86
▁on	-87
ers	-88
▁com	-89
▁sh	-90
ation	-91
rs	-92
▁R	-93
os	-94
ay	-95
▁The	-96
lt	-97
▁ex	-98
ot	-99
▁dl	-100
pan	-101
im	-102
ch	-103
▁y	-104
▁U	-105
le	-106
ce	-107
▁19	-108
▁D	-109
▁dlrs	-110
▁de	-111
ow	-112
qu	-113
are	-114
,00	-115
▁198	-116
,000	-117
ear	-118
▁3	-119
▁r	-120
▁is	-121
▁G	-122
us	-123
ol	-124
▁E	-125
ain	-126
est	-127
ig	-128
▁at	-129
▁an	-130
ir	-131
▁L	-132
▁J	-133
▁H	-134
ate	-135
du	-136
▁pct	-137
▁its	-138
▁&	-139
ver	-140
ort	-141
▁that	-142
▁con	-143
ark	-144
▁by	-145
rom	-146
un	-147
▁from	-148
▁was	-149
end	-150
▁year	-151
ri	-152
ect	-153
▁"	-154
ith	-155
▁cts	-156
ere	-157
ge	-158
up	-159
ER	-160
▁he	-161
▁with	-162
ould	-163
▁share	-164
▁4	-165
▁W	-166
res	-167
ES	-168
▁mark	-169
ON	-170
▁as	-171
▁exp	-172
ank	-173
▁5	-174
rad	-175
▁In	-176
her	-177
▁bill	-178
oc	-179
ev	-180
OR	-181
nt	-182
▁al	-183
▁not	-184
AN	-185
▁wh	-186
iv	-187
und	-188
▁ag	-189
ore	-190
▁has	-191
▁will	-192
man	-193
ak	-194
▁compan	-195
..	-196
▁billion	-197
th	-198
ies	-199
ul	-200
ast	-201
▁6	-202
ec	-203
AR	-204
ess	-205
IN	-206
▁O	-207
ial	-208
ive	-209
um	-210
ary	-211
▁1986	-212
▁are	-213
▁company	-214
ab	-215
▁ne	-216
▁market	-217
ric	-218
ff	-219
▁inc	-220
ra	-221
ist	-222
oss	-223
ust	-224
ee	-225
▁trad	-226
▁ac	-227
ich	-228
▁im	-229
▁me	-230
port	-231
▁would	-232
▁sp	-233
ET	-234
ST	-235
ud	-236
▁Ja	-237
urre	-238
AT	-239
ree	-240
,"	-241
▁1.	-242
oll	-243
▁IN	-244
fic	-245
EN	-246
old	-247
▁ha	-248
od	-249
ity	-250
ran	-251
▁qu	-252
▁Q	-253
per	-254
▁ab	-255
▁int	-256
▁Japan	-257
AL	-258
fit	-259
▁loss	-260
ac	-261
ber	-262
▁7	-263
▁ad	-264
▁su	-265
▁res	-266
▁Sh	-267
out	-268
▁produ	-269
ard	-270
art	-271
lan	-272
ates	-273
▁have	-274
ction	-275
▁ton	-276
▁profit	-277
pp	-278
ome	-279
▁or	-280
▁(	-281
ord	-282
our	-283
▁which	-284
day	-285
▁mon	-286
ock	-287
ure	-288
▁un	-289
ated	-290
▁curre	-291
IT	-292
▁Net	-293
igh	-294
ition	-295
se	-296
ther	-297
▁tonn	-298
ry	-299
ue	-300
am	-301
▁per	-302
ire	-303
▁this	-304
TR	-305
pl	-306
ations	-307
con	-308
▁bank	-309
ine	-310
over	-311
▁last	-312
gh	-313
pr	-314
▁ch	-315
so	-316
all	-317
▁ear	-318
▁had	-319
▁pric	-320
▁K	-321
▁cont	-322
.5	-323
nc	-324
ell	-325
ange	-326
▁were	-327
ount	-328
▁Shr	-329
conom	-330
▁8	-331
▁gro	-332
▁out	-333
▁pre	-334
▁about	-335
▁also	-336
▁rec	-337
▁expect	-338
▁stock	-339
ok	-340
▁imp	-341
em	-342
ong	-343
▁tonnes	-344
ance	-345
▁dis	-346
▁fir	-347
ign	-348
▁Com	-349
▁but	-350
ollar	-351
▁comm	-352
ru	-353
▁whe	-354
rop	-355
ings	-356
▁been	-357
▁econom	-358
ost	-359
pril	-360
▁shares	-361
▁Inc	-362
▁they	-363
.2	-364
ant	-365
▁St	-366
arter	-367
▁April	-368
▁dollar	-369
.9	-370
▁9	-371
ep	-372
ase	-373
orp	-374
able	-375
▁report	-376
lud	-377
▁TO	-378
▁sal	-379
ational	-380
ED	-381
orts	-382
UR	-383
▁It	-384
▁quarter	-385
▁10	-386
ical	-387
▁QTR	-388
▁1987	-389
▁trade	-390
ia	-391
age	-392
▁div	-393
if	-394
ian	-395
▁He	-396
ces	-397
▁14	-398
▁acc	-399
▁meet	-400
op	-401
ely	-402
▁new	-403
▁plan	-404
.1	-405
.7	-406
ult	-407
arg	-408
▁V	-409
▁15	-410
▁20	-411
▁Corp	-412
.4	-413
.8	-414
RO	-415
vest	-416
▁one	-417
ING	-418
fter	-419
▁end	-420
IL	-421
ap	-422
eek	-423
ond	-424
ities	-425
ip	-426
▁app	-427
reement	-428
AY	-429
wo	-430
ral	-431
usin	-432
▁add	-433
▁wor	-434
usiness	-435
▁up	-436
....	-437
▁first	-438
TS	-439
▁ma	-440
▁net	-441
▁off	-442
▁sup	-443
.6	-444
▁le	-445
▁oil	-446
ag	-447
ey	-448
ake	-449
and	-450
▁dec	-451
▁stg	-452
▁after	-453
▁includ	-454
▁business	-455
▁CO	-456
erest	-457
▁than	-458
▁bu	-459
▁NET	-460
▁Rev	-461
▁two	-462
▁incre	-463
."	-464
IS	-465
ew	-466
iz	-467
ress	-468
act	-469
ors	-470
yst	-471
ight	-472
tern	-473
own	-474
▁some	-475
-1	-476
ous	-477
▁acqu	-478
▁currenc	-479
IC	-480
ail	-481
▁Re	-482
▁und	-483
overn	-484
▁offic	-485
ms	-486
ub	-487
▁more	-488
change	-489
▁state	-490
▁interest	-491
ile	-492
ual	-493
▁we	-494
ries	-495
ments	-496
▁week	-497
UT	-498
erv	-499
use	-500
eral	-501
▁Revs	-502
▁grow	-503
.3	-504
EC	-505
OT	-506
▁all	-507
▁earn	-508
▁oper	-509
▁redu	-510
▁agreement	-511
▁Y	-512
▁rates	-513
▁expected	-514
.0	-515
RA	-516
ION	-517
pos	-518
▁Un	-519
▁se	-520
▁sub	-521
▁Bank	-522
▁comp	-523
▁their	-524
ures	-525
▁month	-526
ang	-527
mer	-528
sid	-529
▁13	-530
▁bo	-531
▁today	-532
ese	-533
▁fin	-534
▁price	-535
▁product	-536
anc	-537
ays	-538
los	-539
ove	-540
ton	-541
▁30	-542
▁li	-543
▁op	-544
round	-545
▁cent	-546
▁fore	-547
▁govern	-548
▁1,	-549
▁min	-550
▁again	-551
▁invest	-552
▁current	-553
▁meeting	-554
aw	-555
ax	-556
evel	-557
▁Ger	-558
ision	-559
EL	-560
li	-561
▁-	-562
▁Ch	-563
▁ST	-564
hold	-565
sion	-566
ister	-567
▁1985	-568
▁sales	-569
▁k	-570
▁Min	-571
▁ris	-572
▁told	-573
ex	-574
vi	-575
▁j	-576
ble	-577
▁12	-578
▁Co	-579
ased	-580
dust	-581
ited	-582
▁But	-583
▁INC	-584
▁bec	-585
▁tot	-586
▁disc	-587
▁rate	-588
▁indust	-589
/8	-590
The	-591
ood	-592
▁28	-593
▁lo	-594
ough	-595
▁May	-596
▁other	-597
eb	-598
▁so	-599
even	-600
▁Can	-601
▁over	-602
▁could	-603
▁under	-604
red	-605
▁RE	-606
▁low	-607
▁yen	-608
ating	-609
ID	-610
ash	-611
jor	-612
▁no	-613
▁bet	-614
▁buy	-615
▁count	-616
ix	-617
ause	-618
▁ass	-619
▁Comm	-620
▁part	-621
▁German	-622
▁against	-623
TER	-624
arch	-625
▁Ind	-626
▁deb	-627
▁man	-628
0,000	-629
▁level	-630
AS	-631
air	-632
ite	-633
med	-634
ugh	-635
▁11	-636
▁Ag	-637
▁ro	-638
▁est	-639
▁pay	-640
ester	-641
▁deal	-642
▁major	-643
▁around	-644
▁official	-645
ues	-646
ven	-647
▁en	-648
▁ann	-649
▁rep	-650
▁earnings	-651
▁economic	-652
td	-653
ecur	-654
▁Ltd	-655
▁NOT	-656
▁sour	-657
▁total	-658
▁exchange	-659
,3	-660
wn	-661
ean	-662
ime	-663
ared	-664
▁Par	-665
▁pol	-666
alyst	-667
uring	-668
▁five	-669
urther	-670
▁Canad	-671
▁prices	-672
esterday	-673
ternational	-674
ND	-675
OL	-676
itt	-677
▁16	-678
ater	-679
okes	-680
▁pri	-681
▁West	-682
▁three	-683
▁contin	-684
▁spokes	-685
▁statement	-686
▁yesterday	-687
,5	-688
its	-689
urch	-690
idend	-691
▁marks	-692
▁government	-693
CH	-694
ild	-695
rov	-696
▁31	-697
rain	-698
▁Gro	-699
▁eff	-700
▁take	-701
▁defic	-702
▁further	-703
▁Japanese	-704
▁currency	-705
we	-706
ENT	-707
ack	-708
ade	-709
▁SH	-710
ered	-711
▁Feb	-712
▁att	-713
▁rest	-714
▁March	-715
▁because	-716
fl	-717
ie	-718
▁17	-719
▁18	-720
▁As	-721
vent	-722
▁cut	-723
▁say	-724
▁markets	-725
▁products	-726
▁De	-727
▁Eu	-728
lect	-729
5,000	-730
aking	-731
▁into	-732
▁open	-733
airman	-734
▁deficit	-735
-7	-736
IR	-737
av	-738
ORP	-739
for	-740
tain	-741
▁cap	-742
▁iss	-743
▁decl	-744
▁estim	-745
▁growth	-746
▁foreign	-747
cer	-748
▁22	-749
▁co	-750
▁pl	-751
mand	-752
ning	-753
▁due	-754
▁ter	-755
ident	-756
rough	-757
ruary	-758
▁NOTE	-759
▁prov	-760
isition	-761
▁central	-762
▁sources	-763
,1	-764
ks	-765
pt	-766
ach	-767
ced	-768
hem	-769
put	-770
▁sur	-771
▁lead	-772
▁added	-773
▁inter	-774
holders	-775
▁record	-776
▁February	-777
,4	-778
LE	-779
co	-780
erg	-781
ice	-782
ued	-783
▁Ex	-784
▁Th	-785
▁do	-786
ince	-787
reed	-788
ween	-789
▁days	-790
▁when	-791
00,000	-792
alysts	-793
▁Group	-794
▁Paris	-795
▁United	-796
▁agreed	-797
▁commun	-798
▁between	-799
▁reported	-800
▁spokesman	-801
SS	-802
int	-803
▁gu	-804
abil	-805
ined	-806
▁reg	-807
▁Trad	-808
▁only	-809
▁short	-810
▁dividend	-811
POR	-812
hed	-813
son	-814
▁27	-815
▁SAY	-816
▁rem	-817
▁cons	-818
▁debt	-819
▁1986.	-820
▁Europ	-821
hemical	-822
▁recent	-823
TH	-824
rib	-825
▁SE	-826
▁pa	-827
fore	-828
mber	-829
▁bel	-830
▁down	-831
▁increase	-832
,6	-833
50	-834
RE	-835
que	-836
rit	-837
ason	-838
lier	-839
ranc	-840
▁Fed	-841
▁MAR	-842
▁own	-843
etary	-844
vious	-845
▁CORP	-846
▁clos	-847
▁crop	-848
▁hold	-849
ington	-850
▁polic	-851
▁countries	-852
▁acquisition	-853
oy	-854
▁OF	-855
▁if	-856
ital	-857
rial	-858
▁Mon	-859
▁ref	-860
ative	-861
meric	-862
resent	-863
▁Americ	-864
▁propos	-865
ecurities	-866
,2	-867
,8	-868
▁24	-869
ised	-870
▁FOR	-871
▁Fin	-872
▁str	-873
▁gain	-874
▁main	-875
▁tend	-876
▁time	-877
▁board	-878
▁there	-879
IV	-880
get	-881
▁23	-882
▁Av	-883
▁EC	-884
▁fl	-885
ific	-886
land	-887
▁Pro	-888
▁des	-889
▁ste	-890
ollow	-891
▁group	-892
▁since	-893
▁years	-894
als	-895
ply	-896
ren	-897
▁am	-898
bank	-899
ique	-900
outh	-901
ract	-902
▁del	-903
▁lik	-904
▁lower	-905
▁money	-906
urchase	-907
▁accord	-908
▁before	-909
▁export	-910
▁should	-911
▁imports	-912
,0	-913
xt	-914
owe	-915
ubl	-916
▁EX	-917
ired	-918
▁Avg	-919
▁bar	-920
▁SAYS	-921
▁next	-922
▁rose	-923
▁sign	-924
ricult	-925
▁world	-926
▁Indust	-927
▁demand	-928
▁months	-929
▁trading	-930
▁previous	-931
▁shareholders	-932
▁International	-933
EB	-934
MP	-935
eh	-936
sp	-937
END	-938
iod	-939
isc	-940
ish	-941
ose	-942
ron	-943
ted	-944
▁LO	-945
▁UN	-946
ales	-947
oint	-948
ward	-949
▁may	-950
▁sug	-951
roved	-952
▁made	-953
▁shrs	-954
▁spec	-955
ancial	-956
▁1986,	-957
▁franc	-958
▁guild	-959
▁States	-960
▁policy	-961
resident	-962
▁chairman	-963
▁communique	-964
▁production	-965
We	-966
cess	-967
▁any	-968
▁can	-969
▁neg	-970
▁now	-971
▁tal	-972
▁They	-973
▁fund	-974
▁prog	-975
owever	-976
▁seven	-977
▁follow	-978
▁period	-979
▁tender	-980
▁Minister	-981
▁analysts	-982
▁compared	-983
,7	-984
ANC	-985
ATE	-986
ady	-987
ets	-988
une	-989
ject	-990
ting	-991
▁CTS	-992
▁dlr	-993
▁dom	-994
istry	-995
ribut	-996
▁Bund	-997
▁Reut	-998
▁infl	-999
▁sale	-1000
ctions	-1001
▁result	-1002
▁dealers	-1003
▁earlier	-1004
▁industrial	-1005
,9	-1006
>,	-1007
AD	-1008
LR	-1009
ERS	-1010
ech	-1011
ens	-1012
ide	-1013
ied	-1014
ize	-1015
urn	-1016
vel	-1017
▁25	-1018
▁An	-1019
▁Sp	-1020
rans	-1021
▁DLR	-1022
▁tax	-1023
▁val	-1024
eneral	-1025
▁South	-1026
▁compl	-1027
▁prior	-1028
▁reven	-1029
▁still	-1030
▁stabil	-1031
▁capital	-1032
▁economy	-1033
▁exports	-1034
▁traders	-1035
riculture	-1036
▁National	-1037
▁investment	-1038
UST	-1039
gan	-1040
iff	-1041
rol	-1042
▁go	-1043
ounc	-1044
ults	-1045
▁ind	-1046
▁ord	-1047
▁six	-1048
estic	-1049
irect	-1050
▁June	-1051
▁four	-1052
▁loan	-1053
▁rise	-1054
ustral	-1055
▁banks	-1056
▁import	-1057
▁account	-1058
▁American	-1059
▁including	-1060
mb	-1061
ANK	-1062
IES	-1063
ium	-1064
oci	-1065
▁BU	-1066
just	-1067
▁Con	-1068
▁dep	-1069
▁ext	-1070
▁pos	-1071
▁set	-1072
6,000	-1073
▁high	-1074
▁long	-1075
▁sell	-1076
esbank	-1077
▁offer	-1078
▁sugar	-1079
▁talks	-1080
▁trans	-1081
▁wheat	-1082
▁while	-1083
▁Canada	-1084
▁annual	-1085
▁common	-1086
▁effect	-1087
▁proble	-1088
▁subsid	-1089
▁Austral	-1090
▁profits	-1091
▁through	-1092
▁guilders	-1093
▁Bundesbank	-1094
ov	-1095
anu	-1096
iel	-1097
one	-1098
oth	-1099
ull	-1100
▁50	-1101
▁AC	-1102
▁us	-1103
plus	-1104
▁hig	-1105
udget	-1106
▁aver	-1107
▁conf	-1108
▁move	-1109
▁requ	-1110
▁work	-1111
▁devel	-1112
▁levels	-1113
▁Reuters	-1114
▁surplus	-1115
▁European	-1116
▁domestic	-1117
▁estimated	-1118
▁operations	-1119
),	-1120
OM	-1121
ai	-1122
og	-1123
ned	-1124
oti	-1125
ram	-1126
▁26	-1127
▁En	-1128
ield	-1129
ions	-1130
▁Dep	-1131
▁Res	-1132
▁bas	-1133
▁ent	-1134
▁gas	-1135
arget	-1136
▁cred	-1137
▁publ	-1138
▁negoti	-1139
▁strong	-1140
▁minister	-1141
▁officials	-1142
▁Agriculture	-1143
AP	-1144
IA	-1145
▁Z	-1146
ory	-1147
ret	-1148
uch	-1149
▁PL	-1150
▁Pl	-1151
▁sl	-1152
▁100	-1153
▁Pay	-1154
▁did	-1155
▁far	-1156
▁larg	-1157
▁need	-1158
ission	-1159
artment	-1160
▁adjust	-1161
▁discus	-1162
▁higher	-1163
▁likely	-1164
▁supply	-1165
▁target	-1166
▁develop	-1167
▁results	-1168
AB	-1169
AC	-1170
DE	-1171
OW	-1172
lo	-1173
.50	-1174
ace	-1175
alf	-1176
the	-1177
▁35	-1178
▁Qt	-1179
▁SU	-1180
arge	-1181
ossi	-1182
▁FEB	-1183
▁PRO	-1184
▁Rec	-1185
▁act	-1186
▁equ	-1187
2,000	-1188
ondon	-1189
▁Brit	-1190
▁MARK	-1191
▁fell	-1192
▁good	-1193
▁here	-1194
anuary	-1195
▁possi	-1196
▁range	-1197
▁start	-1198
▁London	-1199
▁Germany	-1200
▁includes	-1201
▁industry	-1202
▁monetary	-1203
QU	-1204
me	-1205
UAR	-1206
ehl	-1207
ery	-1208
min	-1209
omm	-1210
row	-1211
▁--	-1212
▁60	-1213
▁ar	-1214
erve	-1215
oehl	-1216
▁Bra	-1217
▁New	-1218
9,000	-1219
irmed	-1220
ittee	-1221
spect	-1222
▁Wash	-1223
▁show	-1224
ending	-1225
▁Sales	-1226
▁press	-1227
vention	-1228
▁Record	-1229
▁budget	-1230
▁direct	-1231
▁reduce	-1232
▁remain	-1233
........	-1234
▁expects	-1235
▁financial	-1236
▁Washington	-1237
▁currencies	-1238
-3	-1239
AK	-1240
GE	-1241
IG	-1242
LN	-1243
az	-1244
aff	-1245
ged	-1246
ise	-1247
oun	-1248
▁40	-1249
▁ON	-1250
▁sc	-1251
ence	-1252
ices	-1253
ular	-1254
▁1.1	-1255
▁MLN	-1256
▁fig	-1257
▁fut	-1258
ATION	-1259
ought	-1260
ystem	-1261
▁DLRS	-1262
▁Year	-1263
▁call	-1264
▁cost	-1265
▁fall	-1266
▁serv	-1267
lement	-1268
▁Trade	-1269
▁concer	-1270
▁chemical	-1271
▁position	-1272
▁Commission	-1273
▁securities	-1274
80	-1275
UM	-1276
ETS	-1277
rel	-1278
zil	-1279
▁46	-1280
▁AG	-1281
▁CH	-1282
▁US	-1283
ally	-1284
ploy	-1285
ural	-1286
▁Plc	-1287
▁det	-1288
▁giv	-1289
4,000	-1290
anged	-1291
anges	-1292
ather	-1293
▁prot	-1294
▁such	-1295
▁well	-1296
▁Brazil	-1297
▁output	-1298
▁January	-1299
▁subsidi	-1300
▁ministers	-1301
/1	-1302
KS	-1303
LY	-1304
UN	-1305
US	-1306
ck	-1307
▁0	-1308
/87	-1309
ILL	-1310
ept	-1311
ick	-1312
ina	-1313
ked	-1314
lit	-1315
▁21	-1316
,500	-1317
▁1.0	-1318
▁Ass	-1319
▁TRA	-1320
▁ago	-1321
▁bro	-1322
▁cer	-1323
▁def	-1324
▁lim	-1325
▁rel	-1326
3,000	-1327
iscal	-1328
▁Dece	-1329
▁Qtly	-1330
▁SEES	-1331
▁ship	-1332
▁expan	-1333
▁francs	-1334
▁Finance	-1335
▁complet	-1336
▁support	-1337
▁December	-1338
▁revenues	-1339
▁companies	-1340
/4	-1341
su	-1342
ext	-1343
tax	-1344
▁38	-1345
▁52	-1346
▁SA	-1347
▁SP	-1348
▁vi	-1349
PORT	-1350
ases	-1351
cept	-1352
oper	-1353
pany	-1354
pite	-1355
ruct	-1356
rust	-1357
▁DIV	-1358
▁Hou	-1359
▁Lou	-1360
▁MON	-1361
▁cor	-1362
▁nam	-1363
ached	-1364
stand	-1365
ually	-1366
▁Ital	-1367
▁Oper	-1368
▁half	-1369
▁resp	-1370
▁1985.	-1371
▁being	-1372
▁split	-1373
▁during	-1374
▁fiscal	-1375
▁public	-1376
▁stocks	-1377
▁1986/87	-1378
▁largest	-1379
▁nations	-1380
▁reflect	-1381
▁Canadian	-1382
▁acquired	-1383
▁Industries	-1384
▁intervention	-1385
.,	-1386
98	-1387
VER	-1388
ful	-1389
ics	-1390
iev	-1391
ipp	-1392
▁42	-1393
ares	-1394
echn	-1395
iver	-1396
ized	-1397
term	-1398
▁1.2	-1399
▁1.3	-1400
▁AND	-1401
▁aff	-1402
▁aut	-1403
▁non	-1404
▁ret	-1405
7,000	-1406
ected	-1407
other	-1408
▁dist	-1409
▁just	-1410
▁most	-1411
▁nine	-1412
▁rece	-1413
▁sect	-1414
▁unit	-1415
▁1987,	-1416
▁allow	-1417
▁ended	-1418
▁grain	-1419
▁issue	-1420
▁change	-1421
▁consid	-1422
▁season	-1423
▁specul	-1424
▁Federal	-1425
▁addition	-1426
▁purchase	-1427
oh	-1428
AIN	-1429
iss	-1430
ork	-1431
vre	-1432
▁Al	-1433
▁PR	-1434
▁fe	-1435
▁sm	-1436
MENT	-1437
cast	-1438
cers	-1439
ergy	-1440
ided	-1441
ines	-1442
orth	-1443
rove	-1444
▁And	-1445
▁hel	-1446
▁sec	-1447
▁war	-1448
▁who	-1449
erves	-1450
inary	-1451
ively	-1452
orrow	-1453
▁BANK	-1454
▁LOSS	-1455
▁cash	-1456
▁init	-1457
▁much	-1458
▁near	-1459
▁pact	-1460
▁past	-1461
▁weak	-1462
isions	-1463
▁Seven	-1464
▁boost	-1465
▁close	-1466
▁noted	-1467
▁terms	-1468
▁value	-1469
▁Louvre	-1470
▁within	-1471
▁average	-1472
▁certain	-1473
▁comment	-1474
▁reserves	-1475
▁operating	-1476
▁businesses	-1477
90	-1478
BB	-1479
IM	-1480
uf	-1481
.75	-1482
ALL	-1483
AND	-1484
TON	-1485
bal	-1486
ins	-1487
les	-1488
lth	-1489
ths	-1490
▁Ar	-1491
▁DE	-1492
▁PC	-1493
▁em	-1494
duct	-1495
ious	-1496
ters	-1497
▁BUY	-1498
▁IND	-1499
▁har	-1500
▁our	-1501
▁put	-1502
8,000	-1503
IDEND	-1504
▁help	-1505
▁liqu	-1506
▁look	-1507
▁meas	-1508
▁priv	-1509
▁sold	-1510
action	-1511
▁1987.	-1512
▁early	-1513
▁reaff	-1514
▁weeks	-1515
lthough	-1516
▁barrel	-1517
▁credit	-1518
▁losses	-1519
▁partic	-1520
standing	-1521
▁bankers	-1522
▁despite	-1523
▁whether	-1524
▁DIVIDEND	-1525
▁Exchange	-1526
▁problems	-1527
▁inflation	-1528
▁Department	-1529
/2	-1530
>.	-1531
AM	-1532
CO	-1533
ah	-1534
ci	-1535
ft	-1536
.00	-1537
ELL	-1538
ass	-1539
ley	-1540
ume	-1541
▁29	-1542
▁32	-1543
▁At	-1544
▁On	-1545
▁av	-1546
APAN	-1547
USTR	-1548
ecut	-1549
ived	-1550
ober	-1551
omin	-1552
ones	-1553
ower	-1554
vers	-1555
▁1.8	-1556
▁31,	-1557
▁FIR	-1558
▁Mor	-1559
▁SHR	-1560
▁car	-1561
▁mod	-1562
▁num	-1563
▁tre	-1564
ances	-1565
ariff	-1566
ights	-1567
ility	-1568
stant	-1569
ubber	-1570
veral	-1571
▁ACQU	-1572
▁QUAR	-1573
▁This	-1574
▁cond	-1575
▁each	-1576
▁less	-1577
▁merg	-1578
▁paid	-1579
▁later	-1580
▁plant	-1581
changed	-1582
▁bought	-1583
▁income	-1584
▁number	-1585
▁Company	-1586
▁QUARTER	-1587
▁however	-1588
▁adjusted	-1589
▁proposed	-1590
▁restruct	-1591
▁subsidiary	-1592
AX	-1593
io	-1594
sh	-1595
to	-1596
ug	-1597
IAL	-1598
IST	-1599
OND	-1600
alm	-1601
hor	-1602
ink	-1603
led	-1604
rat	-1605
▁IM	-1606
▁VS	-1607
▁cr	-1608
▁ob	-1609
▁pr	-1610
ably	-1611
adly	-1612
clud	-1613
ners	-1614
ness	-1615
olog	-1616
▁Bur	-1617
▁GRO	-1618
▁met	-1619
ately	-1620
losed	-1621
mbers	-1622
ready	-1623
rench	-1624
▁UNIT	-1625
▁full	-1626
▁hect	-1627
▁held	-1628
▁mths	-1629
ariffs	-1630
▁JAPAN	-1631
▁TRADE	-1632
▁basis	-1633
▁owned	-1634
▁steel	-1635
▁tonne	-1636
▁French	-1637
▁author	-1638
▁buying	-1639
▁issued	-1640
ications	-1641
▁already	-1642
▁country	-1643
▁decline	-1644
▁include	-1645
▁members	-1646
▁present	-1647
▁reached	-1648
▁approved	-1649
▁contract	-1650
▁substant	-1651
▁condition	-1652
▁increased	-1653
▁unchanged	-1654
▁outstanding	-1655
EY	-1656
HE	-1657
IF	-1658
LD	-1659
cc	-1660
ty	-1661
FIT	-1662
IGH	-1663
OUT	-1664
ait	-1665
ird	-1666
nce	-1667
sur	-1668
▁70	-1669
▁Ec	-1670
▁Sw	-1671
▁cl	-1672
ails	-1673
ffee	-1674
ieve	-1675
imum	-1676
ling	-1677
ound	-1678
ston	-1679
▁FED	-1680
▁NIL	-1681
▁OFF	-1682
▁bid	-1683
▁fac	-1684
▁loc	-1685
▁tel	-1686
▁too	-1687
▁vol	-1688
ality	-1689
ament	-1690
asing	-1691
ended	-1692
ering	-1693
ional	-1694
▁back	-1695
▁drop	-1696
▁head	-1697
▁them	-1698
▁what	-1699
atural	-1700
ection	-1701
mation	-1702
▁China	-1703
▁manag	-1704
▁plans	-1705
isation	-1706
▁MARKET	-1707
▁cooper	-1708
▁second	-1709
▁Reserve	-1710
▁another	-1711
▁concern	-1712
▁control	-1713
▁discuss	-1714
▁initial	-1715
▁several	-1716
▁continue	-1717
▁forecast	-1718
▁ministry	-1719
▁Australia	-1720
▁fundament	-1721
▁president	-1722
▁substantial	-1723
▁restructuring	-1724
DA	-1725
MC	-1726
OC	-1727
hy	-1728
iy	-1729
oa	-1730
qt	-1731
IAN	-1732
ans	-1733
ene	-1734
erc	-1735
ert	-1736
iam	-1737
uel	-1738
ump	-1739
▁33	-1740
▁34	-1741
▁54	-1742
▁68	-1743
▁VW	-1744
▁pe	-1745
▁qt	-1746
-1/2	-1747
ator	-1748
ceed	-1749
etro	-1750
ffic	-1751
ives	-1752
mark	-1753
rand	-1754
▁Div	-1755
▁pes	-1756
▁shr	-1757
1,000	-1758
arent	-1759
itive	-1760
rance	-1761
▁SHAR	-1762
▁both	-1763
▁firm	-1764
▁gold	-1765
▁quot	-1766
▁real	-1767
▁shar	-1768
▁used	-1769
▁very	-1770
ension	-1771
ouncil	-1772
▁INTER	-1773
▁above	-1774
▁given	-1775
▁maize	-1776
▁suppl	-1777
▁those	-1778
▁where	-1779
▁France	-1780
▁assets	-1781
▁called	-1782
▁compet	-1783
▁employ	-1784
▁intent	-1785
▁making	-1786
▁merger	-1787
▁rights	-1788
▁sector	-1789
▁system	-1790
ociation	-1791
▁Britain	-1792
▁deliver	-1793
▁general	-1794
▁improve	-1795
▁leading	-1796
▁program	-1797
▁Ministry	-1798
▁although	-1799
▁declined	-1800
▁improved	-1801
▁recently	-1802
▁signific	-1803
▁takeover	-1804
▁continued	-1805
▁reduction	-1806
▁represent	-1807
70	-1808
75	-1809
EW	-1810
cy	-1811
ef	-1812
EAR	-1813
INE	-1814
OLD	-1815
ORD	-1816
ken	-1817
ohn	-1818
uly	-1819
▁49	-1820
▁el	-1821
▁ra	-1822
INGS	-1823
ISES	-1824
RAIN	-1825
ency	-1826
ocoa	-1827
olid	-1828
uing	-1829
▁145	-1830
▁30,	-1831
▁Dat	-1832
▁TAL	-1833
▁beg	-1834
▁gre	-1835
▁qtr	-1836
▁reb	-1837
▁saw	-1838
▁see	-1839
▁ser	-1840
ained	-1841
ators	-1842
ccess	-1843
ember	-1844
ieved	-1845
▁same	-1846
▁turn	-1847
▁view	-1848
erence	-1849
ressed	-1850
▁FIRST	-1851
▁asked	-1852
▁PROFIT	-1853
▁REPORT	-1854
▁adding	-1855
▁coffee	-1856
▁consum	-1857
▁execut	-1858
▁expand	-1859
▁liquid	-1860
echnolog	-1861
▁futures	-1862
▁harvest	-1863
▁decision	-1864
▁possible	-1865
▁producer	-1866
▁services	-1867
▁Committee	-1868
▁following	-1869
▁producers	-1870
▁previously	-1871
▁reaffirmed	-1872
▁repurchase	-1873
▁negotiations	-1874
▁international	-1875
-2	-1876
30	-1877
96	-1878
BO	-1879
ob	-1880
yb	-1881
LAR	-1882
PEC	-1883
ave	-1884
awa	-1885
ier	-1886
inc	-1887
key	-1888
▁45	-1889
▁58	-1890
▁65	-1891
▁IT	-1892
▁ME	-1893
ATES	-1894
aily	-1895
aker	-1896
ison	-1897
istr	-1898
ists	-1899
iyaz	-1900
medi	-1901
▁1.5	-1902
▁Med	-1903
▁Oct	-1904
▁Sum	-1905
▁bre	-1906
▁fav	-1907
▁few	-1908
▁mov	-1909
▁sem	-1910
▁tom	-1911
PORTS	-1912
acity	-1913
based	-1914
ufact	-1915
verse	-1916
▁5.00	-1917
▁Dist	-1918
▁John	-1919
▁July	-1920
▁Kore	-1921
▁Part	-1922
▁USDA	-1923
▁York	-1924
▁area	-1925
▁date	-1926
▁inst	-1927
▁pers	-1928
▁prob	-1929
▁term	-1930
▁want	-1931
extile	-1932
itical	-1933
ounced	-1934
retary	-1935
uation	-1936
▁Curre	-1937
▁Miyaz	-1938
▁Spain	-1939
▁avail	-1940
▁below	-1941
▁large	-1942
▁order	-1943
▁stake	-1944
agement	-1945
ecurity	-1946
lectric	-1947
▁better	-1948
▁ending	-1949
▁impact	-1950
▁reason	-1951
▁respon	-1952
▁rising	-1953
▁saying	-1954
▁taking	-1955
▁However	-1956
▁Indones	-1957
▁barrels	-1958
▁finance	-1959
▁prevent	-1960
▁reduced	-1961
▁require	-1962
▁Miyazawa	-1963
▁capacity	-1964
▁hectares	-1965
▁manufact	-1966
▁measures	-1967
▁payments	-1968
▁received	-1969
▁President	-1970
▁distribut	-1971
▁Securities	-1972
▁particular	-1973
▁significant	-1974
EG	-1975
UP	-1976
.25	-1977
AST	-1978
OUR	-1979
REE	-1980
com	-1981
eep	-1982
ior	-1983
orm	-1984
ote	-1985
ude	-1986
ury	-1987
way	-1988
▁(1	-1989
▁37	-1990
▁47	-1991
▁62	-1992
▁73	-1993
▁Cl	-1994
▁Ed	-1995
▁Ku	-1996
cted	-1997
ople	-1998
reci	-1999
side	-2000
▁2.4	-2001
▁CON	-2002
▁Met	-2003
▁UAL	-2004
▁bal	-2005
▁fed	-2006
▁his	-2007
▁let	-2008
▁mat	-2009
▁med	-2010
▁use	-2011
alays	-2012
ittle	-2013
ounts	-2014
▁1988	-2015
▁Fund	-2016
▁PRIC	-2017
▁Sept	-2018
▁Wall	-2019
▁Will	-2020
▁cuts	-2021
▁grad	-2022
▁palm	-2023
ineken	-2024
oehler	-2025
orters	-2026
▁1985,	-2027
▁House	-2028
▁Trust	-2029
▁activ	-2030
▁eight	-2031
▁funds	-2032
▁imbal	-2033
▁pesos	-2034
▁quest	-2035
▁small	-2036
lington	-2037
surance	-2038
▁action	-2039
▁dealer	-2040
▁little	-2041
▁needed	-2042
▁rubber	-2043
ecretary	-2044
▁General	-2045
▁INDUSTR	-2046
▁Koehler	-2047
▁October	-2048
▁details	-2049
▁figures	-2050
▁natural	-2051
▁planned	-2052
▁subject	-2053
▁tariffs	-2054
▁Heineken	-2055
▁Monetary	-2056
▁director	-2057
▁maintain	-2058
▁partners	-2059
▁spending	-2060
▁Agreement	-2061
▁announced	-2062
▁implement	-2063
▁stability	-2064
▁Australian	-2065
▁development	-2066
▁fundamentals	-2067
64	-2068
CP	-2069
MS	-2070
RD	-2071
yo	-2072
/16	-2073
ERM	-2074
EST	-2075
ITY	-2076
ify	-2077
ler	-2078
omo	-2079
reg	-2080
rup	-2081
tin	-2082
▁(2	-2083
▁72	-2084
▁78	-2085
▁BY	-2086
▁bl	-2087
▁kn	-2088
▁la	-2089
▁po	-2090
ATOR	-2091
ISIT	-2092
cing	-2093
hing	-2094
ials	-2095
oard	-2096
okyo	-2097
omat	-2098
ourt	-2099
reng	-2100
▁2.2	-2101
▁CAN	-2102
▁For	-2103
▁Oil	-2104
▁PAR	-2105
▁San	-2106
▁Sch	-2107
▁bag	-2108
▁cre	-2109
▁dil	-2110
▁mer	-2111
▁mor	-2112
▁nil	-2113
▁she	-2114
▁tak	-2115
▁top	-2116
arket	-2117
atest	-2118
beral	-2119
ified	-2120
itomo	-2121
unity	-2122
▁Cong	-2123
▁Some	-2124
▁conc	-2125
▁diff	-2126
▁does	-2127
▁farm	-2128
▁line	-2129
▁make	-2130
▁name	-2131
▁port	-2132
▁prep	-2133
ential	-2134
▁GRAIN	-2135
▁Poehl	-2136
▁Swiss	-2137
▁TALKS	-2138
▁Tokyo	-2139
▁begin	-2140
▁cocoa	-2141
▁depos	-2142
▁exist	-2143
▁going	-2144
▁goods	-2145
▁joint	-2146
▁place	-2147
▁these	-2148
▁think	-2149
ominion	-2150
▁Econom	-2151
▁Malays	-2152
▁amount	-2153
▁expens	-2154
▁immedi	-2155
▁mainly	-2156
▁people	-2157
▁pretax	-2158
▁recomm	-2159
▁warran	-2160
▁Distill	-2161
▁believe	-2162
▁broadly	-2163
▁morning	-2164
▁payable	-2165
▁quality	-2166
▁ACQUISIT	-2167
▁Chairman	-2168
▁Congress	-2169
▁delivery	-2170
▁proposal	-2171
▁prospect	-2172
▁tomorrow	-2173
▁Secretary	-2174
▁available	-2175
▁important	-2176
▁liquidity	-2177
▁marketing	-2178
▁Burlington	-2179
▁continuing	-2180
▁management	-2181
▁Association	-2182
▁transaction	-2183
35	-2184
CC	-2185
IP	-2186
OS	-2187
PT	-2188
RU	-2189
-10	-2190
AKE	-2191
GAR	-2192
PER	-2193
app	-2194
aus	-2195
eed	-2196
eps	-2197
fer	-2198
hys	-2199
ief	-2200
lev	-2201
mes	-2202
olt	-2203
set	-2204
tic	-2205
urg	-2206
▁48	-2207
▁51	-2208
▁66	-2209
▁67	-2210
▁AT	-2211
▁FR	-2212
▁Fr	-2213
▁Ph	-2214
▁Pu	-2215
▁Wh	-2216
TION	-2217
ateg	-2218
ears	-2219
ense	-2220
icon	-2221
imul	-2222
lear	-2223
look	-2224
ring	-2225
▁1.4	-2226
▁Arm	-2227
▁BRA	-2228
▁COM	-2229
▁Col	-2230
▁Eng	-2231
▁Har	-2232
▁Haw	-2233
▁MAY	-2234
▁PCT	-2235
▁SMC	-2236
▁She	-2237
▁Vol	-2238
▁adv	-2239
▁big	-2240
▁fil	-2241
▁get	-2242
▁hop	-2243
▁kil	-2244
▁law	-2245
▁leg	-2246
▁lif	-2247
▁mid	-2248
▁pur	-2249
▁rev	-2250
▁wel	-2251
akers	-2252
asury	-2253
range	-2254
ybean	-2255
▁COMP	-2256
▁Iran	-2257
▁Last	-2258
▁RATE	-2259
▁Serv	-2260
▁bene	-2261
▁fact	-2262
▁free	-2263
▁keep	-2264
▁seek	-2265
erated	-2266
istent	-2267
▁Korea	-2268
▁North	-2269
▁Purol	-2270
▁SUGAR	-2271
▁began	-2272
▁bills	-2273
▁build	-2274
▁chief	-2275
▁indic	-2276
▁loans	-2277
▁local	-2278
▁mater	-2279
▁might	-2280
▁paper	-2281
▁purch	-2282
▁steps	-2283
▁yield	-2284
ilities	-2285
▁Europe	-2286
▁charge	-2287
▁excess	-2288
▁exclud	-2289
▁figure	-2290
▁letter	-2291
▁member	-2292
▁possib	-2293
▁stimul	-2294
▁streng	-2295
iconduct	-2296
▁Council	-2297
▁Italian	-2298
▁federal	-2299
▁growing	-2300
▁soybean	-2301
echnology	-2302
▁Dominion	-2303
▁Sumitomo	-2304
▁probably	-2305
▁Purolator	-2306
▁September	-2307
▁effective	-2308
▁political	-2309
▁conditions	-2310
▁provisions	-2311
▁semiconduct	-2312
▁particularly	-2313
).	-2314
31	-2315
EE	-2316
PA	-2317
PL	-2318
Th	-2319
UL	-2320
eg	-2321
ih	-2322
ARD	-2323
ITH	-2324
NES	-2325
OME	-2326
PRO	-2327
ald	-2328
emp	-2329
irt	-2330
mon	-2331
raw	-2332
til	-2333
▁41	-2334
▁61	-2335
▁Lo	-2336
▁So	-2337
▁UP	-2338
EGON	-2339
They	-2340
aced	-2341
alth	-2342
berg	-2343
emoc	-2344
ened	-2345
gest	-2346
itut	-2347
orld	-2348
view	-2349
▁1.7	-2350
▁2,4	-2351
▁2.9	-2352
▁480	-2353
▁Law	-2354
▁MAT	-2355
▁MIN	-2356
▁NEW	-2357
▁Sen	-2358
▁Ste	-2359
▁agg	-2360
▁cou	-2361
▁dam	-2362
▁fix	-2363
▁occ	-2364
▁par	-2365
▁red	-2366
▁rul	-2367
▁sus	-2368
▁yet	-2369
alers	-2370
elman	-2371
▁Ecus	-2372
▁Nine	-2373
▁SETS	-2374
▁WITH	-2375
▁food	-2376
▁form	-2377
▁give	-2378
▁hard	-2379
▁late	-2380
▁pace	-2381
▁spir	-2382
▁stor	-2383
▁test	-2384
▁virt	-2385
ession	-2386
▁AEGON	-2387
▁Board	-2388
▁Democ	-2389
▁GROUP	-2390
▁Italy	-2391
▁appro	-2392
▁costs	-2393
▁crops	-2394
▁field	-2395
▁firms	-2396
▁limit	-2397
▁power	-2398
▁withd	-2399
eration	-2400
▁associ	-2401
▁commod	-2402
▁disput	-2403
▁disrup	-2404
▁earned	-2405
▁energy	-2406
▁enough	-2407
▁latest	-2408
▁opened	-2409
▁parent	-2410
▁ranges	-2411
▁rather	-2412
▁restri	-2413
▁slight	-2414
▁traded	-2415
▁volume	-2416
▁welcom	-2417
▁Dealers	-2418
▁William	-2419
▁banking	-2420
▁benefit	-2421
▁changes	-2422
▁outlook	-2423
▁private	-2424
▁problem	-2425
▁weather	-2426
▁Democrat	-2427
▁Economic	-2428
▁division	-2429
▁expenses	-2430
▁ordinary	-2431
▁question	-2432
▁Indonesia	-2433
▁executive	-2434
▁investors	-2435
▁Distillers	-2436
▁consistent	-2437
▁discussion	-2438
▁increasing	-2439
▁ACQUISITION	-2440
▁cooperation	-2441
▁acquisitions	-2442
25	-2443
65	-2444
91	-2445
95	-2446
AG	-2447
AI	-2448
FF	-2449
It	-2450
ME	-2451
OB	-2452
SW	-2453
TZ	-2454
au	-2455
go	-2456
pd	-2457
ss	-2458
te	-2459
wh	-2460
xm	-2461
...	-2462
5.9	-2463
ANG	-2464
ERG	-2465
ITI	-2466
ORT	-2467
SON	-2468
ZIL	-2469
acc	-2470
ana	-2471
arm	-2472
eph	-2473
ham	-2474
hip	-2475
raq	-2476
urt	-2477
ved	-2478
▁39	-2479
▁59	-2480
▁64	-2481
▁69	-2482
▁80	-2483
▁90	-2484
▁Ab	-2485
▁EN	-2486
▁Li	-2487
▁NO	-2488
▁Sa	-2489
▁tr	-2490
-198	-2491
ABLE	-2492
UTER	-2493
ants	-2494
head	-2495
hedu	-2496
less	-2497
osed	-2498
pped	-2499
reat	-2500
sure	-2501
year	-2502
▁300	-2503
▁5.8	-2504
▁ABB	-2505
▁Ear	-2506
▁FIN	-2507
▁Han	-2508
▁IMF	-2509
▁Lex	-2510
▁RES	-2511
▁SAL	-2512
▁STE	-2513
▁ach	-2514
▁don	-2515
▁dou	-2516
▁raw	-2517
▁sit	-2518
ENDER	-2519
There	-2520
URITY	-2521
ecess	-2522
lined	-2523
olten	-2524
rying	-2525
ustom	-2526
xmire	-2527
▁Dome	-2528
▁Hold	-2529
▁PLAN	-2530
▁SELL	-2531
▁band	-2532
▁fail	-2533
▁hand	-2534
▁laun	-2535
▁must	-2536
▁pack	-2537
▁pred	-2538
▁seen	-2539
▁sees	-2540
▁susp	-2541
▁sust	-2542
estern	-2543
▁CANAD	-2544
▁MARCH	-2545
▁MONEY	-2546
▁Offic	-2547
▁SHARE	-2548
▁There	-2549
▁based	-2550
▁crude	-2551
▁gains	-2552
▁least	-2553
▁named	-2554
▁petro	-2555
▁ports	-2556
▁reach	-2557
▁right	-2558
▁third	-2559
▁trend	-2560
▁until	-2561
ministr	-2562
▁BRAZIL	-2563
▁Datron	-2564
▁Energy	-2565
▁Morgan	-2566
▁TENDER	-2567
▁approv	-2568
▁become	-2569
▁disapp	-2570
▁future	-2571
▁nearly	-2572
▁offset	-2573
▁plants	-2574
▁showed	-2575
▁steady	-2576
▁undisc	-2577
▁Stolten	-2578
▁inspect	-2579
▁offered	-2580
▁spirits	-2581
formation	-2582
▁Analysts	-2583
▁Chemical	-2584
▁Electric	-2585
▁Proxmire	-2586
▁affected	-2587
▁believed	-2588
▁building	-2589
▁discount	-2590
▁existing	-2591
▁interven	-2592
▁meetings	-2593
▁pressure	-2594
▁response	-2595
▁welcomed	-2596
▁Community	-2597
▁estimates	-2598
▁interests	-2599
▁operators	-2600
▁situation	-2601
▁strengthe	-2602
▁INDUSTRIES	-2603
▁agreements	-2604
▁protection	-2605
............	-2606
▁Stoltenberg	-2607
▁speculation	-2608
▁undisclosed	-2609
▁distribution	-2610
34	-2611
60	-2612
AW	-2613
EM	-2614
bo	-2615
pa	-2616
.65	-2617
/86	-2618
ATT	-2619
FIC	-2620
ISE	-2621
ITE	-2622
RAN	-2623
UND	-2624
ale	-2625
ame	-2626
ata	-2627
ato	-2628
ees	-2629
els	-2630
hen	-2631
las	-2632
lik	-2633
off	-2634
ott	-2635
rod	-2636
rys	-2637
urb	-2638
▁53	-2639
▁55	-2640
▁74	-2641
▁84	-2642
▁AM	-2643
▁Ad	-2644
▁Ly	-2645
▁Me	-2646
▁Pa	-2647
▁TH	-2648
▁To	-2649
▁mt	-2650
▁wr	-2651
ANCE	-2652
ERAL	-2653
OVER	-2654
agan	-2655
ault	-2656
empt	-2657
ends	-2658
exas	-2659
here	-2660
hern	-2661
ible	-2662
ient	-2663
ilar	-2664
imon	-2665
ipel	-2666
ires	-2667
rate	-2668
ving	-2669
wait	-2670
▁130	-2671
▁3,3	-2672
▁Aug	-2673
▁Bro	-2674
▁DOL	-2675
▁Don	-2676
▁INS	-2677
▁MPT	-2678
▁Man	-2679
▁OIL	-2680
▁Rep	-2681
▁SEC	-2682
▁TON	-2683
▁cal	-2684
▁dri	-2685
▁pot	-2686
▁sim	-2687
▁sum	-2688
▁var	-2689
▁way	-2690
anese	-2691
ental	-2692
fully	-2693
igned	-2694
orate	-2695
ports	-2696
rands	-2697
wards	-2698
▁Cons	-2699
▁DIST	-2700
▁Hong	-2701
▁Iraq	-2702
▁Kong	-2703
▁SEEN	-2704
▁YEAR	-2705
▁able	-2706
▁beef	-2707
▁bond	-2708
▁brok	-2709
▁comb	-2710
▁conn	-2711
▁corn	-2712
▁data	-2713
▁ever	-2714
▁marg	-2715
▁prom	-2716
▁rain	-2717
▁repl	-2718
▁sent	-2719
▁soon	-2720
▁sown	-2721
▁vent	-2722
ipment	-2723
rysler	-2724
urning	-2725
▁Atlas	-2726
▁Baker	-2727
▁OFFER	-2728
▁RATES	-2729
▁Share	-2730
▁Stock	-2731
▁Texas	-2732
▁Union	-2733
▁World	-2734
▁ahead	-2735
▁among	-2736
▁areas	-2737
▁corre	-2738
▁dilut	-2739
▁elect	-2740
▁fixed	-2741
▁moves	-2742
▁notes	-2743
▁point	-2744
▁predi	-2745
▁taken	-2746
▁taxes	-2747
ATIONAL	-2748
actions	-2749
atively	-2750
hysical	-2751
istance	-2752
ization	-2753
▁Contin	-2754
▁DOLLAR	-2755
▁Govern	-2756
▁Market	-2757
▁Reagan	-2758
▁Senate	-2759
▁System	-2760
▁TONNES	-2761
▁accept	-2762
▁custom	-2763
▁former	-2764
▁medium	-2765
▁quoted	-2766
▁raised	-2767
▁remark	-2768
▁schedu	-2769
▁states	-2770
olidated	-2771
▁1985/86	-2772
▁Houston	-2773
▁acquire	-2774
▁balance	-2775
▁dispute	-2776
▁limited	-2777
▁minimum	-2778
▁produce	-2779
▁provide	-2780
▁revenue	-2781
▁seeking	-2782
▁selling	-2783
▁special	-2784
▁started	-2785
▁storage	-2786
▁strateg	-2787
▁textile	-2788
reciation	-2789
▁Chrysler	-2790
▁Malaysia	-2791
▁Williams	-2792
▁comments	-2793
▁national	-2794
▁outlined	-2795
▁progress	-2796
▁required	-2797
▁slightly	-2798
▁supplies	-2799
▁turnover	-2800
▁Financial	-2801
▁Southmark	-2802
▁completed	-2803
▁contribut	-2804
▁currently	-2805
▁employers	-2806
▁equipment	-2807
▁extension	-2808
▁increases	-2809
▁sharehold	-2810
▁shipments	-2811
▁additional	-2812
▁facilities	-2813
ministration	-2814
▁discussions	-2815
61	-2816
74	-2817
76	-2818
82	-2819
BE	-2820
DT	-2821
FA	-2822
In	-2823
MN	-2824
MT	-2825
OP	-2826
OY	-2827
RY	-2828
UC	-2829
UD	-2830
UE	-2831
ib	-2832
ACT	-2833
AGE	-2834
ARG	-2835
ESE	-2836
ETT	-2837
IER	-2838
LOW	-2839
ROM	-2840
aiw	-2841
att	-2842
bia	-2843
ger	-2844
iet	-2845
ind	-2846
lex	-2847
ney	-2848
not	-2849
uct	-2850
uen	-2851
ulf	-2852
wer	-2853
▁43	-2854
▁56	-2855
▁Af	-2856
▁BE	-2857
▁Im	-2858
▁Sm	-2859
▁WH	-2860
,350	-2861
-3/4	-2862
ANGE	-2863
HEAT	-2864
IGHT	-2865
This	-2866
anta	-2867
cker	-2868
come	-2869
epar	-2870
fall	-2871
ffer	-2872
iano	-2873
ichi	-2874
ides	-2875
inco	-2876
keye	-2877
mium	-2878
ocus	-2879
olve	-2880
omet	-2881
oura	-2882
rams	-2883
ried	-2884
roda	-2885
rodu	-2886
ured	-2887
viet	-2888
▁2,0	-2889
▁2.3	-2890
▁3.2	-2891
▁4.5	-2892
▁Car	-2893
▁Cel	-2894
▁MOR	-2895
▁Mig	-2896
▁RTZ	-2897
▁Tre	-2898
▁Zee	-2899
▁aim	-2900
▁bpd	-2901
▁cop	-2902
▁day	-2903
▁how	-2904
▁key	-2905
▁max	-2906
▁rum	-2907
▁sen	-2908
FICIT	-2909
alled	-2910
aries	-2911
ecomm	-2912
ilipp	-2913
inger	-2914
olved	-2915
ronic	-2916
thing	-2917
▁Cent	-2918
▁Clev	-2919
▁FROM	-2920
▁Fore	-2921
▁SAID	-2922
▁STOC	-2923
▁Show	-2924
▁beer	-2925
▁even	-2926
▁expl	-2927
▁find	-2928
▁flow	-2929
▁heav	-2930
▁lack	-2931
▁lire	-2932
▁many	-2933
▁rice	-2934
▁slow	-2935
▁stri	-2936
▁then	-2937
▁vers	-2938
cement	-2939
eaking	-2940
ention	-2941
ephone	-2942
evelop	-2943
ically	-2944
makers	-2945
omatsu	-2946
rought	-2947
▁Afric	-2948
▁EXPEC	-2949
▁Inter	-2950
▁PRICE	-2951
▁Produ	-2952
▁WHEAT	-2953
▁basic	-2954
▁cause	-2955
▁charg	-2956
▁defin	-2957
▁final	-2958
▁focus	-2959
▁kilos	-2960
▁regul	-2961
▁round	-2962
▁sharp	-2963
▁somet	-2964
▁surpr	-2965
▁unlik	-2966
▁white	-2967
ecommun	-2968
ination	-2969
ractice	-2970
tedison	-2971
▁August	-2972
▁Kuroda	-2973
▁Lawson	-2974
▁Miguel	-2975
▁REUTER	-2976
▁Schles	-2977
▁Soviet	-2978
▁closed	-2979
▁damage	-2980
▁effort	-2981
▁exceed	-2982
▁except	-2983
▁modest	-2984
▁opport	-2985
▁person	-2986
▁placed	-2987
▁proper	-2988
▁rebate	-2989
▁ruling	-2990
▁senior	-2991
▁series	-2992
▁source	-2993
▁termin	-2994
ecessary	-2995
▁100,000	-2996
▁America	-2997
▁Clevite	-2998
▁Cominco	-2999
▁Current	-3000
▁DEFICIT	-3001
▁Foreign	-3002
▁Hawkeye	-3003
▁Iranian	-3004
▁Komatsu	-3005
▁analyst	-3006
▁attract	-3007
▁decided	-3008
▁efforts	-3009
▁follows	-3010
▁holding	-3011
▁maximum	-3012
▁officer	-3013
▁package	-3014
▁premium	-3015
▁sharply	-3016
▁similar	-3017
▁without	-3018
▁workers	-3019
▁Security	-3020
▁Treasury	-3021
▁attribut	-3022
▁officers	-3023
▁physical	-3024
▁possibly	-3025
▁programs	-3026
▁provided	-3027
▁reducing	-3028
▁shipment	-3029
▁warrants	-3030
▁withdraw	-3031
▁QUARTERLY	-3032
▁beginning	-3033
▁confirmed	-3034
▁disclosed	-3035
▁discussed	-3036
▁expansion	-3037
▁generally	-3038
▁governors	-3039
▁immediate	-3040
▁virtually	-3041
▁Democratic	-3042
▁department	-3043
▁disappoint	-3044
▁imbalances	-3045
▁relatively	-3046
▁Schlesinger	-3047
▁speculative	-3048
▁expectations	-3049
▁restrictions	-3050
▁manufacturing	-3051
ecommunications	-3052
18	-3053
32	-3054
85	-3055
AF	-3056
CA	-3057
EX	-3058
IK	-3059
Ja	-3060
MB	-3061
OD	-3062
PC	-3063
RG	-3064
VI	-3065
ne	-3066
no	-3067
uc	-3068
▁z	-3069
,15	-3070
.80	-3071
AIL	-3072
ARN	-3073
ATA	-3074
DAY	-3075
ERV	-3076
ESS	-3077
IUM	-3078
LEV	-3079
LIT	-3080
ael	-3081
ane	-3082
asc	-3083
bac	-3084
che	-3085
elg	-3086
gel	-3087
ipl	-3088
lin	-3089
ncy	-3090
orn	-3091
pon	-3092
uck	-3093
ulk	-3094
wom	-3095
▁36	-3096
▁57	-3097
▁63	-3098
▁75	-3099
▁79	-3100
▁89	-3101
▁AD	-3102
▁AP	-3103
▁Am	-3104
▁BR	-3105
▁Fo	-3106
▁Ki	-3107
▁La	-3108
▁No	-3109
▁RA	-3110
▁Se	-3111
▁br	-3112
▁ed	-3113
-7/8	-3114
AKES	-3115
ISCO	-3116
REAS	-3117
aged	-3118
akes	-3119
argo	-3120
boat	-3121
crib	-3122
ills	-3123
irst	-3124
isco	-3125
leum	-3126
most	-3127
noon	-3128
ores	-3129
reet	-3130
seed	-3131
utch	-3132
vert	-3133
wide	-3134
▁1.9	-3135
▁118	-3136
▁200	-3137
▁3.1	-3138
▁7.2	-3139
▁Act	-3140
▁CUT	-3141
▁DEC	-3142
▁GEN	-3143
▁HAS	-3144
▁Hut	-3145
▁Kim	-3146
▁Mat	-3147
▁Mer	-3148
▁One	-3149
▁PAY	-3150
▁Pre	-3151
▁SAV	-3152
▁SUR	-3153
▁Six	-3154
▁TIN	-3155
▁Tod	-3156
▁glo	-3157
▁lot	-3158
▁opt	-3159
▁pus	-3160
▁rap	-3161
▁tim	-3162
▁tro	-3163
▁you	-3164
Japan	-3165
ading	-3166
aiwan	-3167
anced	-3168
atory	-3169
bacco	-3170
geles	-3171
ickly	-3172
imary	-3173
incip	-3174
lying	-3175
oting	-3176
otton	-3177
ption	-3178
quate	-3179
quest	-3180
raord	-3181
shore	-3182
while	-3183
woman	-3184
▁BANC	-3185
▁BUYS	-3186
▁Banc	-3187
▁Belg	-3188
▁CALL	-3189
▁COMM	-3190
▁Gulf	-3191
▁LOND	-3192
▁Mich	-3193
▁Paul	-3194
▁That	-3195
▁Tues	-3196
▁arri	-3197
▁bags	-3198
▁bulk	-3199
▁care	-3200
▁caus	-3201
▁curb	-3202
▁gave	-3203
▁happ	-3204
▁know	-3205
▁left	-3206
▁lost	-3207
▁meat	-3208
▁reit	-3209
▁repe	-3210
▁sett	-3211
▁smel	-3212
▁stat	-3213
▁suit	-3214
▁tons	-3215
▁went	-3216
▁word	-3217
atives	-3218
ercial	-3219
making	-3220
othill	-3221
ources	-3222
overed	-3223
ternal	-3224
▁Daily	-3225
▁Grain	-3226
▁James	-3227
▁Party	-3228
▁SPLIT	-3229
▁STAKE	-3230
▁Santa	-3231
▁Steel	-3232
▁award	-3233
▁bales	-3234
▁const	-3235
▁daily	-3236
▁delay	-3237
▁fluct	-3238
▁merch	-3239
▁moder	-3240
▁pipel	-3241
▁risen	-3242
▁separ	-3243
▁tight	-3244
▁worth	-3245
ability	-3246
istered	-3247
▁Assets	-3248
▁Brands	-3249
▁Commer	-3250
▁Hutton	-3251
▁PAYOUT	-3252
▁almost	-3253
▁announ	-3254
▁borrow	-3255
▁copper	-3256
▁entire	-3257
▁favour	-3258
▁health	-3259
▁inflow	-3260
▁petroc	-3261
▁region	-3262
▁return	-3263
▁signed	-3264
irmation	-3265
▁Angeles	-3266
▁British	-3267
▁Develop	-3268
▁Liberal	-3269
▁MARKETS	-3270
▁Michael	-3271
▁Philipp	-3272
▁SAVINGS	-3273
▁Traders	-3274
▁Tuesday	-3275
▁Volcker	-3276
▁actions	-3277
▁concret	-3278
▁cutting	-3279
▁describ	-3280
▁differe	-3281
▁dollars	-3282
▁factors	-3283
▁failure	-3284
▁forward	-3285
▁greater	-3286
▁introdu	-3287
▁looking	-3288
▁outcome	-3289
▁outside	-3290
▁primary	-3291
▁princip	-3292
▁project	-3293
▁related	-3294
▁reserve	-3295
▁sequest	-3296
▁serious	-3297
▁sustain	-3298
▁tobacco	-3299
▁Celanese	-3300
▁Foothill	-3301
▁Holdings	-3302
▁Industry	-3303
▁MATURITY	-3304
▁Services	-3305
▁Showboat	-3306
▁accounts	-3307
▁consider	-3308
▁consumer	-3309
▁followed	-3310
▁investor	-3311
▁movement	-3312
▁remained	-3313
▁unlikely	-3314
raordinary	-3315
▁according	-3316
▁afternoon	-3317
▁contained	-3318
▁economies	-3319
▁economist	-3320
▁expressed	-3321
▁insurance	-3322
▁materials	-3323
▁positions	-3324
▁stabilize	-3325
▁stimulate	-3326
▁Federation	-3327
▁Government	-3328
▁Montedison	-3329
▁accounting	-3330
▁commercial	-3331
▁conference	-3332
▁connection	-3333
▁definitive	-3334
▁developing	-3335
▁intentions	-3336
▁profitable	-3337
▁registered	-3338
▁reiterated	-3339
▁Continental	-3340
▁Development	-3341
▁improvement	-3342
▁information	-3343
▁sequestered	-3344
▁shareholder	-3345
▁spokeswoman	-3346
▁transactions	-3347
▁petrochemical	-3348
▁protectionist	-3349
▁semiconductor	-3350
▁disappointment	-3351
▁implementation	-3352
.-	-3353
24	-3354
38	-3355
42	-3356
94	-3357
AO	-3358
BS	-3359
IB	-3360
IO	-3361
JR	-3362
SL	-3363
de	-3364
ha	-3365
uw	-3366
▁X	-3367
,21	-3368
,31	-3369
.92	-3370
1.7	-3371
4.4	-3372
CPB	-3373
EAD	-3374
INA	-3375
IVE	-3376
PEN	-3377
ROP	-3378
UNT	-3379
UTH	-3380
WER	-3381
WTH	-3382
bit	-3383
cqu	-3384
den	-3385
eck	-3386
enn	-3387
ily	-3388
ino	-3389
irc	-3390
isl	-3391
ism	-3392
mit	-3393
ody	-3394
pre	-3395
ruz	-3396
ves	-3397
xim	-3398
xon	-3399
▁44	-3400
▁88	-3401
▁AF	-3402
▁Br	-3403
▁EL	-3404
▁If	-3405
▁Le	-3406
▁NV	-3407
▁Or	-3408
▁Pr	-3409
▁RU	-3410
▁ev	-3411
▁lb	-3412
▁ph	-3413
BANK	-3414
CHAS	-3415
ERIC	-3416
ICAL	-3417
ONES	-3418
PLUS	-3419
airs	-3420
aper	-3421
cial	-3422
ents	-3423
exic	-3424
hard	-3425
ille	-3426
line	-3427
otor	-3428
ouse	-3429
rief	-3430
rose	-3431
unfl	-3432
user	-3433
xham	-3434
▁1,0	-3435
▁1,2	-3436
▁103	-3437
▁150	-3438
▁2.0	-3439
▁2.1	-3440
▁2.7	-3441
▁3.3	-3442
▁3.4	-3443
▁6.1	-3444
▁ACC	-3445
▁Acc	-3446
▁Aff	-3447
▁Agr	-3448
▁BID	-3449
▁Day	-3450
▁Ecu	-3451
▁ISS	-3452
▁JAN	-3453
▁LME	-3454
▁NSW	-3455
▁Nor	-3456
▁OUT	-3457
▁PUR	-3458
▁Pac	-3459
▁Que	-3460
▁REC	-3461
▁STG	-3462
▁Sor	-3463
▁Sub	-3464
▁USX	-3465
▁Val	-3466
▁YEN	-3467
▁Zur	-3468
▁ban	-3469
▁dut	-3470
▁eit	-3471
▁fra	-3472
▁led	-3473
▁los	-3474
▁tin	-3475
▁unn	-3476
▁urg	-3477
▁vis	-3478
March	-3479
accru	-3480
aring	-3481
ceeds	-3482
earch	-3483
eller	-3484
endar	-3485
ening	-3486
idual	-3487
illed	-3488
iment	-3489
imont	-3490
ished	-3491
ising	-3492
isory	-3493
istic	-3494
iting	-3495
itute	-3496
lands	-3497
ombia	-3498
posed	-3499
riate	-3500
stock	-3501
third	-3502
ticip	-3503
urred	-3504
▁1.37	-3505
▁14.9	-3506
▁46.4	-3507
▁COUR	-3508
▁EARN	-3509
▁FREE	-3510
▁FUND	-3511
▁Food	-3512
▁HIGH	-3513
▁High	-3514
▁LORD	-3515
▁Loan	-3516
▁Medt	-3517
▁Nort	-3518
▁Note	-3519
▁Nove	-3520
▁OPEN	-3521
▁RISE	-3522
▁SOUT	-3523
▁Span	-3524
▁alle	-3525
▁away	-3526
▁best	-3527
▁corp	-3528
▁feed	-3529
▁fert	-3530
▁life	-3531
▁like	-3532
▁mass	-3533
▁mean	-3534
▁news	-3535
▁norm	-3536
▁shif	-3537
▁spot	-3538
▁unsu	-3539
......	-3540
ANCIAL	-3541
INGTON	-3542
ailand	-3543
anging	-3544
antage	-3545
endent	-3546
ferred	-3547
gether	-3548
ichard	-3549
idence	-3550
leased	-3551
ronics	-3552
▁13.50	-3553
▁Armco	-3554
▁Asked	-3555
▁Dutch	-3556
▁Exxon	-3557
▁LOWER	-3558
▁Mexic	-3559
▁STATE	-3560
▁Zeeuw	-3561
▁assum	-3562
▁brief	-3563
▁clear	-3564
▁cover	-3565
▁deleg	-3566
▁deter	-3567
▁exerc	-3568
▁flour	-3569
▁found	-3570
▁holds	-3571
▁newsp	-3572
▁night	-3573
▁nomin	-3574
▁shipp	-3575
▁stand	-3576
▁techn	-3577
▁union	-3578
▁whose	-3579
ference	-3580
igation	-3581
ruction	-3582
▁ABBETT	-3583
▁ACQUIR	-3584
▁Africa	-3585
▁CANADA	-3586
▁Donald	-3587
▁EXPORT	-3588
▁GROWTH	-3589
▁Heller	-3590
▁Kiichi	-3591
▁RAISES	-3592
▁Rexham	-3593
▁Street	-3594
▁Valley	-3595
▁Wallin	-3596
▁Zurich	-3597
▁access	-3598
▁affect	-3599
▁agency	-3600
▁aggreg	-3601
▁approp	-3602
▁caused	-3603
▁coming	-3604
▁commit	-3605
▁either	-3606
▁equity	-3607
▁filing	-3608
▁fluctu	-3609
▁global	-3610
▁ground	-3611
▁groups	-3612
▁helped	-3613
▁impose	-3614
▁issues	-3615
▁legisl	-3616
▁obtain	-3617
▁perfor	-3618
▁regard	-3619
▁remove	-3620
▁retail	-3621
▁review	-3622
▁stable	-3623
▁versus	-3624
▁Affairs	-3625
▁Bankers	-3626
▁DISTILL	-3627
▁EXPORTS	-3628
▁Earlier	-3629
▁Edelman	-3630
▁England	-3631
▁GENERAL	-3632
▁Pacific	-3633
▁SURPLUS	-3634
▁Spanish	-3635
▁anticip	-3636
▁attempt	-3637
▁biggest	-3638
▁brought	-3639
▁credits	-3640
▁diluted	-3641
▁disclos	-3642
▁disrupt	-3643
▁manager	-3644
▁margins	-3645
▁massive	-3646
▁opening	-3647
▁process	-3648
▁protect	-3649
▁quickly	-3650
▁remarks	-3651
▁revised	-3652
▁smaller	-3653
▁various	-3654
▁venture	-3655
▁Currency	-3656
▁Dividend	-3657
▁Division	-3658
▁EARNINGS	-3659
▁NATIONAL	-3660
▁November	-3661
▁Thailand	-3662
▁activity	-3663
▁approval	-3664
▁calendar	-3665
▁concrete	-3666
▁declared	-3667
▁estimate	-3668
▁excludes	-3669
▁managing	-3670
▁planning	-3671
▁prepared	-3672
▁security	-3673
▁strategy	-3674
▁FINANCIAL	-3675
▁Insurance	-3676
▁attention	-3677
▁chemicals	-3678
▁committee	-3679
▁commodity	-3680
▁concerned	-3681
▁different	-3682
▁directors	-3683
▁exporters	-3684
▁intervene	-3685
▁necessary	-3686
▁plantings	-3687
▁prospects	-3688
▁provision	-3689
▁reporters	-3690
▁shortfall	-3691
▁telephone	-3692
▁activities	-3693
▁associated	-3694
▁completion	-3695
▁considered	-3696
▁statements	-3697
▁appropriate	-3698
▁legislation	-3699
▁manufacture	-3700
▁negotiating	-3701
▁requirement	-3702
▁announcement	-3703
▁stockholders	-3704
.)	-3705
23	-3706
57	-3707
AE	-3708
HR	-3709
IE	-3710
PO	-3711
SE	-3712
SM	-3713
SR	-3714
TN	-3715
WN	-3716
ju	-3717
ll	-3718
pe	-3719
ya	-3720
.60	-3721
1-2	-3722
ANA	-3723
ARY	-3724
ECH	-3725
EMP	-3726
FOR	-3727
ITS	-3728
LEX	-3729
OPE	-3730
PUT	-3731
TBE	-3732
TED	-3733
UAL	-3734
UTS	-3735
XON	-3736
abl	-3737
ago	-3738
aim	-3739
ann	-3740
ara	-3741
elf	-3742
ges	-3743
iaz	-3744
imb	-3745
itz	-3746
len	-3747
men	-3748
nal	-3749
rac	-3750
rse	-3751
rug	-3752
seb	-3753
▁82	-3754
▁85	-3755
▁86	-3756
▁95	-3757
▁AL	-3758
▁BO	-3759
▁CC	-3760
▁GE	-3761
▁JP	-3762
▁PO	-3763
▁Tr	-3764
▁WO	-3765
▁er	-3766
▁et	-3767
▁mo	-3768
▁ty	-3769
-360	-3770
ABOR	-3771
ATED	-3772
AXIM	-3773
BATE	-3774
ECTR	-3775
FFEE	-3776
ORTH	-3777
PROV	-3778
UARY	-3779
amon	-3780
ampa	-3781
ankf	-3782
ardo	-3783
ched	-3784
down	-3785
ehic	-3786
ford	-3787
ghum	-3788
iday	-3789
ilan	-3790
ival	-3791
oech	-3792
olly	-3793
orre	-3794
resh	-3795
ront	-3796
shih	-3797
ties	-3798
uble	-3799
▁1,1	-3800
▁1,7	-3801
▁10-	-3802
▁120	-3803
▁138	-3804
▁140	-3805
▁144	-3806
▁147	-3807
▁15.	-3808
▁2,1	-3809
▁2.5	-3810
▁250	-3811
▁3,4	-3812
▁4,2	-3813
▁5,9	-3814
▁545	-3815
▁6.7	-3816
▁7.1	-3817
▁7.9	-3818
▁8.5	-3819
▁COL	-3820
▁CUR	-3821
▁Che	-3822
▁EIA	-3823
▁FOB	-3824
▁Gas	-3825
▁Has	-3826
▁Hen	-3827
▁LBO	-3828
▁LVI	-3829
▁Mar	-3830
▁Out	-3831
▁PLC	-3832
▁RCA	-3833
▁RJR	-3834
▁Ren	-3835
▁Sal	-3836
▁Sav	-3837
▁THE	-3838
▁Tel	-3839
▁Tin	-3840
▁Und	-3841
▁WOR	-3842
▁ade	-3843
▁aud	-3844
▁che	-3845
▁col	-3846
▁dro	-3847
▁emb	-3848
▁enc	-3849
▁eng	-3850
▁ess	-3851
▁flo	-3852
▁hit	-3853
▁inv	-3854
▁pil	-3855
▁rat	-3856
▁rup	-3857
▁san	-3858
▁sat	-3859
▁why	-3860
▁win	-3861
▁won	-3862
ANGED	-3863
ATING	-3864
UTHOR	-3865
angco	-3866
anger	-3867
arant	-3868
curre	-3869
earle	-3870
ecial	-3871
empor	-3872
endit	-3873
force	-3874
grain	-3875
icult	-3876
ieves	-3877
ining	-3878
itors	-3879
ocial	-3880
oming	-3881
osits	-3882
owned	-3883
redit	-3884
thers	-3885
▁1.15	-3886
▁1.25	-3887
▁14.5	-3888
▁3.75	-3889
▁Acqu	-3890
▁Bell	-3891
▁Bond	-3892
▁Brad	-3893
▁Coju	-3894
▁Data	-3895
▁Diaz	-3896
▁ECUS	-3897
▁East	-3898
▁Five	-3899
▁Full	-3900
▁GOLD	-3901
▁Gree	-3902
▁LEAD	-3903
▁LOAN	-3904
▁MEET	-3905
▁MTBE	-3906
▁Mean	-3907
▁Pric	-3908
▁RAIN	-3909
▁Real	-3910
▁TRAD	-3911
▁UCPB	-3912
▁UNCH	-3913
▁WEST	-3914
▁doub	-3915
▁else	-3916
▁emer	-3917
▁feet	-3918
▁jump	-3919
▁kept	-3920
▁owns	-3921
▁play	-3922
▁risk	-3923
▁supp	-3924
▁took	-3925
▁unem	-3926
▁unus	-3927
▁vice	-3928
29,000	-3929
CHASES	-3930
USTRAL	-3931
aining	-3932
ateral	-3933
ilever	-3934
istics	-3935
isture	-3936
oechst	-3937
onding	-3938
ournal	-3939
▁105.9	-3940
▁5,000	-3941
▁AFTER	-3942
▁AGREE	-3943
▁Banks	-3944
▁CALLS	-3945
▁Coast	-3946
▁India	-3947
▁Ishih	-3948
▁LABOR	-3949
▁MAXIM	-3950
▁Metal	-3951
▁Milan	-3952
▁Petro	-3953
▁SALES	-3954
▁SOUTH	-3955
▁Sears	-3956
▁Smith	-3957
▁accel	-3958
▁alloc	-3959
▁along	-3960
▁break	-3961
▁cargo	-3962
▁cases	-3963
▁court	-3964
▁debit	-3965
▁every	-3966
▁extre	-3967
▁filed	-3968
▁fresh	-3969
▁hands	-3970
▁heavy	-3971
▁indep	-3972
▁means	-3973
▁metal	-3974
▁minor	-3975
▁pacts	-3976
▁rains	-3977
▁stood	-3978
▁strik	-3979
▁sunfl	-3980
▁units	-3981
▁volat	-3982
▁works	-3983
ATORIES	-3984
accrual	-3985
ankfurt	-3986
current	-3987
ibility	-3988
itional	-3989
oration	-3990
quarter	-3991
unities	-3992
verseas	-3993
▁50,000	-3994
▁55,000	-3995
▁60,000	-3996
▁APPROV	-3997
▁AUTHOR	-3998
▁COFFEE	-3999
▁Credit	-4000
▁ELECTR	-4001
▁Friday	-4002
▁Hanson	-4003
▁Kuwait	-4004
▁LONDON	-4005
▁MINIST	-4006
▁Nether	-4007
▁PRICES	-4008
▁REBATE	-4009
▁Rubber	-4010
▁Searle	-4011
▁Taiwan	-4012
▁appear	-4013
▁buyers	-4014
▁cannot	-4015
▁comput	-4016
▁debent	-4017
▁divers	-4018
▁duties	-4019
▁ensure	-4020
▁fertil	-4021
▁launch	-4022
▁nation	-4023
▁object	-4024
▁offers	-4025
▁proced	-4026
▁purpos	-4027
▁sought	-4028
▁status	-4029
▁tempor	-4030
▁threat	-4031
▁trying	-4032
▁voting	-4033
▁weaker	-4034
▁wholly	-4035
sebrough	-4036
ximately	-4037
▁200,000	-4038
▁AUSTRAL	-4039
▁BANCORP	-4040
▁Belgium	-4041
▁Central	-4042
▁Gerhard	-4043
▁IMPORTS	-4044
▁PROFITS	-4045
▁Product	-4046
▁Richard	-4047
▁Systems	-4048
▁Textile	-4049
▁Trading	-4050
▁Western	-4051
▁ability	-4052
▁alleged	-4053
▁allowed	-4054
▁arrange	-4055
▁changed	-4056
▁concent	-4057
▁consort	-4058
▁correct	-4059
▁created	-4060
▁encoura	-4061
▁farmers	-4062
▁guarant	-4063
▁largely	-4064
▁liberal	-4065
▁nothing	-4066
▁payment	-4067
▁periods	-4068
▁putting	-4069
▁recover	-4070
▁resolve	-4071
▁reverse	-4072
▁service	-4073
▁session	-4074
▁success	-4075
▁totaled	-4076
▁turning	-4077
▁willing	-4078
▁working	-4079
▁worried	-4080
enditures	-4081
ification	-4082
▁Agrimont	-4083
▁Bradford	-4084
▁Colombia	-4085
▁Deposits	-4086
▁Ishihara	-4087
▁Unilever	-4088
▁achieved	-4089
▁adequate	-4090
▁complete	-4091
▁deposits	-4092
▁designed	-4093
▁included	-4094
▁moisture	-4095
▁pipeline	-4096
▁policies	-4097
▁restated	-4098
▁resulted	-4099
▁seasonal	-4100
▁separate	-4101
▁shipping	-4102
▁shortage	-4103
▁together	-4104
▁totalled	-4105
▁unemploy	-4106
▁weakness	-4107
▁Cojuangco	-4108
▁Frankfurt	-4109
▁Medtronic	-4110
▁Officials	-4111
▁Petroleum	-4112
▁Represent	-4113
▁Resources	-4114
▁UNCHANGED	-4115
▁consumers	-4116
▁contracts	-4117
▁described	-4118
▁difficult	-4119
▁dividends	-4120
▁essential	-4121
▁harvested	-4122
▁imbalance	-4123
▁merchants	-4124
▁newspaper	-4125
▁performan	-4126
▁potential	-4127
▁predicted	-4128
▁preferred	-4129
▁pressures	-4130
▁purchased	-4131
▁recommend	-4132
▁relations	-4133
▁remaining	-4134
▁scheduled	-4135
▁technical	-4136
▁temporary	-4137
▁transport	-4138
▁unsuccess	-4139
▁workforce	-4140
▁worldwide	-4141
▁Technology	-4142
▁assistance	-4143
▁authorized	-4144
▁economists	-4145
▁pacemakers	-4146
▁supplement	-4147
▁technology	-4148
▁Acquisition	-4149
▁Netherlands	-4150
▁authorities	-4151
▁competition	-4152
▁competitive	-4153
▁considering	-4154
▁independent	-4155
▁investments	-4156
............0	-4157
▁Consolidated	-4158
▁LABORATORIES	-4159
▁depreciation	-4160
▁expenditures	-4161
▁fluctuations	-4162
▁subsidiaries	-4163
▁approximately	-4164
▁opportunities	-4165
▁strengthening	-4166
▁administration	-4167
(0	-4168
/5	-4169
06	-4170
10	-4171
15	-4172
39	-4173
52	-4174
87	-4175
88	-4176
BM	-4177
CE	-4178
GH	-4179
II	-4180
If	-4181
JP	-4182
NE	-4183
PR	-4184
SB	-4185
TA	-4186
TD	-4187
TO	-4188
ZE	-4189
ik	-4190
of	-4191
ph	-4192
ux	-4193
wa	-4194
,06	-4195
,76	-4196
-15	-4197
-7)	-4198
.35	-4199
.67	-4200
/88	-4201
0/4	-4202
3.9	-4203
5-1	-4204
6,1	-4205
ART	-4206
ASH	-4207
BUR	-4208
But	-4209
CES	-4210
ENS	-4211
ERE	-4212
GAN	-4213
ICE	-4214
INC	-4215
ISH	-4216
LOY	-4217
MAR	-4218
PUR	-4219
SIN	-4220
ULD	-4221
YST	-4222
ali	-4223
arl	-4224
aut	-4225
cus	-4226
dam	-4227
eam	-4228
elt	-4229
ems	-4230
ida	-4231
ila	-4232
iov	-4233
kin	-4234
lim	-4235
lus	-4236
mah	-4237
oil	-4238
ons	-4239
ots	-4240
ris	-4241
rum	-4242
ten	-4243
tto	-4244
udy	-4245
uev	-4246
urs	-4247
▁(4	-4248
▁71	-4249
▁92	-4250
▁AN	-4251
▁AS	-4252
▁Dl	-4253
▁Fl	-4254
▁HE	-4255
▁IS	-4256
▁LA	-4257
▁Ma	-4258
▁Na	-4259
▁Os	-4260
▁PH	-4261
▁TR	-4262
▁ct	-4263
▁es	-4264
▁sw	-4265
,600	-4266
/16,	-4267
AIZE	-4268
FALL	-4269
IBUT	-4270
NDES	-4271
ONOM	-4272
REES	-4273
TERM	-4274
VENT	-4275
ador	-4276
ages	-4277
aito	-4278
amed	-4279
artm	-4280
comm	-4281
ebec	-4282
eech	-4283
fied	-4284
half	-4285
iber	-4286
icen	-4287
idan	-4288
ideo	-4289
ingg	-4290
ises	-4291
itor	-4292
leet	-4293
lied	-4294
ltry	-4295
ncor	-4296
occo	-4297
olit	-4298
onus	-4299
ored	-4300
otal	-4301
otel	-4302
quer	-4303
rade	-4304
writ	-4305
▁1,4	-4306
▁159	-4307
▁17,	-4308
▁2,5	-4309
▁2,6	-4310
▁3,1	-4311
▁3.0	-4312
▁3.7	-4313
▁4,4	-4314
▁4,6	-4315
▁4.4	-4316
▁400	-4317
▁700	-4318
▁8.8	-4319
▁9-1	-4320
▁9.5	-4321
▁ARG	-4322
▁ASS	-4323
▁Amb	-4324
▁Ant	-4325
▁BEL	-4326
▁BRO	-4327
▁BUR	-4328
▁Bah	-4329
▁Bat	-4330
▁Ber	-4331
▁Bow	-4332
▁CPA	-4333
▁CSR	-4334
▁Cal	-4335
▁DOW	-4336
▁Den	-4337
▁FAO	-4338
▁FRE	-4339
▁GAS	-4340
▁GMT	-4341
▁Gen	-4342
▁Gil	-4343
▁HBO	-4344
▁HIK	-4345
▁HUT	-4346
▁LAW	-4347
▁LTD	-4348
▁Lab	-4349
▁Lyn	-4350
▁NAT	-4351
▁OLD	-4352
▁Old	-4353
▁Pet	-4354
▁Pri	-4355
▁RAY	-4356
▁Red	-4357
▁SAN	-4358
▁SEE	-4359
▁TAX	-4360
▁TEL	-4361
▁TEX	-4362
▁Ter	-4363
▁Tur	-4364
▁Two	-4365
▁VOT	-4366
▁WAL	-4367
▁WAR	-4368
▁Wil	-4369
▁air	-4370
▁ask	-4371
▁dry	-4372
▁eas	-4373
▁ele	-4374
▁fri	-4375
▁inf	-4376
▁lin	-4377
▁mom	-4378
▁oun	-4379
▁pan	-4380
▁pat	-4381
▁pet	-4382
▁via	-4383
-1987	-4384
ATTLE	-4385
ERMAN	-4386
ETARY	-4387
acted	-4388
ander	-4389
attle	-4390
court	-4391
empts	-4392
ested	-4393
iance	-4394
iring	-4395
itted	-4396
itten	-4397
ivers	-4398
izing	-4399
monst	-4400
overs	-4401
owers	-4402
puter	-4403
ranch	-4404
rated	-4405
teins	-4406
trose	-4407
uevas	-4408
ureau	-4409
▁1-10	-4410
▁1.02	-4411
▁1.18	-4412
▁16.1	-4413
▁2.50	-4414
▁3.80	-4415
▁38.1	-4416
▁46.8	-4417
▁ALEX	-4418
▁BILL	-4419
▁Buen	-4420
▁CHAR	-4421
▁CURR	-4422
▁CUTS	-4423
▁Cruz	-4424
▁Farm	-4425
▁GAIN	-4426
▁GATT	-4427
▁Gold	-4428
▁Jard	-4429
▁Karl	-4430
▁MITI	-4431
▁Mont	-4432
▁OPER	-4433
▁OVER	-4434
▁Otto	-4435
▁Plan	-4436
▁Port	-4437
▁RUBB	-4438
▁SLOW	-4439
▁SYST	-4440
▁Thom	-4441
▁Town	-4442
▁appl	-4443
▁base	-4444
▁book	-4445
▁buoy	-4446
▁caut	-4447
▁circ	-4448
▁conv	-4449
▁dipl	-4450
▁elab	-4451
▁elim	-4452
▁face	-4453
▁fuel	-4454
▁goal	-4455
▁gran	-4456
▁home	-4457
▁host	-4458
▁kind	-4459
▁lend	-4460
▁pled	-4461
▁plus	-4462
▁post	-4463
▁side	-4464
▁soft	-4465
▁sout	-4466
▁vess	-4467
▁viol	-4468
▁wage	-4469
▁wine	-4470
,000/1	-4471
73,000	-4472
ENTINE	-4473
ERICAN	-4474
OLATOR	-4475
OURCES	-4476
SINESS	-4477
URANCE	-4478
ablish	-4479
ancing	-4480
ascade	-4481
atment	-4482
auffer	-4483
cedent	-4484
cluded	-4485
demand	-4486
inated	-4487
ivered	-4488
mental	-4489
orable	-4490
oultry	-4491
ration	-4492
▁4,000	-4493
▁After	-4494
▁Chase	-4495
▁Claus	-4496
▁DISCO	-4497
▁First	-4498
▁Franc	-4499
▁ISSUE	-4500
▁Loans	-4501
▁MAIZE	-4502
▁MAKES	-4503
▁Merch	-4504
▁Motor	-4505
▁OFFIC	-4506
▁Organ	-4507
▁PARIS	-4508
▁Prime	-4509
▁REPUR	-4510
▁RISES	-4511
▁Reich	-4512
▁Rober	-4513
▁SHORT	-4514
▁Saito	-4515
▁State	-4516
▁Today	-4517
▁Total	-4518
▁Trump	-4519
▁Under	-4520
▁WHITE	-4521
▁Xebec	-4522
▁agree	-4523
▁amend	-4524
▁block	-4525
▁bonus	-4526
▁buyer	-4527
▁cents	-4528
▁claim	-4529
▁force	-4530
▁fraud	-4531
▁gives	-4532
▁gross	-4533
▁hopes	-4534
▁legal	-4535
▁licen	-4536
▁meant	-4537
▁merge	-4538
▁never	-4539
▁optim	-4540
▁persu	-4541
▁raise	-4542
▁rapid	-4543
▁ready	-4544
▁sixth	-4545
▁study	-4546
▁tough	-4547
▁whole	-4548
▁write	-4549
chequer	-4550
ensland	-4551
osition	-4552
ulative	-4553
▁30,000	-4554
▁46.496	-4555
▁ACCORD	-4556
▁AGREES	-4557
▁Access	-4558
▁Accord	-4559
▁BUNDES	-4560
▁BUYING	-4561
▁Burmah	-4562
▁CATTLE	-4563
▁CHANGE	-4564
▁COMPAN	-4565
▁Commod	-4566
▁Cuevas	-4567
▁ECONOM	-4568
▁GERMAN	-4569
▁Greece	-4570
▁HIGHER	-4571
▁HUTTON	-4572
▁INCOME	-4573
▁Invest	-4574
▁MORGAN	-4575
▁Metals	-4576
▁Mining	-4577
▁Monier	-4578
▁Norway	-4579
▁Parana	-4580
▁Realty	-4581
▁SHARES	-4582
▁STOCKS	-4583
▁Wilson	-4584
▁bagged	-4585
▁banker	-4586
▁brings	-4587
▁cotton	-4588
▁coupon	-4589
▁course	-4590
▁danger	-4591
▁dispos	-4592
▁double	-4593
▁engine	-4594
▁estate	-4595
▁expire	-4596
▁forces	-4597
▁having	-4598
▁headed	-4599
▁instru	-4600
▁invent	-4601
▁moment	-4602
▁moving	-4603
▁orders	-4604
▁pilots	-4605
▁privat	-4606
▁redund	-4607
▁resist	-4608
▁resume	-4609
▁speech	-4610
▁suffic	-4611
▁summer	-4612
▁superv	-4613
▁unless	-4614
practice	-4615
▁118,350	-4616
▁1987/88	-4617
▁BILLION	-4618
▁EXPECTS	-4619
▁Hoechst	-4620
▁Imports	-4621
▁Jardine	-4622
▁MAXIMUM	-4623
▁Medical	-4624
▁Renault	-4625
▁Savings	-4626
▁Service	-4627
▁Soriano	-4628
▁Tariffs	-4629
▁aggress	-4630
▁appears	-4631
▁appreci	-4632
▁brokers	-4633
▁charges	-4634
▁contain	-4635
▁council	-4636
▁demonst	-4637
▁deposit	-4638
▁dropped	-4639
▁expense	-4640
▁growers	-4641
▁guilder	-4642
▁holders	-4643
▁imposed	-4644
▁journal	-4645
▁leaders	-4646
▁loading	-4647
▁nominal	-4648
▁oilseed	-4649
▁protest	-4650
▁rebates	-4651
▁refined	-4652
▁registr	-4653
▁respons	-4654
▁sectors	-4655
▁shortly	-4656
▁smelter	-4657
▁tonnage	-4658
▁worries	-4659
committee	-4660
▁AMERICAN	-4661
▁BUSINESS	-4662
▁Buttrose	-4663
▁Commerce	-4664
▁Computer	-4665
▁DISCOUNT	-4666
▁JAPANESE	-4667
▁MONETARY	-4668
▁Official	-4669
▁Partners	-4670
▁Proteins	-4671
▁Speaking	-4672
▁annually	-4673
▁approach	-4674
▁attempts	-4675
▁believes	-4676
▁controls	-4677
▁customer	-4678
▁disclose	-4679
▁downward	-4680
▁electric	-4681
▁entering	-4682
▁external	-4683
▁indirect	-4684
▁launched	-4685
▁licences	-4686
▁majority	-4687
▁material	-4688
▁negative	-4689
▁offering	-4690
▁offshore	-4691
▁overseas	-4692
▁particip	-4693
▁premiums	-4694
▁proceeds	-4695
▁rational	-4696
▁reaction	-4697
▁repeated	-4698
▁restrain	-4699
▁southern	-4700
▁strongly	-4701
▁surprise	-4702
▁AGREEMENT	-4703
▁ARGENTINE	-4704
▁Brazilian	-4705
▁Francisco	-4706
▁INSURANCE	-4707
▁Meanwhile	-4708
▁PUROLATOR	-4709
▁Producers	-4710
▁Reichhold	-4711
▁accounted	-4712
▁advantage	-4713
▁certainly	-4714
▁concluded	-4715
▁continues	-4716
▁corporate	-4717
▁decisions	-4718
▁delivered	-4719
▁depressed	-4720
▁disrupted	-4721
▁elaborate	-4722
▁excessive	-4723
▁exporting	-4724
▁financing	-4725
▁gradually	-4726
▁interview	-4727
▁principle	-4728
▁programme	-4729
▁proposals	-4730
▁purchases	-4731
▁quarterly	-4732
▁reflected	-4733
▁resulting	-4734
▁sanctions	-4735
▁sentiment	-4736
▁treatment	-4737
▁underwrit	-4738
▁BUNDESBANK	-4739
▁Industrial	-4740
▁Queensland	-4741
▁attributed	-4742
▁authorised	-4743
▁commitment	-4744
▁consortium	-4745
▁guaranteed	-4746
▁harvesting	-4747
▁inspection	-4748
▁introduced	-4749
▁preference	-4750
▁reasonable	-4751
▁reflecting	-4752
▁regulatory	-4753
▁underlying	-4754
▁Chesebrough	-4755
▁Philippines	-4756
▁REPURCHASES	-4757
▁anticipated	-4758
▁businessmen	-4759
▁commodities	-4760
▁cooperative	-4761
▁electronics	-4762
▁immediately	-4763
▁performance	-4764
▁supervisory	-4765
▁unemployment	-4766
▁registrations	-4767
▁significantly	-4768
▁stabilisation	-4769
▁substantially	-4770
▁Representative	-4771
▁semiconductors	-4772
▁representatives	-4773
-4	-4774
-5	-4775
04	-4776
09	-4777
12	-4778
14	-4779
3.	-4780
36	-4781
37	-4782
4)	-4783
45	-4784
47	-4785
55	-4786
67	-4787
71	-4788
72	-4789
83	-4790
89	-4791
92	-4792
AH	-4793
AQ	-4794
AU	-4795
AV	-4796
AZ	-4797
BD	-4798
BL	-4799
CI	-4800
CS	-4801
DP	-4802
GY	-4803
HL	-4804
IX	-4805
NP	-4806
UI	-4807
WO	-4808
Wh	-4809
XH	-4810
ds	-4811
ek	-4812
gy	-4813
hi	-4814
jn	-4815
,11	-4816
,85	-4817
.06	-4818
.22	-4819
.63	-4820
.87	-4821
.99	-4822
3.0	-4823
8,6	-4824
AID	-4825
AMB	-4826
APR	-4827
ATR	-4828
Com	-4829
ELY	-4830
EON	-4831
ESK	-4832
FIR	-4833
GRE	-4834
IGN	-4835
ILE	-4836
IMP	-4837
INS	-4838
IQU	-4839
LES	-4840
NDS	-4841
OCI	-4842
ONT	-4843
ORN	-4844
OST	-4845
OTT	-4846
OUS	-4847
PFA	-4848
PLY	-4849
POS	-4850
SIS	-4851
UES	-4852
URN	-4853
URY	-4854
VEN	-4855
WAG	-4856
alt	-4857
aps	-4858
arx	-4859
azo	-4860
cul	-4861
dom	-4862
emb	-4863
eth	-4864
ety	-4865
hae	-4866
hin	-4867
ici	-4868
ife	-4869
ili	-4870
iti	-4871
iwa	-4872
leb	-4873
loy	-4874
new	-4875
oba	-4876
oen	-4877
ogo	-4878
oid	-4879
ojn	-4880
onn	-4881
paq	-4882
rag	-4883
ses	-4884
tak	-4885
uty	-4886
▁91	-4887
▁97	-4888
▁99	-4889
▁Bl	-4890
▁Fe	-4891
▁Gh	-4892
▁My	-4893
▁NE	-4894
▁SO	-4895
▁Su	-4896
▁WE	-4897
,700	-4898
,800	-4899
-1/4	-4900
-3/8	-4901
AKER	-4902
ATER	-4903
ERGY	-4904
ETAX	-4905
Ecus	-4906
IFIC	-4907
IQUE	-4908
ISED	-4909
IVEN	-4910
JUST	-4911
KING	-4912
LEET	-4913
MITI	-4914
ONUS	-4915
ORES	-4916
OUSE	-4917
TERS	-4918
TIES	-4919
UNCH	-4920
UNTR	-4921
URES	-4922
UTCH	-4923
aded	-4924
adur	-4925
ague	-4926
aint	-4927
anka	-4928
areh	-4929
ario	-4930
ashi	-4931
avid	-4932
bott	-4933
burg	-4934
care	-4935
eber	-4936
eros	-4937
este	-4938
fety	-4939
form	-4940
gent	-4941
idel	-4942
iers	-4943
iles	-4944
inar	-4945
ishi	-4946
itzw	-4947
iven	-4948
izer	-4949
offs	-4950
orge	-4951
oria	-4952
ours	-4953
ownt	-4954
rack	-4955
read	-4956
ream	-4957
resp	-4958
rest	-4959
rier	-4960
rous	-4961
ruck	-4962
uard	-4963
ubic	-4964
ully	-4965
umin	-4966
werp	-4967
work	-4968
▁1,6	-4969
▁102	-4970
▁104	-4971
▁110	-4972
▁142	-4973
▁170	-4974
▁180	-4975
▁2,7	-4976
▁2,9	-4977
▁22.	-4978
▁3.5	-4979
▁31.	-4980
▁4.1	-4981
▁4.9	-4982
▁5,2	-4983
▁5,7	-4984
▁500	-4985
▁6.3	-4986
▁7.5	-4987
▁7.6	-4988
▁8,1	-4989
▁9.0	-4990
▁9.8	-4991
▁9.9	-4992
▁90-	-4993
▁Adv	-4994
▁BAN	-4995
▁BAR	-4996
▁Bas	-4997
▁CCC	-4998
▁CRA	-4999
▁CRU	-5000
▁Del	-5001
▁Dos	-5002
▁EDT	-5003
▁EUR	-5004
▁EXP	-5005
▁EXT	-5006
▁GAF	-5007
▁GNP	-5008
▁Gra	-5009
▁HEL	-5010
▁IAE	-5011
▁IBM	-5012
▁III	-5013
▁Int	-5014
▁Jan	-5015
▁LDP	-5016
▁MED	-5017
▁Mos	-5018
▁Nig	-5019
▁Non	-5020
▁Pak	-5021
▁Per	-5022
▁Qtr	-5023
▁RET	-5024
▁RIO	-5025
▁RUM	-5026
▁Ray	-5027
▁Rot	-5028
▁SAO	-5029
▁SER	-5030
▁SPA	-5031
▁STR	-5032
▁SUP	-5033
▁Sao	-5034
▁Sci	-5035
▁Ser	-5036
▁Sil	-5037
▁Spa	-5038
▁Sri	-5039
▁TWO	-5040
▁Tak	-5041
▁WEE	-5042
▁abs	-5043
▁arg	-5044
▁esp	-5045
▁exc	-5046
▁mix	-5047
▁nar	-5048
▁opp	-5049
▁ore	-5050
▁pul	-5051
▁sel	-5052
▁sor	-5053
▁squ	-5054
▁ten	-5055
▁wid	-5056
-1986	-5057
AINST	-5058
ECAST	-5059
ERGER	-5060
ERMIN	-5061
GREEN	-5062
LARES	-5063
OPEAN	-5064
RANTS	-5065
RUARY	-5066
THEON	-5067
abric	-5068
acost	-5069
allon	-5070
arged	-5071
arish	-5072
aster	-5073
corre	-5074
eidan	-5075
elled	-5076
ellor	-5077
heson	-5078
ickel	-5079
ieter	-5080
illar	-5081
inced	-5082
inert	-5083
inhae	-5084
ippon	-5085
istan	-5086
night	-5087
nings	-5088
oenix	-5089
ojnil	-5090
oline	-5091
olles	-5092
ornex	-5093
ouses	-5094
regul	-5095
rison	-5096
surer	-5097
where	-5098
▁0.50	-5099
▁1,75	-5100
▁1.05	-5101
▁1.09	-5102
▁1.30	-5103
▁1.87	-5104
▁10.0	-5105
▁10.9	-5106
▁11.9	-5107
▁13.0	-5108
▁14.8	-5109
▁15.6	-5110
▁16.5	-5111
▁17.2	-5112
▁18.0	-5113
▁18.2	-5114
▁1980	-5115
▁2,05	-5116
▁24.7	-5117
▁26.3	-5118
▁27.1	-5119
▁5.92	-5120
▁66.5	-5121
▁79.6	-5122
▁AVER	-5123
▁Alex	-5124
▁BOND	-5125
▁Ball	-5126
▁CARG	-5127
▁CONS	-5128
▁CROP	-5129
▁Cain	-5130
▁Citi	-5131
▁City	-5132
▁Coll	-5133
▁Cord	-5134
▁DEAL	-5135
▁Dlrs	-5136
▁ENDS	-5137
▁FALL	-5138
▁FSIS	-5139
▁Good	-5140
▁Gorm	-5141
▁Hiss	-5142
▁Lazo	-5143
▁Mead	-5144
▁Most	-5145
▁PLDT	-5146
▁SALE	-5147
▁SHIP	-5148
▁SHOW	-5149
▁SOLD	-5150
▁SOME	-5151
▁SPOT	-5152
▁Sogo	-5153
▁Stad	-5154
▁Stat	-5155
▁TARG	-5156
▁Tate	-5157
▁Teck	-5158
▁Turn	-5159
▁adop	-5160
▁bars	-5161
▁beet	-5162
▁cane	-5163
▁card	-5164
▁cere	-5165
▁clar	-5166
▁coal	-5167
▁coll	-5168
▁come	-5169
▁coun	-5170
▁dire	-5171
▁done	-5172
▁drug	-5173
▁ease	-5174
▁felt	-5175
▁fost	-5176
▁gram	-5177
▁hist	-5178
▁hope	-5179
▁impl	-5180
▁laws	-5181
▁meal	-5182
▁mine	-5183
▁note	-5184
▁orig	-5185
▁pres	-5186
▁push	-5187
▁qual	-5188
▁stag	-5189
▁stay	-5190
▁ster	-5191
▁talk	-5192
▁team	-5193
▁tell	-5194
▁type	-5195
▁vote	-5196
▁wait	-5197
▁ways	-5198
▁zinc	-5199
02,000	-5200
45,000	-5201
57,000	-5202
80,000	-5203
85,000	-5204
ATIONS	-5205
EMICAL	-5206
ERMAID	-5207
UNIQUE	-5208
alling	-5209
ancies	-5210
astics	-5211
contin	-5212
ebergh	-5213
ectrum	-5214
elmann	-5215
ensive	-5216
erland	-5217
ership	-5218
iamond	-5219
isfied	-5220
lantic	-5221
omatic	-5222
opular	-5223
othing	-5224
rucial	-5225
terdam	-5226
▁1988,	-5227
▁1988.	-5228
▁2,000	-5229
▁601.7	-5230
▁614.4	-5231
▁About	-5232
▁Aires	-5233
▁BONUS	-5234
▁BRAND	-5235
▁Brito	-5236
▁Brown	-5237
▁CHINA	-5238
▁Chanc	-5239
▁Class	-5240
▁Cohen	-5241
▁Count	-5242
▁DUTCH	-5243
▁David	-5244
▁Encor	-5245
▁Eurom	-5246
▁FLEET	-5247
▁Fitzw	-5248
▁GIVEN	-5249
▁Grand	-5250
▁Great	-5251
▁Hartm	-5252
▁Hawai	-5253
▁Heiwa	-5254
▁Henry	-5255
▁Iraqi	-5256
▁Lanka	-5257
▁Mills	-5258
▁Mines	-5259
▁Other	-5260
▁PLANS	-5261
▁Pampa	-5262
▁Paulo	-5263
▁Prior	-5264
▁Reven	-5265
▁River	-5266
▁STAND	-5267
▁STEEL	-5268
▁STILL	-5269
▁STOCK	-5270
▁SUPER	-5271
▁Stand	-5272
▁TODAY	-5273
▁TREAS	-5274
▁VOTES	-5275
▁accom	-5276
▁agent	-5277
▁arbit	-5278
▁await	-5279
▁badly	-5280
▁barge	-5281
▁bonds	-5282
▁brand	-5283
▁carry	-5284
▁chart	-5285
▁comes	-5286
▁coord	-5287
▁cubic	-5288
▁dated	-5289
▁decre	-5290
▁dinar	-5291
▁downt	-5292
▁drain	-5293
▁drive	-5294
▁entit	-5295
▁equal	-5296
▁exper	-5297
▁extra	-5298
▁fiber	-5299
▁front	-5300
▁fully	-5301
▁hoped	-5302
▁house	-5303
▁insur	-5304
▁items	-5305
▁known	-5306
▁panel	-5307
▁quota	-5308
▁ratio	-5309
▁renew	-5310
▁scale	-5311
▁shift	-5312
▁ships	-5313
▁sides	-5314
▁signs	-5315
▁spent	-5316
▁surve	-5317
▁takes	-5318
▁vehic	-5319
▁zones	-5320
LINGTON	-5321
LOYMENT	-5322
PORTERS	-5323
VENTION	-5324
aration	-5325
ecially	-5326
ivalent	-5327
ounting	-5328
related	-5329
takings	-5330
tenance	-5331
▁20,000	-5332
▁46.864	-5333
▁ABBOTT	-5334
▁ADJUST	-5335
▁ASSOCI	-5336
▁Abbott	-5337
▁Agency	-5338
▁Batign	-5339
▁Berlin	-5340
▁Budget	-5341
▁Buenos	-5342
▁COMPAQ	-5343
▁COUNTR	-5344
▁Carney	-5345
▁Compaq	-5346
▁Conrac	-5347
▁Demand	-5348
▁Deputy	-5349
▁Dieter	-5350
▁Dollar	-5351
▁Dosher	-5352
▁ENERGY	-5353
▁Follow	-5354
▁LAUNCH	-5355
▁LAWSON	-5356
▁MERGER	-5357
▁MINING	-5358
▁Manila	-5359
▁Monday	-5360
▁Nippon	-5361
▁Nortek	-5362
▁OUTPUT	-5363
▁PRETAX	-5364
▁RESERV	-5365
▁Reuter	-5366
▁SERIES	-5367
▁Social	-5368
▁Trades	-5369
▁Turkey	-5370
▁Wojnil	-5371
▁altern	-5372
▁barley	-5373
▁branch	-5374
▁buffer	-5375
▁chance	-5376
▁citing	-5377
▁create	-5378
▁depend	-5379
▁formed	-5380
▁fourth	-5381
▁gallon	-5382
▁giving	-5383
▁grades	-5384
▁holder	-5385
▁itself	-5386
▁limits	-5387
▁liquor	-5388
▁lowest	-5389
▁makers	-5390
▁marked	-5391
▁modern	-5392
▁narrow	-5393
▁normal	-5394
▁orange	-5395
▁ounces	-5396
▁payout	-5397
▁prompt	-5398
▁really	-5399
▁receiv	-5400
▁retain	-5401
▁rumors	-5402
▁rupees	-5403
▁seemed	-5404
▁spread	-5405
▁spring	-5406
▁though	-5407
▁toward	-5408
▁urgent	-5409
▁valued	-5410
▁values	-5411
▁warned	-5412
▁winter	-5413
.......1	-5414
Japanese	-5415
cedented	-5416
eidanren	-5417
ilateral	-5418
izations	-5419
vertible	-5420
▁AGAINST	-5421
▁Another	-5422
▁Antwerp	-5423
▁Bahrain	-5424
▁Bowater	-5425
▁COMMENT	-5426
▁COMPANY	-5427
▁COURIER	-5428
▁Cascade	-5429
▁Cordoba	-5430
▁DOLLARS	-5431
▁Ecuador	-5432
▁Gormley	-5433
▁Hanover	-5434
▁INDONES	-5435
▁LEADERS	-5436
▁MEETING	-5437
▁Meinert	-5438
▁Mexican	-5439
▁Morocco	-5440
▁Natural	-5441
▁Phoenix	-5442
▁Results	-5443
▁SOURCES	-5444
▁Takashi	-5445
▁Townson	-5446
▁achieve	-5447
▁adverse	-5448
▁airline	-5449
▁approve	-5450
▁awarded	-5451
▁bearish	-5452
▁closely	-5453
▁compens	-5454
▁corresp	-5455
▁counter	-5456
▁covered	-5457
▁default	-5458
▁depends	-5459
▁deregul	-5460
▁entered	-5461
▁expires	-5462
▁grammes	-5463
▁hearing	-5464
▁heating	-5465
▁hostile	-5466
▁inflows	-5467
▁influen	-5468
▁intends	-5469
▁lowered	-5470
▁measure	-5471
▁medical	-5472
▁monitor	-5473
▁operate	-5474
▁opposed	-5475
▁overall	-5476
▁pension	-5477
▁poultry	-5478
▁ranging	-5479
▁reasons	-5480
▁regular	-5481
▁replace	-5482
▁setting	-5483
▁sorghum	-5484
▁strikes	-5485
▁subsidy	-5486
▁towards	-5487
▁unnamed	-5488
▁warrant	-5489
▁written	-5490
inhaeuser	-5491
umulative	-5492
▁Armacost	-5493
▁Balladur	-5494
▁Business	-5495
▁CANADIAN	-5496
▁Citibank	-5497
▁Coebergh	-5498
▁DECLARES	-5499
▁ECONOMIC	-5500
▁ELECTRIC	-5501
▁EUROPEAN	-5502
▁Earnings	-5503
▁FEBRUARY	-5504
▁FORECAST	-5505
▁Harcourt	-5506
▁Hartmarx	-5507
▁Highland	-5508
▁INTEREST	-5509
▁Interest	-5510
▁Matheson	-5511
▁Morrison	-5512
▁Pakistan	-5513
▁RAINFALL	-5514
▁RAYTHEON	-5515
▁Stauffer	-5516
▁TREASURY	-5517
▁Turnover	-5518
▁WALGREEN	-5519
▁actually	-5520
▁anything	-5521
▁averaged	-5522
▁awaiting	-5523
▁benefits	-5524
▁combined	-5525
▁compares	-5526
▁concerns	-5527
▁exercise	-5528
▁facility	-5529
▁friction	-5530
▁imported	-5531
▁institut	-5532
▁intended	-5533
▁involved	-5534
▁limiting	-5535
▁marketer	-5536
▁occurred	-5537
▁personal	-5538
▁petition	-5539
▁plastics	-5540
▁practice	-5541
▁produced	-5542
▁purposes	-5543
▁reaching	-5544
▁recovery	-5545
▁reflects	-5546
▁released	-5547
▁research	-5548
▁residual	-5549
▁soybeans	-5550
▁speaking	-5551
▁sterling	-5552
▁targeted	-5553
▁treasury	-5554
▁yielding	-5555
ricultural	-5556
▁Collander	-5557
▁Commodity	-5558
▁Exchequer	-5559
▁Fitzwater	-5560
▁Following	-5561
▁Malaysian	-5562
▁Marketing	-5563
▁Operating	-5564
▁Rotterdam	-5565
▁Technolog	-5566
▁aggregate	-5567
▁approvals	-5568
▁associate	-5569
▁confident	-5570
▁customers	-5571
▁direction	-5572
▁discontin	-5573
▁diversify	-5574
▁establish	-5575
▁exceeding	-5576
▁expanding	-5577
▁explained	-5578
▁favorable	-5579
▁foodgrain	-5580
▁intention	-5581
▁movements	-5582
▁negotiate	-5583
▁overnight	-5584
▁privately	-5585
▁published	-5586
▁recession	-5587
▁satisfied	-5588
▁something	-5589
▁takeovers	-5590
▁therefore	-5591
precedented	-5592
▁AUSTRALIAN	-5593
▁AUTHORISES	-5594
▁COMMUNIQUE	-5595
▁Chancellor	-5596
▁DISTILLERS	-5597
▁Indonesian	-5598
▁Production	-5599
▁RUBBERMAID	-5600
▁Stadelmann	-5601
▁Statistics	-5602
▁Wojnilower	-5603
▁allocation	-5604
▁attracting	-5605
▁borrowings	-5606
▁commenting	-5607
▁confidence	-5608
▁debentures	-5609
▁delegation	-5610
▁equivalent	-5611
▁especially	-5612
▁insurances	-5613
▁interested	-5614
▁intervened	-5615
▁procedures	-5616
▁repeatedly	-5617
▁resistance	-5618
▁responding	-5619
▁seasonally	-5620
▁settlement	-5621
▁sufficient	-5622
▁terminated	-5623
▁Batignolles	-5624
▁association	-5625
▁bearishness	-5626
▁concentrate	-5627
▁contributed	-5628
▁convertible	-5629
▁disposition	-5630
▁exceptional	-5631
▁fundamental	-5632
▁indications	-5633
▁interesting	-5634
▁journalists	-5635
▁maintenance	-5636
▁partnership	-5637
▁prospective	-5638
▁recommended	-5639
▁traditional	-5640
▁willingness	-5641
▁INTERVENTION	-5642
▁Presidential	-5643
▁Steinhaeuser	-5644
▁Technologies	-5645
▁appreciation	-5646
▁coordination	-5647
▁implementing	-5648
▁inflationary	-5649
▁representing	-5650
▁requirements	-5651
▁undertakings	-5652
▁investigation	-5653
▁supplementary	-5654
▁Administration	-5655
▁industrialized	-5656
▁liberalisation	-5657
/7	-5658
46	-5659
An	-5660
BT	-5661
DS	-5662
My	-5663
dl	-5664
,24	-5665
,29	-5666
,43	-5667
,61	-5668
,82	-5669
-25	-5670
-85	-5671
.15	-5672
.28	-5673
.33	-5674
.45	-5675
.73	-5676
1,8	-5677
2,4	-5678
3.5	-5679
6.5	-5680
6.9	-5681
7.1	-5682
8.8	-5683
ADE	-5684
ARM	-5685
ARS	-5686
ATH	-5687
AUL	-5688
Any	-5689
BIA	-5690
COA	-5691
Can	-5692
DEP	-5693
ECF	-5694
EMS	-5695
IED	-5696
ISS	-5697
JPM	-5698
LAS	-5699
81	-5700
OH	-5701
Sa	-5702
be	-5703
mt	-5704
▁'	-5705
,02	-5706
-14	-5707
AIT	-5708
CAN	-5709
COR	-5710
ERN	-5711
GHF	-5712
LEY	-5713
LPO	-5714
Ned	-5715
OLW	-5716
ONE	-5717
OWG	-5718
PCC	-5719
ROY	-5720
RTR	-5721
SHR	-5722
TLY	-5723
UDY	-5724
URE	-5725
VEL	-5726
YAZ	-5727
aik	-5728
aka	-5729
amm	-5730
aum	-5731
dlr	-5732
eez	-5733
eyn	-5734
hit	-5735
hod	-5736
hyl	-5737
imp	-5738
ips	-5739
irm	-5740
kon	-5741
ksw	-5742
nel	-5743
now	-5744
ops	-5745
oto	-5746
pro	-5747
rip	-5748
ucr	-5749
udi	-5750
ula	-5751
▁7,	-5752
▁87	-5753
▁98	-5754
▁Es	-5755
▁Hu	-5756
▁IR	-5757
▁MI	-5758
▁OR	-5759
▁Oy	-5760
▁We	-5761
▁jo	-5762
▁ju	-5763
▁ur	-5764
,095	-5765
,200	-5766
,300	-5767
,400	-5768
,900	-5769
-174	-5770
-480	-5771
1/16	-5772
ABIL	-5773
EIGN	-5774
ENCH	-5775
ESID	-5776
ESON	-5777
ETLY	-5778
FIVE	-5779
HOLD	-5780
IDER	-5781
INGA	-5782
ITOR	-5783
LAND	-5784
MARK	-5785
OMIN	-5786
ONIC	-5787
OTOR	-5788
OURS	-5789
PLAC	-5790
RGES	-5791
RUMP	-5792
THER	-5793
TILE	-5794
TTON	-5795
VOWG	-5796
abin	-5797
agen	-5798
agne	-5799
84	-5800
As	-5801
VE	-5802
ti	-5803
1.1	-5804
For	-5805
Our	-5806
TIN	-5807
URT	-5808
cow	-5809
dle	-5810
eut	-5811
oot	-5812
▁83	-5813
▁AB	-5814
▁AR	-5815
▁Ba	-5816
▁Be	-5817
▁Em	-5818
▁FO	-5819
▁Fi	-5820
▁Ge	-5821
▁IC	-5822
▁NL	-5823
ahap	-5824
airy	-5825
anuf	-5826
apse	-5827
arse	-5828
ayed	-5829
best	-5830
bian	-5831
cent	-5832
cern	-5833
ders	-5834
dney	-5835
ease	-5836
eeze	-5837
elih	-5838
ella	-5839
ells	-5840
ener	-5841
enex	-5842
ging	-5843
haps	-5844
iche	-5845
icro	-5846
iled	-5847
ilip	-5848
isia	-5849
isse	-5850
ites	-5851
lock	-5852
many	-5853
mely	-5854
mine	-5855
msel	-5856
olan	-5857
olds	-5858
oled	-5859
olut	-5860
opes	-5861
opol	-5862
ortg	-5863
ouss	-5864
ples	-5865
real	-5866
reek	-5867
reff	-5868
rill	-5869
rown	-5870
ruit	-5871
ryst	-5872
time	-5873
unia	-5874
wery	-5875
wick	-5876
yond	-5877
▁(19	-5878
▁(22	-5879
▁---	-5880
▁...	-5881
▁1,5	-5882
▁1/4	-5883
▁101	-5884
▁14.	-5885
▁160	-5886
▁165	-5887
▁169	-5888
▁199	-5889
▁2,8	-5890
▁20.	-5891
▁208	-5892
▁22,	-5893
▁238	-5894
▁245	-5895
▁285	-5896
▁289	-5897
▁3,0	-5898
▁3.6	-5899
07	-5900
73	-5901
78	-5902
FL	-5903
HI	-5904
PH	-5905
gn	-5906
/85	-5907
2.5	-5908
3,4	-5909
AWA	-5910
Bus	-5911
SAN	-5912
ada	-5913
adv	-5914
cas	-5915
due	-5916
eil	-5917
ela	-5918
ros	-5919
roy	-5920
ste	-5921
val	-5922
▁2.	-5923
▁Sy	-5924
▁hu	-5925
GIUM	-5926
OLID	-5927
aled	-5928
amaw	-5929
body	-5930
enth	-5931
isis	-5932
omot	-5933
rist	-5934
rita	-5935
sequ	-5936
wald	-5937
will	-5938
▁0.5	-5939
▁146	-5940
▁174	-5941
▁2.8	-5942
▁3.8	-5943
▁30.	-5944
▁350	-5945
▁365	-5946
▁4,7	-5947
▁4.3	-5948
▁4.7	-5949
▁4.8	-5950
▁477	-5951
▁5.2	-5952
▁5.5	-5953
▁5.6	-5954
▁6.2	-5955
▁6.9	-5956
▁603	-5957
▁623	-5958
▁8.3	-5959
▁800	-5960
▁AID	-5961
▁Air	-5962
▁App	-5963
▁Aut	-5964
▁Aux	-5965
▁Bre	-5966
▁CCF	-5967
▁CPO	-5968
▁Cap	-5969
▁Cos	-5970
▁DEB	-5971
▁DET	-5972
▁DIS	-5973
▁DSM	-5974
▁Des	-5975
▁Det	-5976
▁Dow	-5977
▁Duf	-5978
▁Edu	-5979
▁Ent	-5980
▁Ext	-5981
▁Far	-5982
▁Fer	-5983
▁Fut	-5984
▁Gal	-5985
▁HAN	-5986
▁HIT	-5987
▁His	-5988
▁IMP	-5989
▁ITA	-5990
▁Its	-5991
▁KIL	-5992
▁LIF	-5993
▁MAN	-5994
▁Mak	-5995
▁Mas	-5996
▁Mel	-5997
▁Mid	-5998
▁Mur	-5999
22	-6000
79	-6001
BN	-6002
MI	-6003
OV	-6004
oe	-6005
xy	-6006
,01	-6007
Med	-6008
RAC	-6009
div	-6010
eng	-6011
joy	-6012
non	-6013
▁93	-6014
▁FL	-6015
-1/8	-6016
ZINC	-6017
ancy	-6018
renc	-6019
▁125	-6020
▁141	-6021
▁15,	-6022
▁2,2	-6023
▁381	-6024
▁4,5	-6025
▁6,0	-6026
▁6,5	-6027
▁9.1	-6028
▁Dec	-6029
▁FUR	-6030
▁INT	-6031
▁ITS	-6032
▁NAB	-6033
▁NON	-6034
▁Nab	-6035
▁Nat	-6036
▁Not	-6037
▁Off	-6038
▁Ont	-6039
▁PAC	-6040
▁PMB	-6041
▁Pty	-6042
▁QUI	-6043
▁RED	-6044
▁REG	-6045
▁REM	-6046
▁REV	-6047
▁RIS	-6048
▁Rio	-6049
▁SCH	-6050
▁SIX	-6051
▁Sea	-6052
▁Spr	-6053
▁Tax	-6054
▁Tun	-6055
▁UNL	-6056
▁UPS	-6057
▁VOL	-6058
▁Vie	-6059
▁WED	-6060
▁War	-6061
▁Wed	-6062
▁Win	-6063
▁YOR	-6064
▁ans	-6065
▁aqu	-6066
▁bah	-6067
▁cat	-6068
▁dig	-6069
▁fio	-6070
▁gam	-6071
▁gmt	-6072
▁him	-6073
▁hon	-6074
▁hss	-6075
▁ide	-6076
▁inj	-6077
▁jet	-6078
▁lay	-6079
▁mal	-6080
▁pen	-6081
▁row	-6082
▁run	-6083
▁sev	-6084
▁sto	-6085
▁suc	-6086
▁tra	-6087
▁unf	-6088
▁van	-6089
▁wat	-6090
,500,	-6091
1-270	-6092
1-288	-6093
5-190	-6094
ADING	-6095
ALANC	-6096
ANGES	-6097
April	-6098
Busch	-6099
At	-6100
BR	-6101
FC	-6102
NS	-6103
To	-6104
YN	-6105
ka	-6106
.08	-6107
2,8	-6108
ITA	-6109
ict	-6110
rec	-6111
yen	-6112
▁DI	-6113
Corp	-6114
imes	-6115
medy	-6116
▁10,	-6117
▁3,8	-6118
▁6.5	-6119
▁GEC	-6120
▁Reg	-6121
▁Sun	-6122
▁bad	-6123
▁den	-6124
ELLER	-6125
ESTON	-6126
FIRMS	-6127
HESON	-6128
IKELY	-6129
IRITS	-6130
IRLPO	-6131
ITIAL	-6132
LIGHT	-6133
Myers	-6134
NIGHT	-6135
OMBIA	-6136
REASE	-6137
RIBUT	-6138
RYING	-6139
STATE	-6140
TERED	-6141
TIONS	-6142
These	-6143
VERAL	-6144
acter	-6145
aging	-6146
aints	-6147
anque	-6148
apore	-6149
arles	-6150
arson	-6151
aterp	-6152
ature	-6153
aving	-6154
compl	-6155
eared	-6156
emina	-6157
endel	-6158
ervan	-6159
eseed	-6160
geria	-6161
gling	-6162
going	-6163
hysio	-6164
icago	-6165
iding	-6166
ietly	-6167
iller	-6168
imbun	-6169
impey	-6170
inion	-6171
inkel	-6172
ipped	-6173
istol	-6174
itial	-6175
itude	-6176
light	-6177
loyds	-6178
maker	-6179
olina	-6180
organ	-6181
orida	-6182
ories	-6183
orter	-6184
ouard	-6185
point	-6186
rango	-6187
reaff	-6188
retax	-6189
riers	-6190
right	-6191
royed	-6192
ublic	-6193
ughly	-6194
upied	-6195
urate	-6196
urity	-6197
ville	-6198
▁"...	-6199
▁(198	-6200
▁1,35	-6201
▁1.01	-6202
▁1.08	-6203
▁1.11	-6204
▁1.19	-6205
▁1.22	-6206
▁1.28	-6207
▁1.77	-6208
▁1.80	-6209
▁1.83	-6210
▁1.97	-6211
▁12.2	-6212
▁12.5	-6213
▁15.0	-6214
▁15.2	-6215
▁15.4	-6216
▁18.5	-6217
▁1984	-6218
▁1990	-6219
▁20-3	-6220
▁20.3	-6221
▁20.6	-6222
▁23.7	-6223
▁26.0	-6224
▁26.2	-6225
▁29.3	-6226
▁3.65	-6227
▁30.7	-6228
▁5.85	-6229
▁7,31	-6230
▁9-13	-6231
▁Amst	-6232
▁Anhe	-6233
▁Asia	-6234
▁Bonn	-6235
▁Bram	-6236
▁CLEV	-6237
▁DATA	-6238
▁DESK	-6239
▁DROP	-6240
▁ELEV	-6241
▁Each	-6242
▁FARM	-6243
▁FEAR	-6244
▁FIRM	-6245
▁FORD	-6246
▁GETS	-6247
▁GGHF	-6248
▁HELP	-6249
▁HOLD	-6250
▁Home	-6251
▁ICCH	-6252
▁INCL	-6253
▁Inst	-6254
▁JARD	-6255
▁Just	-6256
▁Kenn	-6257
▁King	-6258
▁LPFA	-6259
▁Leon	-6260
▁Lyle	-6261
▁Lyng	-6262
▁MEAD	-6263
▁MEPC	-6264
▁MORE	-6265
▁Much	-6266
▁NEED	-6267
▁OPEC	-6268
▁PORT	-6269
▁Post	-6270
▁QTLY	-6271
▁Reyn	-6272
▁SANC	-6273
▁SERV	-6274
▁Sier	-6275
▁Sing	-6276
▁Spie	-6277
▁TECH	-6278
▁TEMP	-6279
▁Time	-6280
▁Todd	-6281
▁Vice	-6282
▁WAIT	-6283
▁WEEK	-6284
▁Wacc	-6285
▁Wave	-6286
▁With	-6287
▁YORK	-6288
▁Zond	-6289
▁baht	-6290
▁barg	-6291
▁bull	-6292
▁calm	-6293
▁came	-6294
▁ceil	-6295
▁cert	-6296
▁cold	-6297
▁core	-6298
▁crit	-6299
▁dead	-6300
▁deep	-6301
▁dest	-6302
▁draw	-6303
▁dump	-6304
▁exam	-6305
▁fair	-6306
▁fast	-6307
▁fear	-6308
▁feas	-6309
▁flat	-6310
▁flex	-6311
▁flot	-6312
▁grew	-6313
▁hurt	-6314
▁lift	-6315
▁lose	-6316
▁lucr	-6317
▁mult	-6318
▁nort	-6319
▁obst	-6320
▁once	-6321
▁peak	-6322
▁perm	-6323
▁poly	-6324
▁prop	-6325
▁pulp	-6326
▁rein	-6327
▁role	-6328
▁rout	-6329
▁sank	-6330
▁says	-6331
▁shel	-6332
▁size	-6333
▁sole	-6334
▁stop	-6335
▁text	-6336
▁trim	-6337
▁trip	-6338
▁unlo	-6339
▁upon	-6340
35,000	-6341
76,000	-6342
84,000	-6343
93,000	-6344
ANDERS	-6345
ENSION	-6346
UCTION	-6347
YAZAWA	-6348
abinet	-6349
adjust	-6350
andise	-6351
bestos	-6352
ective	-6353
ellent	-6354
gested	-6355
ground	-6356
icated	-6357
iduals	-6358
ifying	-6359
igence	-6360
imated	-6361
iovasc	-6362
ishing	-6363
ishiro	-6364
itions	-6365
jected	-6366
lebaum	-6367
lusion	-6368
manent	-6369
monton	-6370
olitan	-6371
ounded	-6372
ragers	-6373
rystal	-6374
ublein	-6375
urance	-6376
urring	-6377
▁1,000	-6378
▁15-25	-6379
▁7-3/4	-6380
▁9-3/4	-6381
▁9-7/8	-6382
▁ATLAS	-6383
▁Alber	-6384
▁Allen	-6385
▁Among	-6386
▁Arbit	-6387
▁Asher	-6388
▁BAKER	-6389
▁BANKS	-6390
▁BOOST	-6391
▁BROWN	-6392
▁Beach	-6393
▁COCOA	-6394
▁COULD	-6395
▁CRUDE	-6396
▁Calif	-6397
▁Canam	-6398
▁Cocoa	-6399
▁Court	-6400
▁Creek	-6401
▁DOMIN	-6402
▁EXPIR	-6403
▁Enron	-6404
▁Fleet	-6405
▁Ghana	-6406
▁Guard	-6407
▁HIKES	-6408
▁HOURS	-6409
▁Hopes	-6410
▁Hotel	-6411
▁Houss	-6412
▁INDIA	-6413
▁JONES	-6414
▁Lakes	-6415
▁MOTOR	-6416
▁Major	-6417
▁Manuf	-6418
▁NORTH	-6419
▁Neste	-6420
▁Nigel	-6421
▁Oreff	-6422
▁PLANT	-6423
▁Price	-6424
▁REACT	-6425
▁RUMOR	-6426
▁Ramon	-6427
▁SANTA	-6428
▁SEEKS	-6429
▁Short	-6430
▁TEXAS	-6431
▁TINTO	-6432
▁TRUMP	-6433
▁TRUST	-6434
▁Terms	-6435
▁These	-6436
▁UNEMP	-6437
▁URGES	-6438
▁Units	-6439
▁Video	-6440
▁WOOLW	-6441
▁While	-6442
▁White	-6443
▁acted	-6444
▁aimed	-6445
▁allot	-6446
▁apply	-6447
▁asset	-6448
▁brack	-6449
▁bread	-6450
▁class	-6451
▁climb	-6452
▁doesn	-6453
▁doubt	-6454
▁eased	-6455
▁emerg	-6456
▁enfor	-6457
▁enjoy	-6458
▁enter	-6459
▁entry	-6460
▁event	-6461
▁faced	-6462
▁falls	-6463
▁floor	-6464
▁fores	-6465
▁forum	-6466
▁fruit	-6467
▁frust	-6468
▁goals	-6469
▁grade	-6470
▁great	-6471
▁indiv	-6472
▁initi	-6473
▁light	-6474
▁lines	-6475
▁maker	-6476
▁micro	-6477
▁mills	-6478
▁newly	-6479
▁occas	-6480
▁parts	-6481
▁penet	-6482
▁pound	-6483
▁proxy	-6484
▁pursu	-6485
▁recon	-6486
▁refer	-6487
▁refin	-6488
▁risks	-6489
▁scand	-6490
▁sense	-6491
▁shown	-6492
▁shows	-6493
▁slump	-6494
▁spell	-6495
▁staff	-6496
▁stage	-6497
▁stagn	-6498
▁telev	-6499
▁thres	-6500
▁times	-6501
▁toler	-6502
▁trill	-6503
▁truck	-6504
▁trust	-6505
▁upper	-6506
▁urged	-6507
▁vague	-6508
▁visit	-6509
▁vital	-6510
▁wareh	-6511
ESIDENT	-6512
IRLPOOL	-6513
ORATION	-6514
centage	-6515
changes	-6516
ecutive	-6517
elihood	-6518
eptunia	-6519
ergamon	-6520
flation	-6521
general	-6522
iciency	-6523
illance	-6524
itation	-6525
iversal	-6526
kswagen	-6527
mselves	-6528
omotive	-6529
ondents	-6530
ortgage	-6531
perties	-6532
raction	-6533
renched	-6534
ressing	-6535
ression	-6536
rosiano	-6537
uminium	-6538
western	-6539
▁1-10/5	-6540
▁12-1/2	-6541
▁13-1/2	-6542
▁138.75	-6543
▁30-174	-6544
▁40,000	-6545
▁65,000	-6546
▁Arango	-6547
▁Argent	-6548
▁Associ	-6549
▁Auxton	-6550
▁BARLEY	-6551
▁BRANDS	-6552
▁Bureau	-6553
▁CHARGE	-6554
▁CONRAC	-6555
▁CONTIN	-6556
▁COTTON	-6557
▁COURSE	-6558
▁Caterp	-6559
▁Christ	-6560
▁Cotton	-6561
▁DETAIL	-6562
▁Dufour	-6563
▁Employ	-6564
▁Engine	-6565
▁FRANCE	-6566
▁FRENCH	-6567
▁George	-6568
▁HELLER	-6569
▁Harris	-6570
▁Health	-6571
▁INTERN	-6572
▁Inland	-6573
▁Labour	-6574
▁Lornex	-6575
▁Makoto	-6576
▁Mexico	-6577
▁Miller	-6578
▁Moscow	-6579
▁Naingg	-6580
▁Oldham	-6581
▁Orange	-6582
▁PARANA	-6583
▁PROPOS	-6584
▁Parent	-6585
▁Physio	-6586
▁Pretax	-6587
▁Prices	-6588
▁RECORD	-6589
▁REPLAC	-6590
▁RISING	-6591
▁Report	-6592
▁SLOWER	-6593
▁STORES	-6594
▁SYSTEM	-6595
▁Schaik	-6596
▁Steven	-6597
▁Suisse	-6598
▁Sydney	-6599
▁TARGET	-6600
▁TERMIN	-6601
▁Wendel	-6602
▁Wimpey	-6603
▁assist	-6604
▁attack	-6605
▁attend	-6606
▁became	-6607
▁beyond	-6608
▁brewer	-6609
▁broker	-6610
▁calcul	-6611
▁cereal	-6612
▁coarse	-6613
▁contam	-6614
▁conver	-6615
▁crisis	-6616
▁defend	-6617
▁dinars	-6618
▁dipped	-6619
▁extend	-6620
▁fabric	-6621
▁failed	-6622
▁forced	-6623
▁foster	-6624
▁gained	-6625
▁inside	-6626
▁intend	-6627
▁margin	-6628
▁matter	-6629
▁nickel	-6630
▁origin	-6631
▁patent	-6632
▁paying	-6633
▁potato	-6634
▁prelim	-6635
▁remedy	-6636
▁resign	-6637
▁retali	-6638
▁shared	-6639
▁stance	-6640
▁steers	-6641
▁stores	-6642
▁stream	-6643
▁strict	-6644
▁struct	-6645
▁thrust	-6646
▁trader	-6647
▁travel	-6648
▁troops	-6649
▁turned	-6650
▁uneven	-6651
▁vessel	-6652
▁weaken	-6653
▁weekly	-6654
OLIDATED	-6655
adjusted	-6656
ectively	-6657
igations	-6658
olitical	-6659
ological	-6660
owerseed	-6661
▁102,350	-6662
▁175-190	-6663
▁191-270	-6664
▁271-288	-6665
▁289-360	-6666
▁500,000	-6667
▁785,000	-6668
▁800,000	-6669
▁ACQUIRE	-6670
▁AVERAGE	-6671
▁Algeria	-6672
▁Andover	-6673
▁BELGIUM	-6674
▁Banking	-6675
▁Bramall	-6676
▁Bristol	-6677
▁CARGILL	-6678
▁CLEVITE	-6679
▁CURRENT	-6680
▁Charles	-6681
▁Chicago	-6682
▁Concern	-6683
▁Crystal	-6684
▁DEALERS	-6685
▁DESKPRO	-6686
▁Despite	-6687
▁Diamond	-6688
▁Edouard	-6689
▁Eduardo	-6690
▁Eishiro	-6691
▁Exports	-6692
▁FEDERAL	-6693
▁FOREIGN	-6694
▁FURTHER	-6695
▁Florida	-6696
▁Further	-6697
▁Futures	-6698
▁GenCorp	-6699
▁Harahap	-6700
▁INITIAL	-6701
▁Interim	-6702
▁JARDINE	-6703
▁Johnson	-6704
▁Kenneth	-6705
▁Kingdom	-6706
▁MONITOR	-6707
▁Merrill	-6708
▁NABISCO	-6709
▁Nabisco	-6710
▁OFFERED	-6711
▁Ontario	-6712
▁PACIFIC	-6713
▁Payable	-6714
▁Preston	-6715
▁QUIETLY	-6716
▁Redland	-6717
▁Roberts	-6718
▁SEVERAL	-6719
▁SPIRITS	-6720
▁Shimbun	-6721
▁TRADERS	-6722
▁TRADING	-6723
▁Tunisia	-6724
▁Vieille	-6725
▁WAITING	-6726
▁Winston	-6727
▁Without	-6728
▁acceler	-6729
▁amounts	-6730
▁applied	-6731
▁boosted	-6732
▁carried	-6733
▁centres	-6734
▁charged	-6735
▁closure	-6736
▁compete	-6737
▁consult	-6738
▁crucial	-6739
▁defense	-6740
▁divided	-6741
▁dumping	-6742
▁earning	-6743
▁emerged	-6744
▁evident	-6745
▁expired	-6746
▁extreme	-6747
▁finding	-6748
▁granted	-6749
▁heavily	-6750
▁hectare	-6751
▁hopeful	-6752
▁insurer	-6753
▁lending	-6754
▁located	-6755
▁matters	-6756
▁monopol	-6757
▁monthly	-6758
▁network	-6759
▁offices	-6760
▁opinion	-6761
▁parties	-6762
▁perhaps	-6763
▁planted	-6764
▁pledged	-6765
▁popular	-6766
▁predict	-6767
▁prepare	-6768
▁pricing	-6769
▁pushing	-6770
▁quietly	-6771
▁reacted	-6772
▁redress	-6773
▁renewed	-6774
▁reorgan	-6775
▁replied	-6776
▁reports	-6777
▁roughly	-6778
▁seventh	-6779
▁squeeze	-6780
▁stopped	-6781
▁systems	-6782
▁trouble	-6783
▁unusual	-6784
▁usually	-6785
▁virtual	-6786
▁waiting	-6787
▁weekend	-6788
▁wording	-6789
Keidanren	-6790
corrected	-6791
president	-6792
ropolitan	-6793
▁10,000/1	-6794
▁APPROVED	-6795
▁Although	-6796
▁Anheuser	-6797
▁Atlantic	-6798
▁Brothers	-6799
▁CHEMICAL	-6800
▁COLOMBIA	-6801
▁CONFIRMS	-6802
▁Carolina	-6803
▁Comstock	-6804
▁DOMINION	-6805
▁ELEVATOR	-6806
▁EXPECTED	-6807
▁Edmonton	-6808
▁Hawaiian	-6809
▁Heublein	-6810
▁Houssels	-6811
▁INCREASE	-6812
▁Johnston	-6813
▁LAUNCHES	-6814
▁MATHESON	-6815
▁MINISTRY	-6816
▁MIYAZAWA	-6817
▁Manufact	-6818
▁Montagne	-6819
▁OFFICIAL	-6820
▁Oreffice	-6821
▁Products	-6822
▁RESERVES	-6823
▁Revenues	-6824
▁Reynolds	-6825
▁SECURITY	-6826
▁Shearson	-6827
▁Sierrita	-6828
▁Sprinkel	-6829
▁Standard	-6830
▁WARRANTS	-6831
▁WORRYING	-6832
▁Waccamaw	-6833
▁accepted	-6834
▁allowing	-6835
▁apparent	-6836
▁arriving	-6837
▁attached	-6838
▁auditors	-6839
▁balances	-6840
▁barriers	-6841
▁brackets	-6842
▁carryfor	-6843
▁carrying	-6844
▁cautious	-6845
▁changing	-6846
▁chartere	-6847
▁deficits	-6848
▁downturn	-6849
▁expanded	-6850
▁exported	-6851
▁extended	-6852
▁fertilis	-6853
▁financed	-6854
▁floating	-6855
▁gasoline	-6856
▁governor	-6857
▁handling	-6858
▁happened	-6859
▁managers	-6860
▁maturity	-6861
▁moderate	-6862
▁mounting	-6863
▁normally	-6864
▁northern	-6865
▁occupied	-6866
▁operates	-6867
▁persuade	-6868
▁positive	-6869
▁province	-6870
▁quarters	-6871
▁rapeseed	-6872
▁refining	-6873
▁regional	-6874
▁resolved	-6875
▁schedule	-6876
▁selected	-6877
▁somebody	-6878
▁starting	-6879
▁supplier	-6880
▁supposed	-6881
▁tendered	-6882
▁terminal	-6883
▁transfer	-6884
▁vehicles	-6885
▁ventures	-6886
▁volatile	-6887
▁weakened	-6888
compliance	-6889
▁2,051,000	-6890
▁2,400,000	-6891
▁Applebaum	-6892
▁BRAZILIAN	-6893
▁COUNTRIES	-6894
▁DISTRIBUT	-6895
▁EXPORTERS	-6896
▁EXTENSION	-6897
▁Institute	-6898
▁Intercare	-6899
▁OVERNIGHT	-6900
▁SANCTIONS	-6901
▁SPOTLIGHT	-6902
▁Singapore	-6903
▁WHIRLPOOL	-6904
▁WOOLWORTH	-6905
▁Zondervan	-6906
▁acquiring	-6907
▁adjusting	-6908
▁amendment	-6909
▁attending	-6910
▁breakdown	-6911
▁committed	-6912
▁community	-6913
▁computers	-6914
▁convinced	-6915
▁corrected	-6916
▁destroyed	-6917
▁diligence	-6918
▁discounts	-6919
▁divisions	-6920
▁employees	-6921
▁encourage	-6922
▁excluding	-6923
▁extremely	-6924
▁flotation	-6925
▁inclusion	-6926
▁indicated	-6927
▁inventory	-6928
▁lawmakers	-6929
▁lucrative	-6930
▁operation	-6931
▁pacemaker	-6932
▁permanent	-6933
▁polyester	-6934
▁prevented	-6935
▁producing	-6936
▁questions	-6937
▁realistic	-6938
▁regarding	-6939
▁requested	-6940
▁retailing	-6941
▁sometimes	-6942
▁suggested	-6943
▁sunflower	-6944
▁suppliers	-6945
▁surpluses	-6946
▁suspended	-6947
▁sustained	-6948
▁tendering	-6949
▁threshold	-6950
▁totalling	-6951
.22........	-6952
▁ALEXANDERS	-6953
▁Ambrosiano	-6954
▁BURLINGTON	-6955
▁Commercial	-6956
▁DISTILLATE	-6957
▁Euromarket	-6958
▁INDUSTRIAL	-6959
▁INTERSTATE	-6960
▁Nainggolan	-6961
▁Philippine	-6962
▁Properties	-6963
▁Volkswagen	-6964
▁aggregates	-6965
▁aggressive	-6966
▁assumption	-6967
▁commission	-6968
▁cumulative	-6969
▁diplomatic	-6970
▁discussing	-6971
▁disruption	-6972
▁efficiency	-6973
▁electronic	-6974
▁entrenched	-6975
▁everything	-6976
▁fertilizer	-6977
▁importance	-6978
▁imposition	-6979
▁indication	-6980
▁indirectly	-6981
▁influences	-6982
▁inspectors	-6983
▁likelihood	-6984
▁maintained	-6985
▁monitoring	-6986
▁optimistic	-6987
▁percentage	-6988
▁productive	-6989
▁properties	-6990
▁responsive	-6991
▁strengthen	-6992
▁suspension	-6993
▁television	-6994
▁themselves	-6995
▁threatened	-6996
▁understand	-6997
▁volatility	-6998
▁withdrawal	-6999
▁ASSOCIATION	-7000
▁Caterpillar	-7001
▁Corporation	-7002
▁Information	-7003
▁accelerated	-7004
▁adjustments	-7005
▁agriculture	-7006
▁alternative	-7007
▁combination	-7008
▁demonstrate	-7009
▁disruptions	-7010
▁distributed	-7011
▁excessively	-7012
▁exploration	-7013
▁feasibility	-7014
▁flexibility	-7015
▁governments	-7016
▁individuals	-7017
▁instruments	-7018
▁malpractice	-7019
▁opportunity	-7020
▁preliminary	-7021
▁represented	-7022
▁resignation	-7023
▁steelmaking	-7024
▁stimulation	-7025
▁sustainable	-7026
▁ACQUISITIONS	-7027
▁CONSOLIDATED	-7028
▁Subcommittee	-7029
▁UNEMPLOYMENT	-7030
▁agricultural	-7031
▁appreciating	-7032
▁arrangements	-7033
▁attributable	-7034
▁confirmation	-7035
▁consolidated	-7036
▁construction	-7037
▁contaminated	-7038
▁deregulation	-7039
▁discontinued	-7040
▁manufacturer	-7041
▁redundancies	-7042
▁respectively	-7043
▁successfully	-7044
▁surveillance	-7045
▁unsuccessful	-7046
▁Extraordinary	-7047
▁INTERNATIONAL	-7048
▁Organizations	-7049
▁extraordinary	-7050
▁manufacturers	-7051
▁privatisation	-7052
▁unprecedented	-7053
▁communications	-7054
▁correspondents	-7055
▁unsuccessfully	-7056
▁rationalisation	-7057
/4.	-7058
06:	-7059
94.	-7060
:18	-7061
:38	-7062
>).	-7063
ABT	-7064
ACK	-7065
COM	-7066
DNS	-7067
DOW	-7068
EAV	-7069
EGN	-7070
EIA	-7071
FAC	-7072
FLT	-7073
HOD	-7074
IFF	-7075
IMF	-7076
JPI	-7077
LME	-7078
LOC	-7079
MAH	-7080
MTC	-7081
OHN	-7082
OWE	-7083
RTZ	-7084
UBL	-7085
UDE	-7086
ahn	-7087
aza	-7088
bei	-7089
bpd	-7090
fty	-7091
ike	-7092
mbH	-7093
ogg	-7094
ogn	-7095
▁07	-7096
,070	-7097
,117	-7098
,219	-7099
,75	-7100
,86	-7101
1,2	-7102
7,9	-7103
ADY	-7104
EBC	-7105
HRP	-7106
MPY	-7107
RBD	-7108
UMP	-7109
egg	-7110
oyb	-7111
,299	-7112
,379	-7113
,661	-7114
,680	-7115
,828	-7116
,896	-7117
,982	-7118
.361	-7119
/750	-7120
34.8	-7121
35.5	-7122
42.1	-7123
45/2	-7124
:06:	-7125
AEGN	-7126
AGNE	-7127
ALIF	-7128
ANCA	-7129
ANKA	-7130
ARDS	-7131
AUGH	-7132
AULT	-7133
BERG	-7134
BOAT	-7135
BURM	-7136
CLEV	-7137
DATR	-7138
FAIR	-7139
FRTR	-7140
HINS	-7141
IFFS	-7142
IMIT	-7143
INUM	-7144
IVET	-7145
LOWS	-7146
Life	-7147
MAND	-7148
OBAL	-7149
OLVE	-7150
OVES	-7151
PART	-7152
PILL	-7153
PROM	-7154
PUTE	-7155
QUIR	-7156
RDLD	-7157
RUAL	-7158
SANM	-7159
SEED	-7160
SIMP	-7161
SWHI	-7162
Sept	-7163
That	-7164
ULTS	-7165
WMPY	-7166
XHAM	-7167
Zinc	-7168
anni	-7169
anov	-7170
bane	-7171
breg	-7172
cale	-7173
cott	-7174
eget	-7175
embl	-7176
farm	-7177
gots	-7178
gram	-7179
gypt	-7180
havi	-7181
iagn	-7182
iego	-7183
ihon	-7184
izai	-7185
odka	-7186
ogen	-7187
pace	-7188
peut	-7189
raft	-7190
rata	-7191
roto	-7192
ruzz	-7193
suya	-7194
turn	-7195
ucky	-7196
urde	-7197
▁(60	-7198
▁0.3	-7199
,41	-7200
7,1	-7201
AIR	-7202
AMA	-7203
OID	-7204
THS	-7205
TLE	-7206
cks	-7207
cri	-7208
-150	-7209
AIRM	-7210
HLBB	-7211
SSEL	-7212
VOID	-7213
achs	-7214
avor	-7215
elco	-7216
enya	-7217
pson	-7218
rast	-7219
▁151	-7220
▁187	-7221
▁210	-7222
▁24,	-7223
▁240	-7224
▁257	-7225
▁259	-7226
▁265	-7227
▁27,	-7228
▁278	-7229
▁4,9	-7230
▁402	-7231
▁468	-7232
▁470	-7233
▁520	-7234
▁530	-7235
▁537	-7236
▁6,6	-7237
▁6-3	-7238
▁690	-7239
▁7.0	-7240
▁8,6	-7241
▁ADD	-7242
▁All	-7243
▁Ash	-7244
▁BAH	-7245
▁BOW	-7246
▁BRU	-7247
▁CCL	-7248
▁Doe	-7249
▁EGY	-7250
▁EQU	-7251
▁Fij	-7252
▁IMB	-7253
▁IRN	-7254
▁Jov	-7255
▁Koh	-7256
▁MIG	-7257
▁Myr	-7258
▁PAP	-7259
▁PHY	-7260
▁PIP	-7261
▁PRE	-7262
▁RAP	-7263
▁Rob	-7264
▁SCI	-7265
▁SOY	-7266
▁SPR	-7267
▁SUL	-7268
▁SUN	-7269
▁Sug	-7270
▁TIM	-7271
▁Tug	-7272
▁USG	-7273
▁USS	-7274
▁VIE	-7275
▁VUL	-7276
▁ZEN	-7277
▁Zam	-7278
▁nav	-7279
▁riy	-7280
,500-	-7281
-1/4,	-7282
.361)	-7283
1,884	-7284
2,500	-7285
6,500	-7286
ANESE	-7287
ATHER	-7288
ATRON	-7289
Burde	-7290
COUNT	-7291
CRUAL	-7292
ELINE	-7293
ELLOR	-7294
ERICA	-7295
First	-7296
HABIL	-7297
HOUSE	-7298
IFIED	-7299
Is	-7300
ta	-7301
,38	-7302
OLT	-7303
jer	-7304
▁Ko	-7305
ROCH	-7306
augh	-7307
back	-7308
flag	-7309
rawn	-7310
▁114	-7311
▁115	-7312
▁139	-7313
▁166	-7314
▁167	-7315
▁168	-7316
▁313	-7317
▁4,1	-7318
▁6,3	-7319
▁9,5	-7320
▁CAS	-7321
▁EAS	-7322
▁Hey	-7323
▁Own	-7324
▁POL	-7325
▁enh	-7326
ESTER	-7327
IMPEY	-7328
ITIES	-7329
ITTLE	-7330
IVERS	-7331
OLTEN	-7332
ORNIA	-7333
SSELS	-7334
STATA	-7335
Saver	-7336
TAGNE	-7337
WAGEN	-7338
ables	-7339
aceut	-7340
ackay	-7341
adeir	-7342
agues	-7343
aluch	-7344
alued	-7345
casts	-7346
ceded	-7347
chida	-7348
clear	-7349
eizai	-7350
ength	-7351
enret	-7352
field	-7353
grade	-7354
house	-7355
iamet	-7356
icate	-7357
ichel	-7358
idden	-7359
ieldc	-7360
igger	-7361
inese	-7362
isela	-7363
issue	-7364
ivert	-7365
jerst	-7366
leans	-7367
month	-7368
odied	-7369
order	-7370
ornia	-7371
otato	-7372
otech	-7373
ouche	-7374
ouhin	-7375
pread	-7376
ramew	-7377
rator	-7378
rence	-7379
rowns	-7380
ruzzi	-7381
sland	-7382
solid	-7383
south	-7384
terpr	-7385
trade	-7386
uckle	-7387
uesst	-7388
ufkin	-7389
umbia	-7390
unday	-7391
usses	-7392
vests	-7393
▁0.56	-7394
▁1,57	-7395
▁1.04	-7396
▁1.13	-7397
▁1.23	-7398
▁1.29	-7399
/80	-7400
6,8	-7401
7.9	-7402
All	-7403
ELR	-7404
FRA	-7405
GEC	-7406
IEL	-7407
MNB	-7408
RAD	-7409
UCT	-7410
UEL	-7411
ius	-7412
ELAY	-7413
ELRC	-7414
ULAR	-7415
VMNB	-7416
YFRA	-7417
days	-7418
irms	-7419
lict	-7420
nual	-7421
serv	-7422
ways	-7423
▁1,8	-7424
▁12,	-7425
▁13,	-7426
▁131	-7427
▁134	-7428
▁184	-7429
▁23,	-7430
▁286	-7431
▁624	-7432
▁FUT	-7433
▁IRA	-7434
▁Moh	-7435
▁Reh	-7436
▁ker	-7437
EWART	-7438
MYFRA	-7439
ayton	-7440
eanut	-7441
elter	-7442
eways	-7443
pping	-7444
ulius	-7445
▁1.33	-7446
▁1.34	-7447
▁1.35	-7448
▁1.53	-7449
▁1.64	-7450
▁1.72	-7451
▁1.82	-7452
▁1.84	-7453
▁12.8	-7454
▁13.8	-7455
▁1375	-7456
▁17,3	-7457
▁1970	-7458
▁1991	-7459
▁1996	-7460
▁2.04	-7461
▁2.07	-7462
▁2.14	-7463
▁2.20	-7464
▁2.75	-7465
▁2.79	-7466
▁2.99	-7467
▁22.8	-7468
▁23.2	-7469
▁23.9	-7470
▁2400	-7471
▁27.3	-7472
▁3,30	-7473
▁3.20	-7474
▁3.34	-7475
▁3.70	-7476
▁32.4	-7477
▁34.2	-7478
▁34.8	-7479
▁4,31	-7480
▁4,65	-7481
▁4.13	-7482
▁43.9	-7483
▁45.1	-7484
▁48.0	-7485
▁48.3	-7486
▁5-14	-7487
▁5.80	-7488
▁5.88	-7489
▁55.0	-7490
▁6,56	-7491
▁6.00	-7492
▁6.10	-7493
▁70.2	-7494
▁78.8	-7495
▁82.6	-7496
▁84.2	-7497
▁9.25	-7498
▁ATTR	-7499
CY	-7500
LA	-7501
XT	-7502
AYS	-7503
CPO	-7504
ICY	-7505
RTN	-7506
WAY	-7507
XIC	-7508
exp	-7509
ENCY	-7510
ICES	-7511
RTZL	-7512
alms	-7513
anav	-7514
anda	-7515
nown	-7516
tion	-7517
uras	-7518
▁15-	-7519
▁16,	-7520
▁20,	-7521
▁201	-7522
▁205	-7523
▁4.2	-7524
▁7.4	-7525
▁8.6	-7526
▁9.6	-7527
▁CRO	-7528
▁DAY	-7529
▁HAL	-7530
▁Pax	-7531
▁REN	-7532
▁TOP	-7533
▁Tom	-7534
▁VAL	-7535
▁cit	-7536
▁env	-7537
▁ing	-7538
ALAYS	-7539
PECTS	-7540
TRUST	-7541
URING	-7542
andid	-7543
gress	-7544
known	-7545
onged	-7546
ously	-7547
ubles	-7548
▁10.4	-7549
▁11.8	-7550
▁2.38	-7551
▁2.80	-7552
▁20.2	-7553
▁29.9	-7554
▁Airl	-7555
▁Alli	-7556
▁Also	-7557
▁Amat	-7558
▁Anch	-7559
▁BEET	-7560
▁BELL	-7561
▁BELT	-7562
▁BPCC	-7563
▁Baer	-7564
▁Blay	-7565
▁Bras	-7566
▁DOWN	-7567
▁Dean	-7568
▁Fond	-7569
▁GEOR	-7570
▁Gilg	-7571
▁Giov	-7572
▁Gott	-7573
▁Gros	-7574
▁Grow	-7575
▁HEAL	-7576
▁HIKE	-7577
▁HOME	-7578
▁Hogg	-7579
▁Hond	-7580
▁IRAN	-7581
▁IRAQ	-7582
▁IRNA	-7583
▁ITAL	-7584
▁JOHN	-7585
▁Kato	-7586
▁Lane	-7587
▁Life	-7588
▁MAKE	-7589
▁MTHS	-7590
▁Mits	-7591
▁Mons	-7592
▁Monu	-7593
▁Murr	-7594
▁OECF	-7595
▁OUTL	-7596
▁Oslo	-7597
▁PART	-7598
▁PHYS	-7599
RL	-7600
Se	-7601
.70	-7602
GRA	-7603
ROW	-7604
TRK	-7605
URS	-7606
iah	-7607
ifi	-7608
lia	-7609
str	-7610
▁9,	-7611
▁9-	-7612
▁94	-7613
.64)	-7614
ACMB	-7615
EDER	-7616
anto	-7617
aple	-7618
iana	-7619
▁14,	-7620
▁3.9	-7621
▁5.7	-7622
▁5.9	-7623
▁7.8	-7624
▁8.1	-7625
▁8.2	-7626
▁8.7	-7627
▁Kes	-7628
▁Sup	-7629
▁ign	-7630
▁voy	-7631
INGER	-7632
ailed	-7633
mable	-7634
mined	-7635
oking	-7636
opher	-7637
oston	-7638
otors	-7639
▁13.1	-7640
▁14.2	-7641
▁5-15	-7642
▁POIN	-7643
▁PROS	-7644
▁Pace	-7645
▁Pack	-7646
▁Publ	-7647
▁RHOD	-7648
▁RITE	-7649
▁ROWE	-7650
▁RULE	-7651
▁SUST	-7652
▁Soyb	-7653
▁Spec	-7654
▁Spot	-7655
▁Stan	-7656
▁THAI	-7657
▁TIME	-7658
▁TRAN	-7659
▁TRES	-7660
▁Tint	-7661
▁USSR	-7662
▁Vict	-7663
▁Volv	-7664
▁WERE	-7665
▁Whim	-7666
▁Yeut	-7667
▁aims	-7668
▁airc	-7669
▁bids	-7670
▁blue	-7671
▁blun	-7672
▁case	-7673
▁crew	-7674
▁dram	-7675
▁elev	-7676
▁emph	-7677
▁erod	-7678
▁eros	-7679
▁foot	-7680
▁goes	-7681
▁halt	-7682
▁harb	-7683
▁hike	-7684
▁huge	-7685
▁link	-7686
▁live	-7687
▁lots	-7688
▁lows	-7689
▁mist	-7690
▁none	-7691
▁pass	-7692
▁plac	-7693
▁plun	-7694
▁pure	-7695
▁room	-7696
▁seed	-7697
▁self	-7698
▁seve	-7699
FH	-7700
ERT	-7701
IDE	-7702
IPP	-7703
ITR	-7704
KEY	-7705
VUL	-7706
WTR	-7707
lse	-7708
▁(5	-7709
▁8,	-7710
▁8-	-7711
▁81	-7712
▁bn	-7713
▁gl	-7714
ASON	-7715
BWTR	-7716
ENTR	-7717
alls	-7718
ames	-7719
bour	-7720
iece	-7721
kine	-7722
ocke	-7723
▁179	-7724
▁8.4	-7725
▁Bar	-7726
▁Cam	-7727
▁Due	-7728
▁FAC	-7729
▁Imp	-7730
▁Kle	-7731
▁MER	-7732
▁Rem	-7733
▁bnl	-7734
▁rot	-7735
▁try	-7736
▁uns	-7737
amber	-7738
ource	-7739
oured	-7740
▁11.6	-7741
▁Chac	-7742
▁Else	-7743
▁Gilb	-7744
▁Holt	-7745
▁Koch	-7746
▁Rine	-7747
▁bnls	-7748
▁char	-7749
▁fire	-7750
▁game	-7751
▁kilo	-7752
▁mess	-7753
▁pell	-7754
▁stem	-7755
▁surv	-7756
▁town	-7757
▁vict	-7758
▁wish	-7759
▁your	-7760
22,000	-7761
25,000	-7762
39,000	-7763
70,000	-7764
78,000	-7765
81,000	-7766
:06:39	-7767
:38:18	-7768
AIRMAN	-7769
ASTING	-7770
ATINUM	-7771
ATURES	-7772
Banque	-7773
ENDENT	-7774
ENTRAL	-7775
ENTURE	-7776
ESTERN	-7777
ESTONE	-7778
ISHING	-7779
ISSION	-7780
LOWING	-7781
NESDAY	-7782
ONTIER	-7783
PILLAR	-7784
SIMPLY	-7785
TRONIC	-7786
Taiwan	-7787
adcast	-7788
adeira	-7789
ammers	-7790
apital	-7791
arture	-7792
bregts	-7793
ceived	-7794
dollar	-7795
eanuts	-7796
egglen	-7797
ehicle	-7798
errous	-7799
.21	-7800
.68	-7801
/75	-7802
2.4	-7803
ENE	-7804
ETR	-7805
KEL	-7806
NAT	-7807
STR	-7808
STV	-7809
tee	-7810
▁FE	-7811
▁au	-7812
▁fu	-7813
ABSB	-7814
STVT	-7815
aire	-7816
held	-7817
heme	-7818
oder	-7819
plan	-7820
puty	-7821
rend	-7822
soon	-7823
uild	-7824
uses	-7825
▁10.	-7826
▁161	-7827
▁194	-7828
▁430	-7829
▁mem	-7830
▁old	-7831
8,664	-7832
STVTF	-7833
UDENT	-7834
airer	-7835
ollis	-7836
urrey	-7837
▁1.00	-7838
▁41.5	-7839
▁9,43	-7840
▁Card	-7841
▁Ross	-7842
▁Shan	-7843
▁idea	-7844
▁reli	-7845
83,000	-7846
VENSON	-7847
ervous	-7848
havior	-7849
icable	-7850
ighted	-7851
ighter	-7852
itives	-7853
melter	-7854
member	-7855
mining	-7856
minist	-7857
mitted	-7858
obless	-7859
ondale	-7860
ourage	-7861
reason	-7862
roadly	-7863
rovers	-7864
strong	-7865
thirds	-7866
uclear	-7867
uities	-7868
ulated	-7869
ultane	-7870
ureauc	-7871
versal	-7872
▁1,750	-7873
▁1-1/8	-7874
▁1.825	-7875
▁10.05	-7876
▁101.8	-7877
▁111.7	-7878
▁12.75	-7879
▁141.9	-7880
▁147.3	-7881
▁165-1	-7882
▁169.8	-7883
▁17.27	-7884
▁17.35	-7885
▁1994.	-7886
▁2,194	-7887
▁2,450	-7888
▁2-1/2	-7889
▁238.0	-7890
▁3-3/8	-7891
▁327.1	-7892
▁35.99	-7893
▁4,200	-7894
▁6-3/8	-7895
▁8-1/2	-7896
▁834.8	-7897
▁942.1	-7898
▁AVOID	-7899
54	-7900
MR	-7901
ma	-7902
.,"	-7903
.30	-7904
HAN	-7905
HAR	-7906
SBO	-7907
agg	-7908
hol	-7909
ope	-7910
rav	-7911
tha	-7912
ulc	-7913
▁6.	-7914
AILY	-7915
INES	-7916
abri	-7917
hart	-7918
hour	-7919
main	-7920
more	-7921
than	-7922
umes	-7923
umst	-7924
▁209	-7925
▁6.4	-7926
▁Env	-7927
▁HAR	-7928
▁KOR	-7929
▁TAR	-7930
▁fee	-7931
▁lab	-7932
▁nut	-7933
After	-7934
HARES	-7935
VELOP	-7936
abria	-7937
arges	-7938
heast	-7939
iries	-7940
orest	-7941
ruing	-7942
ulcan	-7943
uming	-7944
▁19.4	-7945
▁Fact	-7946
▁HOPE	-7947
▁KORE	-7948
▁PACT	-7949
▁cast	-7950
▁feel	-7951
▁list	-7952
▁site	-7953
▁ties	-7954
▁vast	-7955
▁wary	-7956
98,000	-7957
called	-7958
mainly	-7959
panies	-7960
▁(1900	-7961
▁285.6	-7962
▁Armen	-7963
▁BOARD	-7964
▁BONDS	-7965
▁Banco	-7966
▁Basra	-7967
▁Brent	-7968
▁CABLE	-7969
▁CALIF	-7970
▁CATER	-7971
▁CHANC	-7972
▁COFAC	-7973
▁COLON	-7974
▁CONTR	-7975
▁Clark	-7976
▁Compl	-7977
▁DAILY	-7978
▁DOWNW	-7979
▁Diego	-7980
▁EPROM	-7981
▁Egypt	-7982
▁FEDER	-7983
▁FHLBB	-7984
▁FLOUR	-7985
▁Filip	-7986
▁Final	-7987
▁Firms	-7988
▁Fondi	-7989
▁GAINS	-7990
▁GASOL	-7991
▁Gelco	-7992
▁Goria	-7993
▁Grace	-7994
▁Gross	-7995
▁Hebei	-7996
▁Henan	-7997
▁Human	-7998
▁IMPRO	-7999
11	-8000
DR	-8001
ARE	-8002
ERR	-8003
ICH	-8004
ONG	-8005
RXH	-8006
ege	-8007
ero	-8008
irr	-8009
▁HO	-8010
▁Pe	-8011
▁aw	-8012
,109	-8013
CARE	-8014
arks	-8015
elle	-8016
iere	-8017
iron	-8018
oked	-8019
▁126	-8020
▁195	-8021
▁2.6	-8022
▁21,	-8023
▁269	-8024
▁Bri	-8025
▁Fre	-8026
▁PON	-8027
▁Run	-8028
▁enl	-8029
▁saf	-8030
IGHTS	-8031
ashaw	-8032
atter	-8033
egean	-8034
embla	-8035
erson	-8036
evest	-8037
igest	-8038
inate	-8039
union	-8040
users	-8041
▁1.55	-8042
▁74,1	-8043
▁Aero	-8044
▁DEBT	-8045
▁LONG	-8046
▁MEAT	-8047
▁Prov	-8048
▁anim	-8049
▁mild	-8050
▁mill	-8051
▁park	-8052
▁poll	-8053
▁rank	-8054
32,000	-8055
ASTERN	-8056
ackens	-8057
esting	-8058
orries	-8059
raints	-8060
shares	-8061
▁188.8	-8062
▁635.5	-8063
▁INDEP	-8064
▁KILOS	-8065
▁Klein	-8066
▁LANKA	-8067
▁LIFTS	-8068
▁LIMIT	-8069
▁LONDR	-8070
▁Labor	-8071
▁Locke	-8072
▁MARKS	-8073
▁MOVES	-8074
▁Maize	-8075
▁Manac	-8076
▁Minor	-8077
▁Money	-8078
▁Mykon	-8079
▁POINT	-8080
▁Parts	-8081
▁Paxar	-8082
▁Peter	-8083
▁Pipel	-8084
▁Plaza	-8085
▁RANGE	-8086
▁Regul	-8087
▁Sachs	-8088
▁Saleh	-8089
▁Salom	-8090
▁Saudi	-8091
▁Serre	-8092
▁Simon	-8093
▁Sugar	-8094
▁TELEC	-8095
▁THERE	-8096
▁Theod	-8097
▁Tinto	-8098
▁VIEIL	-8099
,35	-8100
,52	-8101
-27	-8102
00)	-8103
30)	-8104
OIL	-8105
isp	-8106
urf	-8107
▁3,	-8108
▁DO	-8109
▁SW	-8110
aria	-8111
isms	-8112
next	-8113
pane	-8114
▁226	-8115
▁450	-8116
▁7,9	-8117
▁9.4	-8118
▁Cie	-8119
▁Got	-8120
▁Now	-8121
▁WMC	-8122
▁cos	-8123
▁dem	-8124
▁got	-8125
TONNE	-8126
ostic	-8127
state	-8128
still	-8129
▁1,00	-8130
▁14.1	-8131
▁3,00	-8132
▁58.7	-8133
▁Cont	-8134
▁Fiji	-8135
▁Main	-8136
▁Myrt	-8137
▁STER	-8138
▁TELE	-8139
▁cosm	-8140
▁edge	-8141
▁poin	-8142
▁sing	-8143
▁thus	-8144
▁tour	-8145
roving	-8146
▁226.4	-8147
▁603.4	-8148
▁Based	-8149
▁EGYPT	-8150
▁EXXON	-8151
▁Louis	-8152
▁VOLKS	-8153
▁Volvo	-8154
▁WOULD	-8155
▁Wales	-8156
▁Where	-8157
▁Which	-8158
▁Zenex	-8159
▁avoid	-8160
▁aware	-8161
▁beans	-8162
▁blown	-8163
▁bring	-8164
▁broke	-8165
▁campa	-8166
▁cheap	-8167
▁chick	-8168
▁chips	-8169
▁cited	-8170
▁colle	-8171
▁compr	-8172
▁crash	-8173
▁curbs	-8174
▁dairy	-8175
▁democ	-8176
▁disch	-8177
▁ethyl	-8178
▁exagg	-8179
▁examp	-8180
▁expir	-8181
▁expos	-8182
▁faces	-8183
▁fewer	-8184
▁gener	-8185
▁heads	-8186
▁hefty	-8187
▁hotel	-8188
▁hours	-8189
▁ident	-8190
▁inade	-8191
▁index	-8192
▁influ	-8193
▁injun	-8194
▁jetty	-8195
▁looks	-8196
▁makes	-8197
▁match	-8198
▁miles	-8199
63	-8200
7)	-8201
NT	-8202
.71	-8203
elm	-8204
erf	-8205
lys	-8206
pts	-8207
vey	-8208
ych	-8209
▁BD	-8210
▁Bi	-8211
▁ul	-8212
▁ut	-8213
ader	-8214
arel	-8215
onut	-8216
spec	-8217
sych	-8218
west	-8219
▁16.	-8220
▁270	-8221
▁320	-8222
▁9.3	-8223
▁Ers	-8224
▁Ham	-8225
▁ONE	-8226
▁gin	-8227
▁ham	-8228
▁hrs	-8229
▁ple	-8230
OVERY	-8231
cepts	-8232
elmut	-8233
erfan	-8234
itter	-8235
lysis	-8236
▁1983	-8237
▁21.9	-8238
▁Hill	-8239
▁Masb	-8240
▁PHIL	-8241
▁Ster	-8242
▁door	-8243
▁prof	-8244
▁seem	-8245
ecting	-8246
oconut	-8247
season	-8248
stocks	-8249
▁5,800	-8250
▁Chaco	-8251
▁Nihon	-8252
▁Switz	-8253
▁flows	-8254
▁motor	-8255
▁naval	-8256
▁outfl	-8257
▁party	-8258
▁peset	-8259
▁pharm	-8260
▁plent	-8261
▁prime	-8262
▁prote	-8263
▁psych	-8264
▁quant	-8265
▁query	-8266
▁recou	-8267
▁redee	-8268
▁reply	-8269
▁resum	-8270
▁reval	-8271
▁ringg	-8272
▁rules	-8273
▁rumor	-8274
▁scept	-8275
▁seems	-8276
▁sheet	-8277
▁shelf	-8278
▁sidel	-8279
▁solut	-8280
▁solve	-8281
▁spend	-8282
▁steer	-8283
▁stuck	-8284
▁suits	-8285
▁tempt	-8286
▁theme	-8287
▁train	-8288
▁uncer	-8289
▁unlim	-8290
▁using	-8291
▁valid	-8292
▁veget	-8293
▁video	-8294
▁vodka	-8295
▁waste	-8296
▁water	-8297
▁weigh	-8298
▁words	-8299
BLE	-8300
CAT	-8301
mln	-8302
ubb	-8303
ush	-8304
▁Aq	-8305
▁HR	-8306
▁MA	-8307
▁MM	-8308
▁Mo	-8309
▁ow	-8310
road	-8311
wing	-8312
▁206	-8313
▁633	-8314
▁900	-8315
▁Dar	-8316
▁FOL	-8317
▁HRW	-8318
▁Key	-8319
▁MAJ	-8320
▁Sat	-8321
▁TBN	-8322
▁TOK	-8323
▁ang	-8324
▁hal	-8325
▁lit	-8326
amuel	-8327
ashid	-8328
ement	-8329
▁1.20	-8330
▁1982	-8331
▁1989	-8332
▁25.8	-8333
▁26.5	-8334
▁42.4	-8335
▁Cond	-8336
▁Kent	-8337
▁Marc	-8338
▁Silv	-8339
▁Step	-8340
▁TOKY	-8341
▁ball	-8342
▁heed	-8343
▁hous	-8344
▁owed	-8345
▁pull	-8346
▁read	-8347
▁roll	-8348
▁semi	-8349
castle	-8350
rapeut	-8351
verage	-8352
▁233.9	-8353
▁Brace	-8354
▁COAST	-8355
▁HOUSE	-8356
▁MAJOR	-8357
▁TOKYO	-8358
▁Trans	-8359
▁happy	-8360
▁thing	-8361
▁worry	-8362
▁worse	-8363
ACCRUAL	-8364
AINABLE	-8365
AKEOVER	-8366
ALANCES	-8367
ALAYSIA	-8368
AMERICA	-8369
Company	-8370
Ferrous	-8371
GESTONE	-8372
HABILIT	-8373
HOLDERS	-8374
IVERSAL	-8375
Nothing	-8376
PECTION	-8377
PERTIES	-8378
QUIRIES	-8379
akeover	-8380
anovich	-8381
attered	-8382
aughter	-8383
broadly	-8384
cluding	-8385
ecialty	-8386
enrette	-8387
esigned	-8388
essment	-8389
gestone	-8390
henburg	-8391
idental	-8392
ideways	-8393
imposed	-8394
isphere	-8395
iveness	-8396
jerstad	-8397
liament	-8398
monella	-8399
29	-8400
CL	-8401
Pr	-8402
RI	-8403
SK	-8404
ko	-8405
9.0	-8406
9.4	-8407
Lom	-8408
May	-8409
aur	-8410
ena	-8411
ett	-8412
isk	-8413
▁GL	-8414
,924	-8415
31,3	-8416
IONS	-8417
aves	-8418
omen	-8419
ques	-8420
took	-8421
▁137	-8422
▁AIR	-8423
▁BUT	-8424
▁Bor	-8425
▁Ret	-8426
▁SRI	-8427
▁fat	-8428
▁ill	-8429
ISION	-8430
ently	-8431
icion	-8432
udden	-8433
urers	-8434
▁1.16	-8435
▁38.5	-8436
▁8-15	-8437
▁GmbH	-8438
▁Mths	-8439
▁PALL	-8440
▁PROD	-8441
▁Tech	-8442
▁When	-8443
▁bold	-8444
eeable	-8445
iances	-8446
ponent	-8447
racies	-8448
▁26.50	-8449
▁729.0	-8450
▁Denko	-8451
▁Kenya	-8452
▁Lynch	-8453
▁mines	-8454
▁occur	-8455
▁risky	-8456
▁women	-8457
ognized	-8458
panying	-8459
quiries	-8460
rolysis	-8461
roversy	-8462
smelter	-8463
ultants	-8464
vertown	-8465
viously	-8466
▁12,500	-8467
▁145.25	-8468
▁15,000	-8469
▁16,000	-8470
▁16-1/2	-8471
▁25,000	-8472
▁35,000	-8473
▁37,800	-8474
▁75,000	-8475
▁90,000	-8476
▁ACTION	-8477
▁Amatil	-8478
▁BOOSTS	-8479
▁BURMAH	-8480
▁BUYOUT	-8481
▁Baluch	-8482
▁Bashaw	-8483
▁Boston	-8484
▁Button	-8485
▁CALLED	-8486
▁Canion	-8487
▁Cannon	-8488
▁Centre	-8489
▁Coffee	-8490
▁Cooper	-8491
▁DATRON	-8492
▁DEMAND	-8493
▁Digest	-8494
▁During	-8495
▁Easter	-8496
▁Except	-8497
▁Export	-8498
▁Fieldc	-8499
02	-8500
40	-8501
41	-8502
8)	-8503
HB	-8504
Sp	-8505
kg	-8506
-19	-8507
ETZ	-8508
Oct	-8509
aro	-8510
der	-8511
hes	-8512
ont	-8513
▁76	-8514
▁IV	-8515
▁my	-8516
,387	-8517
,391	-8518
Pond	-8519
VEST	-8520
West	-8521
ugal	-8522
what	-8523
▁128	-8524
▁274	-8525
▁550	-8526
▁600	-8527
▁Cor	-8528
▁DEN	-8529
▁JUN	-8530
▁Ned	-8531
▁Rod	-8532
▁WAS	-8533
▁cli	-8534
▁vac	-8535
arity	-8536
arked	-8537
board	-8538
ience	-8539
▁3.50	-8540
▁Dave	-8541
▁PUBL	-8542
▁QUAL	-8543
▁Swed	-8544
▁bott	-8545
▁cars	-8546
▁deat	-8547
▁perf	-8548
▁23.25	-8549
▁365.7	-8550
▁7-1/2	-8551
▁Three	-8552
▁aided	-8553
▁crews	-8554
▁death	-8555
▁palms	-8556
▁riyal	-8557
▁uncon	-8558
▁watch	-8559
ategory	-8560
lective	-8561
▁10,000	-8562
▁52,500	-8563
▁Aegean	-8564
▁Anchor	-8565
▁Brasil	-8566
▁DEPART	-8567
▁GEORGE	-8568
▁GLOBAL	-8569
▁Gemina	-8570
▁Gerard	-8571
▁Gilbey	-8572
▁Gisela	-8573
▁HEALTH	-8574
▁Hamley	-8575
▁Helmut	-8576
▁Heyman	-8577
▁Humana	-8578
▁INSIDE	-8579
▁ISSUES	-8580
▁Island	-8581
▁Jouhin	-8582
▁Julius	-8583
▁Keizai	-8584
▁Kembla	-8585
▁Kleinw	-8586
▁Korean	-8587
▁LITTLE	-8588
▁LOSSES	-8589
▁Lloyds	-8590
▁Lufkin	-8591
▁MIGUEL	-8592
▁Mackay	-8593
▁Marlin	-8594
▁Michel	-8595
▁Motors	-8596
▁Murray	-8597
▁Myrtle	-8598
▁NatNed	-8599
3)	-8600
>'	-8601
?"	-8602
CX	-8603
DD	-8604
EK	-8605
IZ	-8606
TC	-8607
WS	-8608
▁.	-8609
.81	-8610
een	-8611
nut	-8612
oli	-8613
▁3.	-8614
▁Qu	-8615
ENDS	-8616
ICCH	-8617
ISON	-8618
SSSS	-8619
ache	-8620
acts	-8621
five	-8622
week	-8623
▁(13	-8624
▁4,8	-8625
▁876	-8626
▁ANT	-8627
▁SET	-8628
▁Sim	-8629
▁Sul	-8630
▁Tan	-8631
▁das	-8632
▁ink	-8633
▁ins	-8634
▁vig	-8635
early	-8636
sider	-8637
▁11.5	-8638
▁18.9	-8639
▁7.97	-8640
▁ANTI	-8641
▁RENT	-8642
▁VICE	-8643
▁wing	-8644
▁Clear	-8645
▁DELAY	-8646
▁KOREA	-8647
▁avert	-8648
▁quite	-8649
▁solid	-8650
rically	-8651
▁Oswald	-8652
▁Output	-8653
▁Pettee	-8654
▁Postal	-8655
▁Potato	-8656
▁RAPESE	-8657
▁REASON	-8658
▁REMAIN	-8659
▁RETURN	-8660
▁REXHAM	-8661
▁Reader	-8662
▁Robert	-8663
▁SCHLES	-8664
▁STAKES	-8665
▁STEADY	-8666
▁STEERS	-8667
▁STRATA	-8668
▁SUPPLY	-8669
▁Safety	-8670
▁Samuel	-8671
▁Silvia	-8672
▁Source	-8673
▁Strata	-8674
▁Sunday	-8675
▁Surrey	-8676
▁Tanaka	-8677
▁Touche	-8678
▁UNITED	-8679
▁Uchida	-8680
▁VULCAN	-8681
▁Vulcan	-8682
▁WIMPEY	-8683
▁Witter	-8684
▁abroad	-8685
▁abuses	-8686
▁active	-8687
▁adhere	-8688
▁advers	-8689
▁advert	-8690
▁affair	-8691
▁affili	-8692
▁allows	-8693
▁always	-8694
▁answer	-8695
▁aquire	-8696
▁assume	-8697
▁assure	-8698
▁backed	-8699
GA	-8700
Ph	-8701
Sh	-8702
cf	-8703
ki	-8704
ns	-8705
rm	-8706
uy	-8707
BRO	-8708
IMS	-8709
Ind	-8710
KER	-8711
LDP	-8712
NSW	-8713
Now	-8714
You	-8715
cut	-8716
oma	-8717
▁UK	-8718
What	-8719
atin	-8720
chip	-8721
free	-8722
▁178	-8723
▁28,	-8724
▁596	-8725
▁DIW	-8726
▁EMP	-8727
▁End	-8728
▁FID	-8729
▁PER	-8730
▁hot	-8731
▁mcf	-8732
▁yes	-8733
(0.65	-8734
World	-8735
ioned	-8736
ivity	-8737
ybody	-8738
▁2.58	-8739
▁3,15	-8740
▁Bill	-8741
▁Cert	-8742
▁Esso	-8743
▁FOOD	-8744
▁LAST	-8745
▁Roma	-8746
▁ends	-8747
71,000	-8748
illate	-8749
veston	-8750
▁1,491	-8751
▁3,000	-8752
▁REDUC	-8753
▁alone	-8754
▁diagn	-8755
▁needs	-8756
▁phase	-8757
▁rises	-8758
OURABLE	-8759
▁27,000	-8760
▁COFACE	-8761
▁Clarke	-8762
▁POLICY	-8763
▁batter	-8764
▁behalf	-8765
▁boards	-8766
▁brands	-8767
▁buyout	-8768
▁candid	-8769
▁cattle	-8770
▁center	-8771
▁centre	-8772
▁claims	-8773
▁climbs	-8774
▁closer	-8775
▁combat	-8776
▁compar	-8777
▁cosmet	-8778
▁critic	-8779
▁crowns	-8780
▁dashed	-8781
▁debits	-8782
▁decade	-8783
▁denied	-8784
▁deputy	-8785
▁desire	-8786
▁diamet	-8787
▁disadv	-8788
▁divert	-8789
▁domest	-8790
▁domino	-8791
▁dramat	-8792
▁easily	-8793
▁emphas	-8794
▁eroded	-8795
▁exclus	-8796
▁expiry	-8797
▁explan	-8798
▁fairer	-8799
▁fallen	-8800
▁faster	-8801
▁feared	-8802
▁fixing	-8803
▁flavor	-8804
▁formal	-8805
▁framew	-8806
▁gaming	-8807
▁gasoil	-8808
▁geared	-8809
▁grains	-8810
▁guesst	-8811
▁happen	-8812
▁harbor	-8813
▁hardly	-8814
▁histor	-8815
▁indeed	-8816
▁ingots	-8817
▁inject	-8818
▁intens	-8819
▁joined	-8820
▁juices	-8821
▁jumped	-8822
▁lender	-8823
▁length	-8824
▁liabil	-8825
▁lifted	-8826
▁linked	-8827
▁looked	-8828
▁merged	-8829
▁metals	-8830
▁method	-8831
▁middle	-8832
▁mining	-8833
▁mostly	-8834
▁notice	-8835
▁noting	-8836
▁obstac	-8837
▁option	-8838
▁others	-8839
▁owners	-8840
▁partly	-8841
▁permit	-8842
▁please	-8843
▁points	-8844
▁poised	-8845
▁pooled	-8846
▁posted	-8847
▁priced	-8848
▁proved	-8849
▁purees	-8850
▁quotas	-8851
▁reform	-8852
▁rupiah	-8853
▁safety	-8854
▁scheme	-8855
▁scient	-8856
▁served	-8857
▁settle	-8858
▁severe	-8859
▁shifts	-8860
▁single	-8861
▁slowly	-8862
▁solved	-8863
▁stakes	-8864
▁staple	-8865
▁strike	-8866
▁summit	-8867
▁timber	-8868
▁tomato	-8869
▁tonner	-8870
▁trends	-8871
▁unable	-8872
▁underv	-8873
▁unions	-8874
▁unspec	-8875
▁upturn	-8876
▁urging	-8877
▁weight	-8878
▁widely	-8879
▁worded	-8880
▁wouldn	-8881
▁yields	-8882
,387,000	-8883
,700,000	-8884
45/2,070	-8885
Anything	-8886
Burdekin	-8887
IBUTABLE	-8888
Neptunia	-8889
dividend	-8890
erlanden	-8891
erospace	-8892
ervation	-8893
expected	-8894
ioration	-8895
iversity	-8896
quarters	-8897
rapeutic	-8898
spection	-8899
stressed	-8900
weighted	-8901
▁130,000	-8902
▁140-150	-8903
▁150,000	-8904
▁162,000	-8905
▁18,500,	-8906
▁1984/85	-8907
▁20,000,	-8908
▁20-30/4	-8909
▁206,000	-8910
▁450,000	-8911
▁505,000	-8912
▁609,000	-8913
▁896,000	-8914
▁9-11/16	-8915
▁9-13/16	-8916
▁900,000	-8917
▁ACCOUNT	-8918
▁ADJUSTS	-8919
▁AUCTION	-8920
▁African	-8921
▁Ambrose	-8922
▁BANKERS	-8923
▁BOWATER	-8924
▁Bancorp	-8925
▁CENTRAL	-8926
▁CHANGES	-8927
▁Chinese	-8928
▁Clayton	-8929
▁Coconut	-8930
▁Comanav	-8931
▁Country	-8932
▁DETAILS	-8933
▁DEVELOP	-8934
▁DISPUTE	-8935
▁Demands	-8936
▁Denmark	-8937
▁EASTERN	-8938
▁ELECTRO	-8939
▁ENTERED	-8940
▁EXPIRED	-8941
▁Engines	-8942
▁Enterpr	-8943
▁Envases	-8944
▁Erskine	-8945
▁FREIGHT	-8946
▁FUTURES	-8947
▁Finally	-8948
▁Finland	-8949
▁Gilgore	-8950
▁Goldman	-8951
▁HANOVER	-8952
▁HEATING	-8953
▁Holding	-8954
▁INCLUDE	-8955
▁JANUARY	-8956
▁Justice	-8957
▁Keswick	-8958
▁LOADING	-8959
▁Lammers	-8960
▁Leonard	-8961
▁MARINGA	-8962
▁MAYFAIR	-8963
▁MEDICAL	-8964
▁Masbate	-8965
▁Matsuya	-8966
▁Midland	-8967
▁Orleans	-8968
▁PARTIES	-8969
▁Payment	-8970
▁Program	-8971
▁Project	-8972
▁REGULAR	-8973
▁REPORTS	-8974
▁RESULTS	-8975
▁Rehabil	-8976
▁Remarks	-8977
▁SEEKING	-8978
▁SHARPLY	-8979
▁STEWART	-8980
▁STOLTEN	-8981
▁SYSTEMS	-8982
▁Salomon	-8983
▁Shortly	-8984
▁Sorghum	-8985
▁Soybean	-8986
▁Stanley	-8987
▁Stevens	-8988
▁Subroto	-8989
▁TALKING	-8990
▁TEXTILE	-8991
▁Theodor	-8992
▁Thomson	-8993
▁VIEILLE	-8994
▁Vehicle	-8995
▁WEATHER	-8996
▁Yeutter	-8997
▁Zambian	-8998
▁accepts	-8999
▁adopted	-9000
▁advance	-9001
▁advised	-9002
▁amended	-9003
▁apparel	-9004
▁appoint	-9005
▁arrival	-9006
▁arrived	-9007
▁auction	-9008
▁barring	-9009
▁booming	-9010
▁brewery	-9011
▁briefly	-9012
▁bullish	-9013
▁buoyant	-9014
▁bureauc	-9015
▁cabinet	-9016
▁calling	-9017
▁carries	-9018
▁casting	-9019
▁ceiling	-9020
▁cheques	-9021
▁chicken	-9022
▁clarify	-9023
▁clients	-9024
▁closing	-9025
▁complex	-9026
▁concept	-9027
▁conduct	-9028
▁consequ	-9029
▁courier	-9030
▁dealing	-9031
▁declare	-9032
▁delayed	-9033
▁demands	-9034
▁discipl	-9035
▁disease	-9036
▁disturb	-9037
▁doubled	-9038
▁drawing	-9039
▁driving	-9040
▁drought	-9041
▁eastern	-9042
▁effects	-9043
▁element	-9044
▁enjoyed	-9045
▁equally	-9046
▁erosion	-9047
▁example	-9048
▁faction	-9049
▁falling	-9050
▁finally	-9051
▁flowing	-9052
▁focused	-9053
▁forcing	-9054
▁formula	-9055
▁fuelled	-9056
▁getting	-9057
▁gradual	-9058
▁grounds	-9059
▁healthy	-9060
▁history	-9061
▁hovered	-9062
▁install	-9063
▁intense	-9064
▁interim	-9065
▁january	-9066
▁jobless	-9067
▁jointly	-9068
▁knuckle	-9069
▁laydays	-9070
▁leaving	-9071
▁lenders	-9072
▁locally	-9073
▁lorries	-9074
▁matures	-9075
▁meaning	-9076
▁mention	-9077
▁message	-9078
▁modific	-9079
▁monsoon	-9080
▁nervous	-9081
▁obvious	-9082
▁orderly	-9083
▁outflow	-9084
▁overdue	-9085
▁peanuts	-9086
▁pellets	-9087
▁placing	-9088
▁players	-9089
▁pleased	-9090
▁pledges	-9091
▁pointed	-9092
▁poorest	-9093
▁promote	-9094
▁propane	-9095
▁protein	-9096
▁purpose	-9097
▁receive	-9098
▁reduces	-9099
▁remains	-9100
▁repurch	-9101
▁restore	-9102
▁reviews	-9103
▁revived	-9104
▁ringgit	-9105
▁roubles	-9106
▁rumours	-9107
▁scandal	-9108
▁secured	-9109
▁settled	-9110
▁showing	-9111
▁specify	-9112
▁station	-9113
▁storing	-9114
▁suspend	-9115
▁talking	-9116
▁testing	-9117
▁tighten	-9118
▁tighter	-9119
▁tourism	-9120
▁trigger	-9121
▁trusses	-9122
▁version	-9123
▁vessels	-9124
▁western	-9125
.......12	-9126
:06:39.06	-9127
:38:18.81	-9128
ASHINGTON	-9129
PRESIDENT	-9130
aceutical	-9131
acterized	-9132
idespread	-9133
oderately	-9134
olidation	-9135
operating	-9136
recurring	-9137
umstances	-9138
▁1985/86.	-9139
▁200,000,	-9140
▁ACQUIRED	-9141
▁ACQUIRES	-9142
▁ADJUSTED	-9143
▁APPROVAL	-9144
▁AVOIDING	-9145
▁Abegglen	-9146
▁Advisory	-9147
▁Airlines	-9148
▁Alliance	-9149
▁Avondale	-9150
▁BRUSSELS	-9151
▁Blaylock	-9152
▁CHAIRMAN	-9153
▁COLONIAL	-9154
▁COMPUTER	-9155
▁CURRENCY	-9156
▁Calabria	-9157
▁Clearing	-9158
▁Columbia	-9159
▁Comments	-9160
▁FREIGHTS	-9161
▁FRONTIER	-9162
▁Ferruzzi	-9163
▁Freights	-9164
▁GASOLINE	-9165
▁Giovanni	-9166
▁Gottardo	-9167
▁Governor	-9168
▁Honduras	-9169
▁Industri	-9170
▁Iranians	-9171
▁Jenrette	-9172
▁LONDRINA	-9173
▁MALAYSIA	-9174
▁MINISTER	-9175
▁MONTAGNE	-9176
▁Mainichi	-9177
▁MedFirst	-9178
▁Merchant	-9179
▁Monsanto	-9180
▁Northern	-9181
▁Offshore	-9182
▁PIPELINE	-9183
▁PLATINUM	-9184
▁PORTABLE	-9185
▁Pergamon	-9186
▁Pipeline	-9187
▁Planning	-9188
▁Portugal	-9189
▁Position	-9190
▁RAPESEED	-9191
▁RECORDED	-9192
▁RECOVERY	-9193
▁Republic	-9194
▁Research	-9195
▁Rinehart	-9196
▁SERVICES	-9197
▁SHOWBOAT	-9198
▁STERIVET	-9199
▁Smithson	-9200
▁Spectrum	-9201
▁Sterling	-9202
▁Thompson	-9203
▁UNLIKELY	-9204
▁Victoria	-9205
▁accruing	-9206
▁accurate	-9207
▁administ	-9208
▁advanced	-9209
▁affirmed	-9210
▁aircraft	-9211
▁allotted	-9212
▁amounted	-9213
▁applying	-9214
▁assuming	-9215
▁attitude	-9216
▁balanced	-9217
▁behavior	-9218
▁budgeted	-9219
▁buoyancy	-9220
▁campaign	-9221
▁category	-9222
▁certific	-9223
▁clothing	-9224
▁collapse	-9225
▁computer	-9226
▁conceded	-9227
▁confined	-9228
▁congress	-9229
▁contacts	-9230
▁contrast	-9231
▁deadline	-9232
▁declines	-9233
▁decrease	-9234
▁defended	-9235
▁delegate	-9236
▁demonstr	-9237
▁detected	-9238
▁directed	-9239
▁discover	-9240
▁disposed	-9241
▁disputes	-9242
▁divested	-9243
▁downside	-9244
▁elements	-9245
▁embodied	-9246
▁enforced	-9247
▁enlarged	-9248
▁equities	-9249
▁evidence	-9250
▁excluded	-9251
▁exposure	-9252
▁favoured	-9253
▁goodwill	-9254
▁harvests	-9255
▁holdings	-9256
▁incoming	-9257
▁incurred	-9258
▁indicate	-9259
▁internal	-9260
▁intitial	-9261
▁measured	-9262
▁minority	-9263
▁momentum	-9264
▁mortgage	-9265
▁occasion	-9266
▁oilfield	-9267
▁operated	-9268
▁optimism	-9269
▁outgoing	-9270
▁outright	-9271
▁planting	-9272
▁potatoes	-9273
▁pressing	-9274
▁probable	-9275
▁produces	-9276
▁promised	-9277
▁promptly	-9278
▁properly	-9279
▁property	-9280
▁proposes	-9281
▁pursuant	-9282
▁rainfall	-9283
▁ratified	-9284
▁reaffirm	-9285
▁reconven	-9286
▁recorded	-9287
▁refinery	-9288
▁reinvest	-9289
▁rejected	-9290
▁replaced	-9291
▁resigned	-9292
▁retained	-9293
▁reversal	-9294
▁sideways	-9295
▁smelting	-9296
▁sometime	-9297
▁somewhat	-9298
▁specific	-9299
▁standing	-9300
▁steering	-9301
▁strength	-9302
▁strictly	-9303
▁stronger	-9304
▁suitable	-9305
▁superfan	-9306
▁supplied	-9307
▁training	-9308
▁trillion	-9309
▁undercut	-9310
▁underest	-9311
▁unloaded	-9312
▁violated	-9313
▁visiting	-9314
▁writeoff	-9315
..........	-9316
iovascular	-9317
irrigation	-9318
solidarity	-9319
▁1,358,000	-9320
▁1,571,000	-9321
▁2,476,000	-9322
▁2,602,000	-9323
▁3,150,000	-9324
▁3,309,000	-9325
▁4,656,000	-9326
▁4,957,000	-9327
▁5,900,000	-9328
▁8,129,000	-9329
▁According	-9330
▁Argentine	-9331
▁Chemicals	-9332
▁Component	-9333
▁Continent	-9334
▁Democrats	-9335
▁Donaldson	-9336
▁ENQUIRIES	-9337
▁Elsewhere	-9338
▁Entourage	-9339
▁Exchanges	-9340
▁FEDERATED	-9341
▁FOLLOWING	-9342
▁Fondiaria	-9343
▁Galveston	-9344
▁INDONESIA	-9345
▁Investors	-9346
▁Kleinwort	-9347
▁Nationale	-9348
▁Newcastle	-9349
▁Northwest	-9350
▁OPERATING	-9351
▁Ownership	-9352
▁PROSPECTS	-9353
▁Political	-9354
▁QUALIFIED	-9355
▁REPLACING	-9356
▁Reference	-9357
▁SOUTHMARK	-9358
▁STATEMENT	-9359
▁STEVENSON	-9360
▁Sejerstad	-9361
▁Socialist	-9362
▁Specialty	-9363
▁Telephone	-9364
▁Tradevest	-9365
▁UNIVERSAL	-9366
▁WEDNESDAY	-9367
▁Zeebregts	-9368
▁affecting	-9369
▁allocated	-9370
▁aluminium	-9371
▁assurance	-9372
▁averaging	-9373
▁basically	-9374
▁borrowing	-9375
▁candidate	-9376
▁carefully	-9377
▁cautioned	-9378
▁charterer	-9379
▁complaint	-9380
▁concerted	-9381
▁connected	-9382
▁converted	-9383
▁cooperate	-9384
▁debenture	-9385
▁departure	-9386
▁depending	-9387
▁deposited	-9388
▁developed	-9389
▁developer	-9390
▁dilutions	-9391
▁disappear	-9392
▁distilled	-9393
▁elevators	-9394
▁eliminate	-9395
▁elsewhere	-9396
▁emergency	-9397
▁excellent	-9398
▁execution	-9399
▁exercised	-9400
▁expensive	-9401
▁extending	-9402
▁extensive	-9403
▁forecasts	-9404
▁framework	-9405
▁governing	-9406
▁groundnut	-9407
▁improving	-9408
▁initially	-9409
▁inspected	-9410
▁institute	-9411
▁interbank	-9412
▁introduce	-9413
▁justified	-9414
▁launching	-9415
▁meanwhile	-9416
▁microchip	-9417
▁objective	-9418
▁ownership	-9419
▁penetrate	-9420
▁personnel	-9421
▁petroleum	-9422
▁physicals	-9423
▁pipelines	-9424
▁preparing	-9425
▁principal	-9426
▁projected	-9427
▁protected	-9428
▁providing	-9429
▁provoking	-9430
▁qualified	-9431
▁recapital	-9432
▁receiving	-9433
▁recovered	-9434
▁remainder	-9435
▁reporting	-9436
▁returning	-9437
▁sceptical	-9438
▁seriously	-9439
▁sidelined	-9440
▁slaughter	-9441
▁specialty	-9442
▁spotlight	-9443
▁stagnated	-9444
▁strategic	-9445
▁subsidies	-9446
▁supplying	-9447
▁surprised	-9448
▁surprises	-9449
▁suspicion	-9450
▁tightness	-9451
▁uncertain	-9452
▁undermine	-9453
▁undertook	-9454
▁universal	-9455
▁unlimited	-9456
▁unrelated	-9457
▁unusually	-9458
▁withdrawn	-9459
▁Associates	-9460
▁Bancshares	-9461
▁CALIFORNIA	-9462
▁CHANCELLOR	-9463
▁COMMISSION	-9464
▁California	-9465
▁Conditions	-9466
▁DEPARTMENT	-9467
▁Fieldcrest	-9468
▁Gothenburg	-9469
▁IMBALANCES	-9470
▁INDONESIAN	-9471
▁INSPECTION	-9472
▁Inspection	-9473
▁Interstate	-9474
▁Investment	-9475
▁Jovanovich	-9476
▁Management	-9477
▁Monumental	-9478
▁PROPERTIES	-9479
▁PUBLISHING	-9480
▁Silvertown	-9481
▁TERMINATES	-9482
▁University	-9483
▁VOLKSWAGEN	-9484
▁Wedgestone	-9485
▁accelerate	-9486
▁acceptable	-9487
▁acceptance	-9488
▁adjustment	-9489
▁apparently	-9490
▁appliances	-9491
▁assessment	-9492
▁automotive	-9493
▁background	-9494
▁bargaining	-9495
▁benefitted	-9496
▁bureaucrat	-9497
▁cautiously	-9498
▁collateral	-9499
▁colleagues	-9500
▁collective	-9501
▁complained	-9502
▁complaints	-9503
▁completely	-9504
▁constitute	-9505
▁containers	-9506
▁controlled	-9507
▁deliveries	-9508
▁dependence	-9509
▁determined	-9510
▁diagnostic	-9511
▁discharged	-9512
▁disclosure	-9513
▁distillate	-9514
▁economical	-9515
▁electrical	-9516
▁employment	-9517
▁encouraged	-9518
▁eventually	-9519
▁executives	-9520
▁experience	-9521
▁explaining	-9522
▁expression	-9523
▁favourable	-9524
▁federation	-9525
▁feedstocks	-9526
▁fertiliser	-9527
▁frustrated	-9528
▁inadequate	-9529
▁incidental	-9530
▁indicating	-9531
▁indicative	-9532
▁industries	-9533
▁initiative	-9534
▁injunction	-9535
▁membership	-9536
▁monopolies	-9537
▁objectives	-9538
▁officially	-9539
▁offsetting	-9540
▁originally	-9541
▁paperboard	-9542
▁persuading	-9543
▁privatised	-9544
▁prospectus	-9545
▁protecting	-9546
▁protesting	-9547
▁publishing	-9548
▁purchasing	-9549
▁quantities	-9550
▁questioned	-9551
▁receivable	-9552
▁recommends	-9553
▁recoveries	-9554
▁remarkable	-9555
▁represents	-9556
▁restricted	-9557
▁salmonella	-9558
▁stabilised	-9559
▁standstill	-9560
▁statistics	-9561
▁structural	-9562
▁supporting	-9563
▁targetting	-9564
▁throughout	-9565
▁tightening	-9566
▁unadjusted	-9567
▁warehouses	-9568
.22........7	-9569
HABILITATION	-9570
▁07:38:18.81	-9571
▁11:06:39.06	-9572
▁2,045/2,070	-9573
▁Arbitration	-9574
▁CATERPILLAR	-9575
▁Christopher	-9576
▁Consultants	-9577
▁DEVELOPMENT	-9578
▁Enterprises	-9579
▁Exceptional	-9580
▁INDEPENDENT	-9581
▁Merchandise	-9582
▁Nederlanden	-9583
▁SCHLESINGER	-9584
▁STOLTENBERG	-9585
▁SUSTAINABLE	-9586
▁Switzerland	-9587
▁WESTAMERICA	-9588
▁arbitragers	-9589
▁calculating	-9590
▁commitments	-9591
▁communicate	-9592
▁communities	-9593
▁competitors	-9594
▁complicated	-9595
▁conditioned	-9596
▁consecutive	-9597
▁constraints	-9598
▁consumption	-9599
▁continental	-9600
▁controversy	-9601
▁declaration	-9602
▁democracies	-9603
▁determining	-9604
▁effectively	-9605
▁elimination	-9606
▁exaggerated	-9607
▁explanation	-9608
▁foreseeable	-9609
▁implemented	-9610
▁inventories	-9611
▁liabilities	-9612
▁negotiation	-9613
▁possibility	-9614
▁regulations	-9615
▁responsible	-9616
▁restraining	-9617
▁retaliation	-9618
▁speculating	-9619
▁stabilising	-9620
▁therapeutic	-9621
▁uncorrected	-9622
▁undervalued	-9623
▁underwriter	-9624
▁unnecessary	-9625
▁unspecified	-9626
International	-9627
extraordinary	-9628
reaffirmation	-9629
▁10,000/1,000	-9630
▁ACQUISITTION	-9631
▁ATTRIBUTABLE	-9632
▁Commissioner	-9633
▁DISTRIBUTION	-9634
▁Metropolitan	-9635
▁Organisation	-9636
▁SHAREHOLDERS	-9637
▁Shareholders	-9638
▁accompanying	-9639
▁aggressively	-9640
▁applications	-9641
▁availability	-9642
▁compensation	-9643
▁concentrated	-9644
▁contributing	-9645
▁contribution	-9646
▁developments	-9647
▁disadvantage	-9648
▁domestically	-9649
▁electrolysis	-9650
▁headquarters	-9651
▁implications	-9652
▁increasingly	-9653
▁institutions	-9654
▁multilateral	-9655
▁participated	-9656
▁preservation	-9657
▁recommending	-9658
▁significance	-9659
▁strengthened	-9660
▁subcommittee	-9661
▁underwriting	-9662
▁Congressional	-9663
▁Manufacturers	-9664
▁administrator	-9665
▁carryforwards	-9666
▁characterized	-9667
▁circumstances	-9668
▁congressional	-9669
▁consideration	-9670
▁consolidation	-9671
▁diametrically	-9672
▁installations	-9673
▁institutional	-9674
▁modernization	-9675
▁modifications	-9676
▁participation	-9677
▁possibilities	-9678
▁protectionism	-9679
▁psychological	-9680
▁reaffirmation	-9681
▁sunflowerseed	-9682
▁understanding	-9683
▁BANCORPORATION	-9684
▁Rehabilitation	-9685
▁pharmaceutical	-9686
▁reorganization	-9687
▁transportation	-9688
▁underestimated	-9689
BGA	-9690
BIZ	-9691
BTB	-9692
CFC	-9693
CLT	-9694
EFH	-9695
HBJ	-9696
Kuy	-9697
NOH	-9698
PHY	-9699
RSK	-9700
SKB	-9701
Sea	-9702
TCJ	-9703
UGA	-9704
YNK	-9705
,021	-9706
,029	-9707
,163	-9708
,178	-9709
,249	-9710
,273	-9711
,359	-9712
,511	-9713
,622	-9714
,740	-9715
,868	-9716
-179	-9717
-27,	-9718
.18)	-9719
.21)	-9720
03,4	-9721
07,4	-9722
2,45	-9723
29/8	-9724
313)	-9725
63),	-9726
7.90	-9727
78.9	-9728
ACKL	-9729
ADEI	-9730
AFCX	-9731
AMAA	-9732
BLLA	-9733
BRIT	-9734
CXRL	-9735
DSMN	-9736
DUMP	-9737
FEBC	-9738
FERR	-9739
FURT	-9740
GECL	-9741
HBOC	-9742
IELD	-9743
IZED	-9744
Isol	-9745
Lomb	-9746
ODYN	-9747
PHFC	-9748
PHYT	-9749
PTRK	-9750
Prim	-9751
RIED	-9752
RTRS	-9753
Seaf	-9754
Spie	-9755
TCJC	-9756
WSAM	-9757
hita	-9758
hode	-9759
holk	-9760
iena	-9761
isky	-9762
know	-9763
prob	-9764
rmos	-9765
scri	-9766
suki	-9767
ubbl	-9768
▁93-	-9769
▁ARM	-9770
▁Buy	-9771
▁CLA	-9772
▁HOG	-9773
▁IVB	-9774
▁NAt	-9775
▁WTC	-9776
-1/8.	-9777
-1990	-9778
.15-5	-9779
.677)	-9780
.73).	-9781
1,222	-9782
1,255	-9783
2,178	-9784
2,484	-9785
2.18)	-9786
3,200	-9787
3,432	-9788
3,740	-9789
5,379	-9790
6,892	-9791
64.28	-9792
7,100	-9793
7,134	-9794
7,828	-9795
7,909	-9796
8,924	-9797
9,299	-9798
AYUGA	-9799
▁NEw	-9800
BROTO	-9801
COMES	-9802
COURT	-9803
EAVEY	-9804
ENETR	-9805
ERTEK	-9806
ETRES	-9807
FIELD	-9808
Given	-9809
IELDS	-9810
INKEL	-9811
INNAT	-9812
IPPON	-9813
ITURE	-9814
Isola	-9815
Kiena	-9816
LINES	-9817
Lomak	-9818
ORROW	-9819
ORTEK	-9820
ORWAY	-9821
PHONE	-9822
Phone	-9823
Ponds	-9824
RIFFS	-9825
ROYOS	-9826
TRADE	-9827
TRUMP	-9828
URKEY	-9829
XICAN	-9830
YARDS	-9831
ayett	-9832
backs	-9833
bourh	-9834
earns	-9835
erosa	-9836
ethle	-9837
heses	-9838
hinel	-9839
idelc	-9840
innon	-9841
isker	-9842
lizer	-9843
oledo	-9844
onnie	-9845
ravis	-9846
renda	-9847
scale	-9848
ships	-9849
thens	-9850
tiary	-9851
upont	-9852
veyor	-9853
▁(102	-9854
▁0.71	-9855
▁1,81	-9856
▁1978	-9857
▁1993	-9858
▁2,83	-9859
▁2053	-9860
▁3.58	-9861
▁3.91	-9862
▁4,53	-9863
▁4,74	-9864
▁5.66	-9865
▁5.79	-9866
▁6,08	-9867
▁6.98	-9868
▁8.32	-9869
▁8440	-9870
▁9.09	-9871
▁9.1,	-9872
▁9.19	-9873
▁9.85	-9874
▁9.86	-9875
▁9009	-9876
▁91.6	-9877
▁Aqaz	-9878
▁BANP	-9879
▁BANS	-9880
▁BENE	-9881
▁Bagh	-9882
▁Biot	-9883
▁Bula	-9884
▁CERT	-9885
▁DENK	-9886
▁DIEB	-9887
▁DISC	-9888
▁Delo	-9889
▁ERSK	-9890
▁Garo	-9891
▁HALF	-9892
▁INFL	-9893
▁KERR	-9894
▁LEAV	-9895
▁LIFE	-9896
▁MANU	-9897
▁Moly	-9898
▁Nati	-9899
-5.	-9900
37,	-9901
489	-9902
AZA	-9903
LAV	-9904
OGY	-9905
uhi	-9906
,404	-9907
,472	-9908
,536	-9909
,571	-9910
,854	-9911
,871	-9912
,883	-9913
-4/5	-9914
04.7	-9915
14.9	-9916
45),	-9917
AFBD	-9918
▁	-9919
e	-9920
t	-9921
a	-9922
n	-9923
s	-9924
o	-9925
i	-9926
r	-9927
l	-9928
d	-9929
h	-9930
c	-9931
u	-9932
m	-9933
p	-9934
f	-9935
.	-9936
g	-9937
y	-9938
b	-9939
,	-9940
w	-9941
v	-9942
S	-9943
T	-9944
0	-9945
A	-9946
E	-9947
1	-9948
R	-9949
I	-9950
N	-9951
k	-9952
C	-9953
O	-9954
2	-9955
8	-9956
L	-9957
5	-9958
M	-9959
9	-9960
D	-9961
U	-9962
P	-9963
3	-9964
6	-9965
B	-9966
4	-9967
7	-9968
x	-9969
F	-9970
G	-9971
H	-9972
-	-9973
"	-9974
'	-9975
W	-9976
q	-9977
J	-9978
;	-9979
Y	-9980
&	-9981
>	-9982
K	-9983
V	-9984
j	-9985
Q	-9986
/	-9987
z	-9988
)	-9989
(	-9990
X	-9991
Z	-9992
:	-9993
?	-9994
^	-9995
