<pad>	0
<unk>	0
<s>	0
</s>	0
▁t	-0
in	-1
▁a	-2
he	-3
▁s	-4
re	-5
on	-6
▁w	-7
ou	-8
er	-9
▁b	-10
▁c	-11
an	-12
it	-13
ing	-14
▁d	-15
▁I	-16
▁f	-17
at	-18
▁m	-19
▁the	-20
en	-21
is	-22
or	-23
ll	-24
es	-25
ar	-26
▁to	-27
▁g	-28
▁p	-29
le	-30
▁n	-31
▁h	-32
▁l	-33
ow	-34
om	-35
▁y	-36
▁o	-37
ed	-38
▁in	-39
nd	-40
ot	-41
▁you	-42
▁th	-43
as	-44
ck	-45
ir	-46
▁G	-47
▁T	-48
us	-49
▁on	-50
▁S	-51
▁W	-52
▁and	-53
oo	-54
ad	-55
ve	-56
..	-57
et	-58
▁#	-59
ut	-60
▁C	-61
▁of	-62
ld	-63
al	-64
ag	-65
▁A	-66
ic	-67
irl	-68
ke	-69
▁M	-70
▁is	-71
ay	-72
uy	-73
ion	-74
▁it	-75
▁B	-76
▁e	-77
ig	-78
id	-79
▁re	-80
ro	-81
▁Y	-82
▁do	-83
▁F	-84
▁be	-85
▁not	-86
▁H	-87
▁D	-88
▁he	-89
st	-90
ly	-91
▁st	-92
**	-93
ab	-94
all	-95
▁that	-96
im	-97
ver	-98
▁for	-99
▁N	-100
ith	-101
▁u	-102
ct	-103
ch	-104
▁P	-105
▁sh	-106
ook	-107
▁with	-108
▁#1	-109
hat	-110
ent	-111
▁#1:	-112
hen	-113
▁O	-114
ell	-115
se	-116
▁li	-117
ire	-118
▁ha	-119
ht	-120
ick	-121
▁me	-122
out	-123
▁L	-124
...	-125
▁Girl	-126
op	-127
▁k	-128
▁se	-129
ra	-130
lo	-131
age	-132
ind	-133
▁Guy	-134
ill	-135
▁fr	-136
▁when	-137
▁but	-138
▁"	-139
ter	-140
▁#2	-141
▁we	-142
▁r	-143
ight	-144
▁#2:	-145
ould	-146
ust	-147
▁like	-148
if	-149
ack	-150
▁ne	-151
ome	-152
un	-153
own	-154
ce	-155
il	-156
ink	-157
am	-158
▁my	-159
▁j	-160
▁an	-161
her	-162
▁You	-163
▁does	-164
▁have	-165
▁girl	-166
▁was	-167
ant	-168
pp	-169
ur	-170
▁[	-171
ark	-172
ea	-173
ist	-174
pt	-175
ox	-176
▁can	-177
▁E	-178
▁this	-179
▁go	-180
ri	-181
▁J	-182
▁are	-183
▁at	-184
▁guy	-185
xt	-186
▁R	-187
pen	-188
▁don	-189
▁wh	-190
and	-191
▁kn	-192
ol	-193
▁lo	-194
mark	-195
ite	-196
▁ch	-197
▁up	-198
▁**	-199
ows	-200
ookmark	-201
▁Fire	-202
ork	-203
ry	-204
▁The	-205
ie	-206
▁as	-207
ess	-208
▁-	-209
▁U	-210
em	-211
▁know	-212
ore	-213
oman	-214
ate	-215
ation	-216
▁from	-217
▁us	-218
▁your	-219
▁man	-220
ally	-221
▁get	-222
▁so	-223
ile	-224
▁all	-225
▁de	-226
bar	-227
▁just	-228
art	-229
▁open	-230
uck	-231
▁no	-232
av	-233
ul	-234
qu	-235
▁(	-236
eah	-237
ood	-238
▁Ch	-239
ine	-240
een	-241
▁if	-242
end	-243
el	-244
fox	-245
▁v	-246
▁or	-247
▁wind	-248
one	-249
our	-250
▁out	-251
ras	-252
▁It	-253
ard	-254
ip	-255
te	-256
▁con	-257
▁pro	-258
od	-259
res	-260
▁ab	-261
▁tab	-262
▁No	-263
▁work	-264
ird	-265
load	-266
▁down	-267
ang	-268
▁Man	-269
um	-270
ers	-271
th	-272
ear	-273
ton	-274
▁Yeah	-275
▁cl	-276
▁page	-277
iz	-278
▁What	-279
▁le	-280
▁br	-281
▁should	-282
▁ma	-283
▁su	-284
oy	-285
aus	-286
ong	-287
▁dis	-288
▁what	-289
ort	-290
ast	-291
ren	-292
▁bookmark	-293
able	-294
ady	-295
▁Oh	-296
▁al	-297
omp	-298
▁some	-299
pe	-300
ive	-301
fter	-302
ice	-303
very	-304
▁Woman	-305
bird	-306
ass	-307
ain	-308
ug	-309
▁one	-310
ity	-311
ud	-312
est	-313
▁men	-314
▁doesn	-315
ial	-316
▁window	-317
▁He	-318
▁she	-319
▁they	-320
fe	-321
ER	-322
▁***	-323
▁So	-324
▁sc	-325
▁Firefox	-326
ound	-327
dd	-328
oug	-329
▁ex	-330
▁want	-331
▁cell	-332
ide	-333
▁cras	-334
▁her	-335
▁about	-336
▁V	-337
up	-338
itt	-339
▁Teen	-340
▁pre	-341
to	-342
▁after	-343
are	-344
▁think	-345
old	-346
▁any	-347
▁there	-348
▁them	-349
ble	-350
ord	-351
ult	-352
bo	-353
og	-354
ame	-355
▁new	-356
▁bar	-357
oc	-358
▁'	-359
int	-360
ime	-361
▁dr	-362
▁St	-363
▁Wh	-364
pl	-365
hes	-366
▁fuck	-367
▁Chick	-368
way	-369
ure	-370
ew	-371
▁inst	-372
uit	-373
hing	-374
▁qu	-375
▁back	-376
ause	-377
owser	-378
os	-379
ac	-380
ions	-381
ous	-382
▁got	-383
▁boy	-384
▁look	-385
▁Th	-386
▁good	-387
ail	-388
▁That	-389
▁button	-390
▁bl	-391
ue	-392
▁right	-393
▁menu	-394
ven	-395
▁im	-396
ies	-397
▁pl	-398
▁did	-399
ish	-400
▁app	-401
▁In	-402
ress	-403
▁un	-404
▁his	-405
▁sa	-406
▁tool	-407
ext	-408
ager	-409
▁over	-410
ool	-411
ak	-412
ap	-413
▁going	-414
▁has	-415
roll	-416
▁him	-417
▁pe	-418
▁fire	-419
▁would	-420
▁Firebird	-421
▁K	-422
▁off	-423
▁see	-424
▁download	-425
here	-426
▁too	-427
AR	-428
▁need	-429
ix	-430
ild	-431
▁time	-432
ialog	-433
ittle	-434
ond	-435
ber	-436
▁ke	-437
ian	-438
▁We	-439
▁will	-440
ude	-441
▁sp	-442
▁bit	-443
omple	-444
RL	-445
▁1	-446
▁sm	-447
alk	-448
other	-449
▁And	-450
▁by	-451
▁mo	-452
▁say	-453
TH	-454
ake	-455
▁toolbar	-456
▁click	-457
▁Q	-458
ough	-459
▁Well	-460
▁start	-461
ep	-462
ens	-463
omet	-464
▁really	-465
▁browser	-466
UR	-467
illa	-468
▁had	-469
▁link	-470
▁Bookmark	-471
na	-472
sing	-473
cause	-474
ho	-475
ople	-476
ther	-477
nder	-478
▁who	-479
0.	-480
▁lady	-481
▁dialog	-482
▁then	-483
ory	-484
ated	-485
ages	-486
icon	-487
▁Can	-488
▁clo	-489
ace	-490
▁text	-491
per	-492
zilla	-493
▁more	-494
unk	-495
▁than	-496
▁mean	-497
▁ac	-498
ge	-499
ave	-500
feren	-501
play	-502
rain	-503
▁URL	-504
▁people	-505
▁bookmarks	-506
ror	-507
▁woman	-508
▁tw	-509
▁now	-510
iew	-511
ction	-512
▁load	-513
ting	-514
▁Ho	-515
▁into	-516
ree	-517
▁en	-518
▁But	-519
▁here	-520
▁install	-521
▁ar	-522
▁fruit	-523
ault	-524
▁only	-525
word	-526
▁res	-527
ull	-528
▁add	-529
▁.	-530
cl	-531
▁display	-532
ove	-533
red	-534
ich	-535
ize	-536
▁pr	-537
▁rem	-538
▁file	-539
ty	-540
▁could	-541
▁other	-542
▁shit	-543
▁somet	-544
ft	-545
▁very	-546
rl	-547
▁how	-548
urn	-549
▁ext	-550
▁Br	-551
▁0.	-552
▁try	-553
ather	-554
▁crashes	-555
▁New	-556
▁aut	-557
▁sl	-558
▁Bl	-559
ious	-560
CK	-561
uild	-562
ment	-563
fault	-564
▁icon	-565
▁make	-566
leas	-567
▁Dude	-568
▁even	-569
▁2	-570
▁Do	-571
▁com	-572
▁sw	-573
▁drink	-574
▁She	-575
▁che	-576
ery	-577
hoen	-578
sh	-579
ourist	-580
▁train	-581
▁Dr	-582
▁long	-583
lect	-584
not	-585
ript	-586
ving	-587
▁tell	-588
▁Hobo	-589
hoenix	-590
ster	-591
omplete	-592
▁every	-593
ning	-594
▁show	-595
▁Sh	-596
▁chang	-597
ne	-598
orm	-599
▁ag	-600
▁nice	-601
ozilla	-602
▁crash	-603
▁Is	-604
▁call	-605
ears	-606
ouse	-607
▁web	-608
▁were	-609
▁****	-610
▁bet	-611
▁This	-612
▁am	-613
older	-614
AN	-615
▁set	-616
▁scroll	-617
▁Old	-618
RO	-619
rop	-620
▁cont	-621
▁Little	-622
ces	-623
cess	-624
▁Not	-625
▁They	-626
▁If	-627
▁way	-628
--	-629
LL	-630
▁love	-631
▁wine	-632
▁X	-633
ank	-634
▁key	-635
▁pass	-636
▁take	-637
arch	-638
▁thing	-639
▁wr	-640
irst	-641
▁...	-642
error	-643
▁fl	-644
▁tabs	-645
cript	-646
ff	-647
▁JA	-648
▁per	-649
▁Tool	-650
ign	-651
▁bot	-652
ways	-653
▁att	-654
▁chick	-655
▁manager	-656
▁co	-657
▁been	-658
▁stop	-659
▁build	-660
▁under	-661
ose	-662
▁Very	-663
idd	-664
uch	-665
ownload	-666
act	-667
▁tr	-668
▁cre	-669
▁because	-670
▁fe	-671
▁ass	-672
ptions	-673
▁Se	-674
▁while	-675
ont	-676
onna	-677
ait	-678
▁po	-679
▁something	-680
be	-681
▁gr	-682
▁Mom	-683
▁two	-684
▁using	-685
▁AR	-686
ption	-687
les	-688
THUR	-689
▁didn	-690
▁Mozilla	-691
▁fucking	-692
▁Bookmarks	-693
ng	-694
▁use	-695
▁home	-696
▁error	-697
▁firefox	-698
▁hand	-699
▁Re	-700
oney	-701
▁ARTHUR	-702
▁default	-703
igh	-704
▁old	-705
▁quite	-706
ah	-707
lic	-708
▁ent	-709
▁thr	-710
▁said	-711
▁Ex	-712
▁fil	-713
▁gonna	-714
ROW	-715
▁My	-716
ipster	-717
ash	-718
▁pop	-719
▁fail	-720
▁Black	-721
▁As	-722
ade	-723
ance	-724
▁Pro	-725
▁fun	-726
▁search	-727
ib	-728
ouch	-729
▁Why	-730
▁still	-731
▁where	-732
IN	-733
riend	-734
ia	-735
▁day	-736
▁Drunk	-737
▁first	-738
▁never	-739
tern	-740
▁much	-741
▁box	-742
▁em	-743
imes	-744
lf	-745
orre	-746
ustom	-747
▁last	-748
00	-749
reen	-750
▁loc	-751
▁sub	-752
▁When	-753
▁side	-754
▁Que	-755
▁ro	-756
▁extens	-757
ctor	-758
▁find	-759
orrect	-760
▁Queer	-761
ike	-762
lock	-763
▁windows	-764
ert	-765
▁SP	-766
▁Hey	-767
▁car	-768
▁run	-769
istory	-770
▁Download	-771
com	-772
zy	-773
ARROW	-774
ating	-775
▁JACK	-776
▁black	-777
▁SPARROW	-778
▁la	-779
▁name	-780
▁Tourist	-781
ILL	-782
cent	-783
▁always	-784
▁sec	-785
▁talk	-786
▁white	-787
iv	-788
ub	-789
oun	-790
ram	-791
▁--	-792
▁min	-793
thing	-794
*)	-795
ach	-796
▁Top	-797
▁form	-798
▁folder	-799
▁fri	-800
ought	-801
▁touch	-802
▁select	-803
▁kid	-804
(*)	-805
▁Hipster	-806
ems	-807
▁ty	-808
▁list	-809
▁mis	-810
▁Manager	-811
▁let	-812
ible	-813
ines	-814
▁drop	-815
ins	-816
▁head	-817
▁won	-818
▁again	-819
ath	-820
ple	-821
▁why	-822
stall	-823
▁part	-824
iddle	-825
▁friend	-826
ferences	-827
▁Phoenix	-828
app	-829
file	-830
auses	-831
▁wrong	-832
igg	-833
▁*	-834
itch	-835
self	-836
▁bott	-837
▁nose	-838
man	-839
rap	-840
the	-841
port	-842
ween	-843
▁fin	-844
click	-845
▁come	-846
gr	-847
ny	-848
▁!	-849
razy	-850
ward	-851
▁bre	-852
▁Jack	-853
▁site	-854
▁trying	-855
AD	-856
▁ser	-857
▁give	-858
▁files	-859
▁Toolbar	-860
ale	-861
get	-862
blem	-863
▁How	-864
▁Pre	-865
hed	-866
▁Cl	-867
▁Qu	-868
rent	-869
▁wor	-870
▁well	-871
kes	-872
▁Sc	-873
▁Add	-874
▁walk	-875
▁night	-876
▁opening	-877
▁3	-878
ons	-879
▁Un	-880
atch	-881
text	-882
lease	-883
▁ever	-884
▁little	-885
vers	-886
▁close	-887
day	-888
▁bro	-889
▁York	-890
▁char	-891
▁There	-892
▁fails	-893
▁causes	-894
▁lot	-895
ON	-896
king	-897
ex	-898
anc	-899
erson	-900
."	-901
AL	-902
ks	-903
▁5	-904
ken	-905
row	-906
rash	-907
▁hang	-908
NI	-909
▁Good	-910
▁comp	-911
▁being	-912
▁proper	-913
tt	-914
ary	-915
oot	-916
use	-917
▁Jav	-918
▁mom	-919
▁put	-920
ield	-921
▁mod	-922
▁password	-923
ute	-924
unch	-925
▁bad	-926
▁cle	-927
ember	-928
ied	-929
▁inc	-930
friend	-931
▁&	-932
▁4	-933
ead	-934
▁cur	-935
▁Page	-936
ascript	-937
▁clicking	-938
▁Im	-939
▁All	-940
▁Wind	-941
▁left	-942
▁next	-943
▁sex	-944
▁change	-945
ocus	-946
▁act	-947
▁Be	-948
▁url	-949
ob	-950
▁Lady	-951
▁White	-952
▁theme	-953
▁these	-954
▁cannot	-955
EL	-956
ved	-957
▁God	-958
▁feel	-959
▁happ	-960
▁rest	-961
▁pages	-962
▁problem	-963
▁?	-964
▁high	-965
▁view	-966
▁col	-967
▁dog	-968
▁address	-969
ru	-970
ody	-971
▁gu	-972
reat	-973
▁Yes	-974
▁hot	-975
▁same	-976
▁those	-977
▁better	-978
oss	-979
fore	-980
form	-981
▁kill	-982
▁their	-983
kay	-984
ans	-985
trl	-986
▁Fr	-987
▁Sp	-988
side	-989
▁Dad	-990
▁Don	-991
ocomplete	-992
aps	-993
ars	-994
cut	-995
ship	-996
▁away	-997
▁keep	-998
NER	-999
pec	-1000
▁TUR	-1001
▁bel	-1002
▁supp	-1003
HT	-1004
ring	-1005
▁dif	-1006
so	-1007
ator	-1008
▁top	-1009
▁Bare	-1010
▁Suit	-1011
▁WILL	-1012
▁used	-1013
▁option	-1014
▁instead	-1015
▁firebird	-1016
ict	-1017
▁Yo	-1018
ater	-1019
▁bab	-1020
▁real	-1021
▁links	-1022
▁popup	-1023
▁TURNER	-1024
▁around	-1025
▁fine	-1026
▁short	-1027
ried	-1028
▁eat	-1029
▁jav	-1030
▁mouse	-1031
▁years	-1032
lp	-1033
aybe	-1034
▁0.9	-1035
▁ain	-1036
ature	-1037
▁Crash	-1038
▁Where	-1039
▁through	-1040
▁without	-1041
▁working	-1042
ss	-1043
iss	-1044
ual	-1045
▁De	-1046
Jack	-1047
ites	-1048
▁image	-1049
▁money	-1050
▁before	-1051
uff	-1052
▁its	-1053
OR	-1054
ates	-1055
ense	-1056
less	-1057
irect	-1058
ually	-1059
▁location	-1060
het	-1061
ost	-1062
eral	-1063
pect	-1064
▁bal	-1065
▁end	-1066
▁pal	-1067
▁turn	-1068
▁user	-1069
▁field	-1070
▁opens	-1071
▁print	-1072
▁person	-1073
bs	-1074
ann	-1075
ever	-1076
▁Who	-1077
ier	-1078
reet	-1079
▁beh	-1080
▁history	-1081
eth	-1082
▁upd	-1083
▁focus	-1084
▁stand	-1085
orrectly	-1086
▁loading	-1087
▁someone	-1088
ye	-1089
down	-1090
▁prev	-1091
▁rather	-1092
▁charact	-1093
oll	-1094
ably	-1095
▁sav	-1096
▁mess	-1097
▁broken	-1098
▁Are	-1099
board	-1100
▁block	-1101
▁mother	-1102
eak	-1103
▁int	-1104
▁Wait	-1105
▁free	-1106
▁buttons	-1107
▁thought	-1108
mm	-1109
▁Look	-1110
▁Will	-1111
▁cook	-1112
▁smell	-1113
▁i	-1114
gin	-1115
▁ph	-1116
▁Exc	-1117
▁des	-1118
▁dry	-1119
▁tak	-1120
▁tot	-1121
hetto	-1122
▁Open	-1123
▁help	-1124
▁yeah	-1125
▁anything	-1126
▁extension	-1127
ek	-1128
▁Pr	-1129
▁big	-1130
▁gay	-1131
▁mon	-1132
▁play	-1133
▁bitch	-1134
▁custom	-1135
enu	-1136
fin	-1137
▁sy	-1138
ount	-1139
rest	-1140
▁Tab	-1141
▁ele	-1142
▁sty	-1143
▁made	-1144
▁second	-1145
▁sidebar	-1146
GHT	-1147
orn	-1148
▁BE	-1149
anna	-1150
▁vis	-1151
▁baby	-1152
▁bottle	-1153
▁comple	-1154
▁palate	-1155
TT	-1156
irt	-1157
its	-1158
ical	-1159
▁mar	-1160
▁clos	-1161
▁small	-1162
ST	-1163
gg	-1164
tty	-1165
▁An	-1166
orry	-1167
uctor	-1168
▁kind	-1169
▁Asian	-1170
▁check	-1171
▁missing	-1172
▁drinking	-1173
▁non	-1174
ource	-1175
▁sure	-1176
▁wear	-1177
ground	-1178
▁break	-1179
▁looks	-1180
▁place	-1181
▁opened	-1182
▁differen	-1183
NC	-1184
▁GI	-1185
ange	-1186
▁Like	-1187
▁comm	-1188
▁drag	-1189
▁full	-1190
▁line	-1191
▁many	-1192
▁told	-1193
ves	-1194
▁Did	-1195
▁read	-1196
▁context	-1197
ML	-1198
my	-1199
ps	-1200
eng	-1201
ents	-1202
ition	-1203
ready	-1204
▁which	-1205
▁Windows	-1206
▁remember	-1207
▁war	-1208
abled	-1209
▁dele	-1210
ase	-1211
ets	-1212
▁Am	-1213
cept	-1214
heel	-1215
land	-1216
ract	-1217
▁red	-1218
ically	-1219
▁needs	-1220
▁another	-1221
ta	-1222
aug	-1223
rack	-1224
NIGHT	-1225
▁access	-1226
▁screen	-1227
▁already	-1228
OT	-1229
▁Aut	-1230
▁god	-1231
▁isn	-1232
▁rel	-1233
▁Fuck	-1234
▁must	-1235
▁size	-1236
▁Quite	-1237
▁icons	-1238
▁KNIGHT	-1239
▁middle	-1240
AB	-1241
▁/	-1242
ise	-1243
▁GU	-1244
ches	-1245
ific	-1246
▁own	-1247
▁ret	-1248
▁Cond	-1249
▁guys	-1250
▁mult	-1251
▁spec	-1252
▁great	-1253
lication	-1254
sy	-1255
und	-1256
ican	-1257
resh	-1258
▁rich	-1259
▁Options	-1260
LI	-1261
ect	-1262
raw	-1263
iple	-1264
ling	-1265
outh	-1266
ility	-1267
▁hard	-1268
▁save	-1269
▁makes	-1270
▁totally	-1271
box	-1272
ful	-1273
ieve	-1274
▁dri	-1275
▁***(*)	-1276
▁getting	-1277
▁Conductor	-1278
ux	-1279
▁6	-1280
cur	-1281
eet	-1282
til	-1283
▁SW	-1284
page	-1285
▁ref	-1286
▁type	-1287
▁class	-1288
▁Install	-1289
▁looking	-1290
▁preferences	-1291
▁autocomplete	-1292
:/	-1293
▁ad	-1294
haps	-1295
▁htt	-1296
▁face	-1297
▁believe	-1298
▁On	-1299
▁ask	-1300
▁exp	-1301
ister	-1302
▁Java	-1303
▁dead	-1304
▁wait	-1305
▁Crazy	-1306
▁disapp	-1307
aw	-1308
ml	-1309
ors	-1310
bably	-1311
▁Just	-1312
▁food	-1313
▁sing	-1314
▁profile	-1315
▁Al	-1316
▁Bar	-1317
▁sle	-1318
▁Love	-1319
▁goes	-1320
▁child	-1321
▁guess	-1322
▁direct	-1323
ww	-1324
LIZ	-1325
put	-1326
▁ed	-1327
▁fav	-1328
▁ELIZ	-1329
▁shows	-1330
▁wanna	-1331
BB	-1332
DE	-1333
ABE	-1334
ANN	-1335
pro	-1336
▁gl	-1337
▁smo	-1338
ABETH	-1339
anced	-1340
▁plug	-1341
▁pref	-1342
▁requ	-1343
▁says	-1344
terest	-1345
▁SWANN	-1346
▁times	-1347
▁images	-1348
▁ELIZABETH	-1349
key	-1350
ream	-1351
▁point	-1352
▁Browser	-1353
▁background	-1354
me	-1355
▁9	-1356
ted	-1357
ence	-1358
ered	-1359
ized	-1360
▁buy	-1361
▁mov	-1362
chool	-1363
▁Ctrl	-1364
▁care	-1365
▁cert	-1366
▁startup	-1367
▁different	-1368
▁javascript	-1369
ts	-1370
uh	-1371
▁<	-1372
eed	-1373
ife	-1374
ness	-1375
rror	-1376
▁Ext	-1377
▁Come	-1378
▁word	-1379
▁year	-1380
▁today	-1381
▁Ghetto	-1382
▁fat	-1383
▁Right	-1384
▁doing	-1385
▁seems	-1386
▁stuff	-1387
▁appear	-1388
▁called	-1389
▁finish	-1390
://	-1391
?...	-1392
body	-1393
▁our	-1394
aught	-1395
▁conf	-1396
▁hold	-1397
▁life	-1398
▁week	-1399
▁Mother	-1400
▁complex	-1401
▁options	-1402
▁talking	-1403
▁properly	-1404
▁application	-1405
ey	-1406
BBS	-1407
ush	-1408
▁Uh	-1409
▁ev	-1410
light	-1411
▁dude	-1412
▁clear	-1413
▁between	-1414
▁running	-1415
oh	-1416
amp	-1417
umb	-1418
▁LA	-1419
▁id	-1420
ings	-1421
rist	-1422
▁Get	-1423
▁kids	-1424
▁went	-1425
▁GIBBS	-1426
▁Lovely	-1427
▁setting	-1428
▁complete	-1429
dy	-1430
xy	-1431
atus	-1432
ouble	-1433
▁vers	-1434
▁Click	-1435
▁found	-1436
▁inter	-1437
▁Excuse	-1438
▁enough	-1439
AG	-1440
OM	-1441
amn	-1442
der	-1443
ffe	-1444
ily	-1445
▁Ar	-1446
▁Ha	-1447
▁sk	-1448
ries	-1449
ross	-1450
itting	-1451
▁Cannot	-1452
▁happen	-1453
▁appears	-1454
▁multiple	-1455
▁displayed	-1456
▁extensions	-1457
ege	-1458
ese	-1459
pty	-1460
▁Con	-1461
▁bus	-1462
▁hear	-1463
▁might	-1464
▁pretty	-1465
▁function	-1466
▁shortcut	-1467
no	-1468
asy	-1469
▁ind	-1470
iting	-1471
▁hair	-1472
▁seen	-1473
▁stay	-1474
▁webs	-1475
▁girls	-1476
▁hangs	-1477
▁until	-1478
leasant	-1479
▁tourist	-1480
du	-1481
ING	-1482
ope	-1483
plo	-1484
▁ra	-1485
▁typ	-1486
stand	-1487
▁nigg	-1488
▁having	-1489
▁lovely	-1490
▁though	-1491
▁Jes	-1492
▁cop	-1493
▁hal	-1494
▁crew	-1495
▁move	-1496
▁wasn	-1497
▁school	-1498
▁probably	-1499
▁selected	-1500
▁correctly	-1501
cum	-1502
▁Gr	-1503
arge	-1504
▁Jew	-1505
▁bug	-1506
▁son	-1507
ative	-1508
iously	-1509
▁Jesus	-1510
▁heard	-1511
▁watch	-1512
▁nothing	-1513
cel	-1514
gle	-1515
ock	-1516
avig	-1517
head	-1518
ince	-1519
▁Let	-1520
▁poss	-1521
▁Error	-1522
▁Extens	-1523
▁Really	-1524
▁switch	-1525
▁wouldn	-1526
▁support	-1527
ES	-1528
ina	-1529
ipp	-1530
ode	-1531
▁gi	-1532
inux	-1533
rant	-1534
▁acid	-1535
▁hate	-1536
▁subm	-1537
▁message	-1538
.1	-1539
fo	-1540
ARD	-1541
EAD	-1542
UNC	-1543
▁cr	-1544
▁el	-1545
ELOT	-1546
line	-1547
▁Boy	-1548
▁pus	-1549
▁http	-1550
▁item	-1551
▁LAUNC	-1552
▁LAUNCELOT	-1553
EN	-1554
You	-1555
aut	-1556
ene	-1557
empt	-1558
ones	-1559
stem	-1560
▁0.8	-1561
▁sim	-1562
▁ton	-1563
▁yet	-1564
emale	-1565
ither	-1566
▁pull	-1567
▁sort	-1568
▁Tween	-1569
▁freez	-1570
▁stops	-1571
▁things	-1572
con	-1573
edi	-1574
ote	-1575
▁FA	-1576
▁fa	-1577
THER	-1578
ains	-1579
usic	-1580
▁cut	-1581
▁saw	-1582
▁best	-1583
olders	-1584
▁drunk	-1585
▁menus	-1586
▁sweet	-1587
▁import	-1588
▁mozilla	-1589
->	-1590
bed	-1591
but	-1592
aste	-1593
▁For	-1594
▁Now	-1595
▁Web	-1596
arent	-1597
▁gotta	-1598
▁least	-1599
▁sound	-1600
AH	-1601
VER	-1602
led	-1603
liz	-1604
ump	-1605
fess	-1606
▁bag	-1607
▁reg	-1608
abeth	-1609
▁Find	-1610
▁Nice	-1611
▁slow	-1612
▁vint	-1613
▁Young	-1614
▁allow	-1615
▁conne	-1616
▁three	-1617
lizabeth	-1618
▁version	-1619
▁character	-1620
▁directory	-1621
▁OS	-1622
▁Um	-1623
▁XP	-1624
ives	-1625
ours	-1626
▁gen	-1627
▁gets	-1628
▁pick	-1629
▁tann	-1630
▁phone	-1631
▁wheel	-1632
▁works	-1633
▁Christ	-1634
▁longer	-1635
▁balance	-1636
3:	-1637
?!	-1638
ern	-1639
oud	-1640
▁Ab	-1641
▁ho	-1642
ants	-1643
open	-1644
▁rec	-1645
▁half	-1646
▁sleep	-1647
▁Custom	-1648
▁mineral	-1649
▁phoenix	-1650
sc	-1651
▁Go	-1652
▁IE	-1653
▁UI	-1654
AHAD	-1655
lish	-1656
ored	-1657
▁GAL	-1658
▁See	-1659
ately	-1660
▁Have	-1661
▁Pass	-1662
▁sign	-1663
▁Maybe	-1664
▁crazy	-1665
▁sorry	-1666
ractive	-1667
▁closed	-1668
▁launch	-1669
▁wanted	-1670
▁GALAHAD	-1671
▁interest	-1672
vel	-1673
▁TI	-1674
fuck	-1675
▁Sir	-1676
▁mor	-1677
▁val	-1678
earch	-1679
▁Then	-1680
▁once	-1681
▁enter	-1682
▁saved	-1683
▁8	-1684
▁OK	-1685
▁Pl	-1686
ames	-1687
▁#3:	-1688
▁hit	-1689
toned	-1690
▁Need	-1691
▁each	-1692
▁docum	-1693
▁young	-1694
▁Middle	-1695
▁themes	-1696
▁current	-1697
▁perhaps	-1698
▁tonight	-1699
▁everyone	-1700
▁ns	-1701
▁sn	-1702
▁yo	-1703
ited	-1704
room	-1705
ures	-1706
▁Rem	-1707
▁inv	-1708
▁pay	-1709
▁Menu	-1710
▁book	-1711
▁lost	-1712
▁prom	-1713
▁crack	-1714
▁input	-1715
▁light	-1716
▁mouth	-1717
▁please	-1718
▁closing	-1719
▁keyboard	-1720
▁scrolling	-1721
rew	-1722
upp	-1723
▁ob	-1724
gant	-1725
gram	-1726
upid	-1727
▁Mac	-1728
▁Per	-1729
▁ign	-1730
▁mat	-1731
ality	-1732
ength	-1733
umber	-1734
▁doll	-1735
▁door	-1736
▁lock	-1737
▁most	-1738
▁okay	-1739
▁seem	-1740
▁sell	-1741
▁suck	-1742
▁empty	-1743
▁items	-1744
▁render	-1745
▁slight	-1746
▁status	-1747
▁folders	-1748
▁7	-1749
ift	-1750
men	-1751
ner	-1752
▁few	-1753
▁hor	-1754
▁met	-1755
▁str	-1756
inese	-1757
oogle	-1758
owing	-1759
▁HEAD	-1760
▁Some	-1761
▁After	-1762
▁large	-1763
▁style	-1764
▁FATHER	-1765
▁Island	-1766
▁Chinese	-1767
▁acidity	-1768
▁attempt	-1769
▁understand	-1770
aa	-1771
gn	-1772
pr	-1773
ETT	-1774
als	-1775
iet	-1776
top	-1777
more	-1778
▁Dis	-1779
▁Hell	-1780
▁Okay	-1781
▁done	-1782
▁else	-1783
▁live	-1784
▁room	-1785
ternet	-1786
▁Print	-1787
▁count	-1788
▁quest	-1789
▁sites	-1790
▁Search	-1791
▁behind	-1792
▁length	-1793
omething	-1794
▁vintage	-1795
!"	-1796
?"	-1797
ID	-1798
az	-1799
io	-1800
alls	-1801
ject	-1802
▁Eng	-1803
▁File	-1804
▁coll	-1805
▁gent	-1806
▁main	-1807
▁stud	-1808
ention	-1809
▁GUARD	-1810
▁blank	-1811
▁inside	-1812
▁remove	-1813
▁Because	-1814
▁command	-1815
▁forward	-1816
▁Clicking	-1817
▁sometimes	-1818
0-	-1819
RE	-1820
by	-1821
ats	-1822
ett	-1823
oup	-1824
▁Tr	-1825
▁av	-1826
VERE	-1827
most	-1828
ured	-1829
▁exc	-1830
andom	-1831
▁BEDE	-1832
▁Does	-1833
▁Stop	-1834
▁View	-1835
▁anim	-1836
▁pres	-1837
fessor	-1838
▁update	-1839
▁showing	-1840
▁BEDEVERE	-1841
▁x	-1842
sor	-1843
▁En	-1844
▁Hel	-1845
▁dad	-1846
▁tag	-1847
▁less	-1848
▁ship	-1849
▁such	-1850
▁exist	-1851
▁press	-1852
▁proxy	-1853
▁seeks	-1854
ailable	-1855
▁stupid	-1856
▁system	-1857
▁Password	-1858
▁document	-1859
gy	-1860
air	-1861
ged	-1862
urg	-1863
▁Fl	-1864
view	-1865
▁Pop	-1866
▁leg	-1867
▁ter	-1868
iness	-1869
▁Side	-1870
▁dick	-1871
▁resp	-1872
▁chest	-1873
install	-1874
lection	-1875
▁anyone	-1876
▁myself	-1877
▁nicely	-1878
▁return	-1879
▁saying	-1880
▁street	-1881
▁certain	-1882
▁cookies	-1883
UT	-1884
joy	-1885
▁Sm	-1886
▁aw	-1887
▁te	-1888
ache	-1889
oose	-1890
▁din	-1891
▁job	-1892
ially	-1893
uring	-1894
▁Link	-1895
▁date	-1896
ternal	-1897
▁Every	-1898
▁front	-1899
▁number	-1900
▁History	-1901
▁anymore	-1902
▁clicked	-1903
▁wearing	-1904
▁Javascript	-1905
SS	-1906
br	-1907
fl	-1908
▁,	-1909
avi	-1910
ung	-1911
▁Tw	-1912
....	-1913
arly	-1914
ised	-1915
itle	-1916
like	-1917
▁dec	-1918
▁pen	-1919
centr	-1920
▁Amer	-1921
▁pict	-1922
▁**(*)	-1923
▁Tools	-1924
▁haven	-1925
▁local	-1926
▁maybe	-1927
▁Friend	-1928
▁source	-1929
▁weight	-1930
▁morning	-1931
▁website	-1932
▁attractive	-1933
▁Preferences	-1934
ee	-1935
▁$	-1936
ata	-1937
els	-1938
ker	-1939
ony	-1940
▁ve	-1941
ason	-1942
come	-1943
rome	-1944
▁Wow	-1945
▁bas	-1946
gnant	-1947
Script	-1948
▁*****	-1949
▁house	-1950
▁leave	-1951
▁shown	-1952
▁world	-1953
▁coming	-1954
▁result	-1955
).	-1956
LA	-1957
hh	-1958
ma	-1959
ipe	-1960
oop	-1961
Will	-1962
atic	-1963
ging	-1964
oint	-1965
ters	-1966
ying	-1967
▁200	-1968
▁easy	-1969
▁five	-1970
▁remo	-1971
▁whole	-1972
▁wines	-1973
▁preview	-1974
▁dropdown	-1975
▁installing	-1976
()	-1977
LE	-1978
MA	-1979
ca	-1980
cer	-1981
oke	-1982
ues	-1983
itor	-1984
ocol	-1985
rame	-1986
▁par	-1987
fined	-1988
lying	-1989
▁Back	-1990
▁Your	-1991
▁came	-1992
▁cons	-1993
▁hell	-1994
▁past	-1995
ations	-1996
▁fresh	-1997
▁music	-1998
▁pants	-1999
▁since	-2000
▁Scroll	-2001
▁Street	-2002
▁either	-2003
▁fuckin	-2004
▁plugin	-2005
▁sister	-2006
▁content	-2007
▁disabled	-2008
fr	-2009
hy	-2010
▁1.	-2011
▁NY	-2012
bian	-2013
ores	-2014
osed	-2015
work	-2016
▁App	-2017
▁Loc	-2018
▁hon	-2019
▁pos	-2020
▁Long	-2021
▁Text	-2022
▁wife	-2023
▁enjoy	-2024
ference	-2025
▁breaks	-2026
▁reload	-2027
▁married	-2028
▁restart	-2029
▁displays	-2030
▁pregnant	-2031
▁JavaScript	-2032
igr	-2033
▁->	-2034
▁Or	-2035
▁To	-2036
▁bo	-2037
aked	-2038
utes	-2039
▁Bus	-2040
▁Ind	-2041
▁One	-2042
▁eng	-2043
berry	-2044
izing	-2045
▁Help	-2046
▁both	-2047
▁mode	-2048
istent	-2049
▁glass	-2050
▁order	-2051
▁produ	-2052
▁pussy	-2053
▁father	-2054
▁taking	-2055
▁request	-2056
formation	-2057
▁actually	-2058
▁concentr	-2059
de	-2060
ha	-2061
ane	-2062
ler	-2063
lyn	-2064
▁La	-2065
ower	-2066
pend	-2067
rail	-2068
ties	-2069
▁Cle	-2070
▁yes	-2071
alian	-2072
where	-2073
▁font	-2074
▁wish	-2075
curity	-2076
ooklyn	-2077
▁Thank	-2078
▁clean	-2079
▁login	-2080
▁table	-2081
▁weird	-2082
▁Please	-2083
▁making	-2084
▁brother	-2085
▁downloads	-2086
::	-2087
▁Z	-2088
▁z	-2089
▁Gu	-2090
▁RO	-2091
▁ey	-2092
back	-2093
irty	-2094
reak	-2095
▁age	-2096
▁die	-2097
▁fam	-2098
▁may	-2099
▁ste	-2100
under	-2101
▁Save	-2102
▁also	-2103
▁aren	-2104
▁cour	-2105
▁days	-2106
▁meet	-2107
▁send	-2108
▁shut	-2109
▁soft	-2110
esbian	-2111
gether	-2112
▁brows	-2113
▁gives	-2114
▁wants	-2115
▁Folder	-2116
▁almost	-2117
▁gentle	-2118
▁freezes	-2119
▁slightly	-2120
▁Professor	-2121
▁completely	-2122
▁everything	-2123
osc	-2124
▁Sw	-2125
AGER	-2126
ktop	-2127
▁pee	-2128
▁VILL	-2129
▁auto	-2130
▁Still	-2131
▁Store	-2132
▁movie	-2133
▁Unable	-2134
▁expect	-2135
▁smells	-2136
clicking	-2137
▁elegant	-2138
▁friends	-2139
▁holding	-2140
▁Brooklyn	-2141
▁VILLAGER	-2142
▁Installer	-2143
▁boyfriend	-2144
▁characters	-2145
AV	-2146
we	-2147
rol	-2148
tic	-2149
▁Ad	-2150
▁Em	-2151
▁ht	-2152
vice	-2153
▁Run	-2154
▁far	-2155
▁flo	-2156
▁squ	-2157
▁Make	-2158
▁able	-2159
▁leav	-2160
▁mail	-2161
▁Grand	-2162
▁flash	-2163
▁nigga	-2164
▁trans	-2165
plement	-2166
▁Jewish	-2167
▁driver	-2168
▁single	-2169
▁warning	-2170
something	-2171
▁problems	-2172
▁thinking	-2173
▁Extension	-2174
▁installed	-2175
▁installer	-2176
▁downloading	-2177
!!	-2178
bl	-2179
ART	-2180
che	-2181
izz	-2182
riv	-2183
ten	-2184
▁es	-2185
aces	-2186
ibly	-2187
rave	-2188
▁Cop	-2189
▁DAV	-2190
▁XML	-2191
▁pur	-2192
▁sit	-2193
▁fore	-2194
▁roll	-2195
▁teen	-2196
▁took	-2197
ashier	-2198
raight	-2199
▁Rated	-2200
▁above	-2201
▁blood	-2202
▁round	-2203
▁water	-2204
▁behavi	-2205
▁string	-2206
▁subway	-2207
▁English	-2208
▁minutes	-2209
▁special	-2210
ationship	-2211
avigation	-2212
▁settings	-2213
▁together	-2214
▁girlfriend	-2215
CT	-2216
In	-2217
co	-2218
ky	-2219
ced	-2220
ics	-2221
▁Ac	-2222
▁CP	-2223
▁Me	-2224
▁Wr	-2225
ONES	-2226
ahoo	-2227
ched	-2228
ient	-2229
iled	-2230
ison	-2231
ruct	-2232
▁NYU	-2233
▁Nor	-2234
▁acc	-2235
▁imm	-2236
▁sil	-2237
▁sur	-2238
▁win	-2239
adies	-2240
anish	-2241
▁DAVY	-2242
▁area	-2243
▁body	-2244
▁cool	-2245
▁deck	-2246
▁four	-2247
agrant	-2248
ellent	-2249
▁JONES	-2250
▁dress	-2251
▁honey	-2252
▁takes	-2253
rington	-2254
▁Dialog	-2255
▁program	-2256
▁started	-2257
▁walking	-2258
▁children	-2259
▁scrollbar	-2260
ph	-2261
sp	-2262
apt	-2263
▁10	-2264
Open	-2265
▁bed	-2266
▁dom	-2267
▁hur	-2268
▁mem	-2269
arrow	-2270
▁Shut	-2271
▁Tabs	-2272
▁cond	-2273
▁gave	-2274
▁meat	-2275
▁Popup	-2276
▁autom	-2277
▁impro	-2278
▁Rather	-2279
▁builds	-2280
▁cursor	-2281
▁Profile	-2282
▁changes	-2283
▁disable	-2284
▁favicon	-2285
▁outside	-2286
▁selection	-2287
▁motherfuck	-2288
".	-2289
'.	-2290
sw	-2291
att	-2292
min	-2293
org	-2294
rem	-2295
ret	-2296
rob	-2297
▁Up	-2298
▁[@	-2299
..."	-2300
Fire	-2301
Yeah	-2302
earl	-2303
omen	-2304
▁Any	-2305
▁Kid	-2306
▁Squ	-2307
▁ins	-2308
▁mad	-2309
▁www	-2310
ading	-2311
aster	-2312
endor	-2313
rying	-2314
wards	-2315
▁High	-2316
▁Rich	-2317
▁drug	-2318
▁eyes	-2319
▁lack	-2320
▁upon	-2321
▁asked	-2322
▁boxes	-2323
▁extra	-2324
▁hands	-2325
▁shirt	-2326
▁title	-2327
▁accept	-2328
▁during	-2329
▁expand	-2330
▁fucked	-2331
▁Default	-2332
▁respond	-2333
▁happened	-2334
ica	-2335
▁At	-2336
▁uh	-2337
aged	-2338
aret	-2339
ider	-2340
ired	-2341
▁med	-2342
▁vag	-2343
ified	-2344
▁city	-2345
▁foll	-2346
▁hope	-2347
▁skin	-2348
▁true	-2349
▁wood	-2350
though	-2351
▁Hello	-2352
▁Would	-2353
▁Wrong	-2354
▁cause	-2355
▁color	-2356
▁loads	-2357
▁quick	-2358
▁Female	-2359
▁anyway	-2360
▁mature	-2361
▁Sidebar	-2362
▁Spanish	-2363
▁lesbian	-2364
▁Security	-2365
▁balanced	-2366
▁browsing	-2367
▁standing	-2368
▁starting	-2369
▁whatever	-2370
▁yourself	-2371
▁information	-2372
▁installation	-2373
▁relationship	-2374
LD	-2375
No	-2376
eg	-2377
▁>	-2378
Fox	-2379
INT	-2380
ref	-2381
▁Kn	-2382
▁Ni	-2383
ared	-2384
ular	-2385
▁CPU	-2386
▁JAP	-2387
▁Mex	-2388
▁eye	-2389
▁tar	-2390
ident	-2391
ments	-2392
▁Brit	-2393
▁Comp	-2394
▁Home	-2395
▁URLs	-2396
▁code	-2397
▁ctrl	-2398
▁html	-2399
▁Image	-2400
▁Pearl	-2401
▁apple	-2402
▁bring	-2403
▁favor	-2404
▁means	-2405
ization	-2406
▁colour	-2407
▁loaded	-2408
▁intense	-2409
▁shouldn	-2410
▁telling	-2411
▁changing	-2412
▁pleasant	-2413
▁available	-2414
.'	-2415
df	-2416
go	-2417
▁+	-2418
arm	-2419
ots	-2420
tip	-2421
▁ug	-2422
aper	-2423
mail	-2424
name	-2425
▁Com	-2426
▁Nah	-2427
ffect	-2428
▁Thug	-2429
▁uses	-2430
finite	-2431
▁Flash	-2432
▁Linux	-2433
▁entry	-2434
▁gener	-2435
▁later	-2436
▁party	-2437
▁stick	-2438
oscroll	-2439
▁Window	-2440
▁prompt	-2441
▁Italian	-2442
▁enabled	-2443
▁sitting	-2444
▁tannins	-2445
▁supposed	-2446
▁switching	-2447
"?	-2448
ax	-2449
ns	-2450
irm	-2451
mes	-2452
ogn	-2453
uss	-2454
yee	-2455
▁Us	-2456
!...	-2457
amel	-2458
cher	-2459
part	-2460
▁100	-2461
▁Che	-2462
▁Win	-2463
▁fit	-2464
▁nut	-2465
press	-2466
▁Coll	-2467
▁Form	-2468
▁cute	-2469
▁died	-2470
▁rend	-2471
▁star	-2472
▁test	-2473
ployee	-2474
▁Sorry	-2475
▁beaut	-2476
▁cream	-2477
▁month	-2478
▁tried	-2479
▁twice	-2480
▁witch	-2481
aughter	-2482
▁couldn	-2483
▁server	-2484
atically	-2485
▁Cashier	-2486
▁FireFox	-2487
▁country	-2488
▁dollars	-2489
▁webpage	-2490
▁Location	-2491
▁incorrectly	-2492
En	-2493
RI	-2494
BIN	-2495
acy	-2496
add	-2497
ask	-2498
dll	-2499
got	-2500
rib	-2501
hole	-2502
iles	-2503
list	-2504
▁CSS	-2505
▁Use	-2506
▁pan	-2507
INTEL	-2508
ename	-2509
ights	-2510
urity	-2511
▁Cook	-2512
▁Damn	-2513
▁fill	-2514
▁gone	-2515
▁incl	-2516
▁java	-2517
▁warm	-2518
▁ROBIN	-2519
▁Start	-2520
▁funny	-2521
▁speak	-2522
▁taste	-2523
▁women	-2524
ocolate	-2525
▁chrome	-2526
▁contin	-2527
▁movies	-2528
▁although	-2529
="	-2530
arn	-2531
aur	-2532
ded	-2533
ger	-2534
ked	-2535
rer	-2536
▁Ag	-2537
enty	-2538
ette	-2539
idge	-2540
irly	-2541
pper	-2542
▁Dry	-2543
▁Inc	-2544
▁Key	-2545
▁Set	-2546
▁enc	-2547
gress	-2548
olved	-2549
▁King	-2550
▁bath	-2551
▁cann	-2552
▁grab	-2553
▁port	-2554
▁pure	-2555
▁ugly	-2556
aining	-2557
▁group	-2558
▁hours	-2559
▁sense	-2560
▁sword	-2561
ception	-2562
▁PINTEL	-2563
▁cookie	-2564
▁course	-2565
▁double	-2566
▁eating	-2567
▁listen	-2568
▁College	-2569
▁picture	-2570
▁present	-2571
▁respect	-2572
RA	-2573
cy	-2574
uu	-2575
TML	-2576
ped	-2577
uge	-2578
you	-2579
LACK	-2580
amed	-2581
boom	-2582
cape	-2583
iful	-2584
ping	-2585
pped	-2586
ucks	-2587
▁Act	-2588
▁Ser	-2589
▁cou	-2590
▁hum	-2591
▁rid	-2592
rapes	-2593
rench	-2594
▁Auto	-2595
▁Cent	-2596
▁HTML	-2597
▁Info	-2598
▁Park	-2599
▁blow	-2600
▁flav	-2601
▁pack	-2602
▁soon	-2603
▁stri	-2604
▁yell	-2605
▁About	-2606
▁Mommy	-2607
▁Scene	-2608
▁beach	-2609
▁green	-2610
▁happy	-2611
▁penis	-2612
▁space	-2613
▁throw	-2614
▁Father	-2615
▁Indian	-2616
▁delete	-2617
▁random	-2618
▁reason	-2619
▁styles	-2620
▁KNIGHTS	-2621
▁connect	-2622
▁control	-2623
▁results	-2624
▁weekend	-2625
▁Internet	-2626
▁building	-2627
▁personal	-2628
▁drinkable	-2629
▁incorrect	-2630
▁rendering	-2631
▁selecting	-2632
▁|	-2633
exe	-2634
oth	-2635
ses	-2636
uro	-2637
xid	-2638
yle	-2639
What	-2640
asty	-2641
ball	-2642
band	-2643
ital	-2644
thur	-2645
vert	-2646
▁Col	-2647
▁Her	-2648
▁fix	-2649
▁ten	-2650
▁via	-2651
uppie	-2652
▁Burn	-2653
▁Euro	-2654
▁More	-2655
▁Shit	-2656
▁card	-2657
▁copy	-2658
▁keys	-2659
▁song	-2660
▁step	-2661
aptain	-2662
ession	-2663
▁BLACK	-2664
▁Mouse	-2665
▁Theme	-2666
▁comes	-2667
▁given	-2668
▁spare	-2669
▁walks	-2670
▁Arthur	-2671
▁bottom	-2672
▁couple	-2673
▁fields	-2674
▁recent	-2675
▁recogn	-2676
▁starts	-2677
▁vagina	-2678
▁within	-2679
▁keyword	-2680
Elizabeth	-2681
▁homepage	-2682
▁position	-2683
▁Elizabeth	-2684
▁preference	-2685
js	-2686
ism	-2687
mer	-2688
oul	-2689
▁Sl	-2690
angu	-2691
fect	-2692
ista	-2693
lose	-2694
▁CUT	-2695
▁Hot	-2696
▁Isn	-2697
▁Par	-2698
▁ago	-2699
▁wid	-2700
▁Fine	-2701
▁Frat	-2702
▁crow	-2703
▁foot	-2704
▁male	-2705
▁onto	-2706
▁pain	-2707
▁ripe	-2708
▁suit	-2709
issing	-2710
usband	-2711
▁Build	-2712
▁Grail	-2713
▁arrow	-2714
▁delic	-2715
▁fight	-2716
▁store	-2717
▁Select	-2718
▁Source	-2719
▁config	-2720
▁parent	-2721
▁simple	-2722
underbird	-2723
▁Pleasant	-2724
▁bathroom	-2725
▁possible	-2726
▁connection	-2727
▁interesting	-2728
FE	-2729
TA	-2730
wr	-2731
LER	-2732
ORD	-2733
alt	-2734
par	-2735
ral	-2736
▁Ah	-2737
▁Fe	-2738
Save	-2739
date	-2740
inal	-2741
onde	-2742
over	-2743
raph	-2744
year	-2745
▁Cur	-2746
▁Del	-2747
▁net	-2748
▁rep	-2749
▁sir	-2750
CKETT	-2751
edium	-2752
ently	-2753
▁LORD	-2754
▁With	-2755
▁burn	-2756
▁dist	-2757
▁hook	-2758
▁idea	-2759
▁tall	-2760
▁tree	-2761
▁weed	-2762
vanced	-2763
▁heart	-2764
▁worry	-2765
▁CUTLER	-2766
▁Square	-2767
▁create	-2768
▁doctor	-2769
▁entire	-2770
▁giving	-2771
▁google	-2772
▁BECKETT	-2773
▁Sparrow	-2774
▁previous	-2775
▁straight	-2776
▁customize	-2777
▁Autocomplete	-2778
SL	-2779
cc	-2780
oz	-2781
abb	-2782
lay	-2783
log	-2784
rel	-2785
▁19	-2786
▁OF	-2787
eter	-2788
irth	-2789
▁Bim	-2790
▁Two	-2791
▁cig	-2792
▁fig	-2793
▁law	-2794
▁tea	-2795
ering	-2796
umble	-2797
▁Show	-2798
▁data	-2799
▁draw	-2800
▁init	-2801
▁oxid	-2802
▁rock	-2803
▁wond	-2804
urgund	-2805
▁Jones	-2806
▁cache	-2807
▁finis	-2808
▁shall	-2809
▁value	-2810
reaming	-2811
▁French	-2812
▁Remove	-2813
▁Yuppie	-2814
▁doesnt	-2815
▁immedi	-2816
▁monkey	-2817
▁asshole	-2818
▁student	-2819
▁visible	-2820
▁blocking	-2821
▁beautiful	-2822
▁disappear	-2823
▁automatically	-2824
mb	-2825
avy	-2826
boy	-2827
iff	-2828
pes	-2829
ype	-2830
▁hy	-2831
apan	-2832
etti	-2833
ides	-2834
look	-2835
miss	-2836
oice	-2837
olic	-2838
utch	-2839
▁TIM	-2840
▁air	-2841
▁arm	-2842
▁cat	-2843
▁gra	-2844
▁iss	-2845
▁lab	-2846
▁oak	-2847
▁sho	-2848
▁six	-2849
▁und	-2850
stant	-2851
▁Holy	-2852
▁answ	-2853
▁fall	-2854
▁hint	-2855
▁hund	-2856
▁land	-2857
▁lots	-2858
▁loud	-2859
▁mark	-2860
▁miss	-2861
▁path	-2862
▁piss	-2863
▁poor	-2864
agetti	-2865
rivacy	-2866
▁0.9.1	-2867
▁dirty	-2868
▁state	-2869
▁turns	-2870
▁active	-2871
▁female	-2872
▁honest	-2873
▁unable	-2874
▁Opening	-2875
▁college	-2876
▁hipster	-2877
▁hundred	-2878
▁reading	-2879
▁viewing	-2880
▁contains	-2881
▁external	-2882
11	-2883
2.	-2884
▁]	-2885
EST	-2886
NCH	-2887
TTP	-2888
cle	-2889
erk	-2890
ole	-2891
tan	-2892
▁SO	-2893
▁di	-2894
akes	-2895
appy	-2896
ices	-2897
ilar	-2898
uter	-2899
ware	-2900
wind	-2901
▁Afr	-2902
▁Min	-2903
▁NOR	-2904
▁Red	-2905
▁Sub	-2906
▁cor	-2907
idden	-2908
▁Drag	-2909
▁HTTP	-2910
▁Plug	-2911
▁corn	-2912
▁dark	-2913
▁info	-2914
▁lose	-2915
▁prof	-2916
▁repl	-2917
▁tick	-2918
hattan	-2919
▁Dutch	-2920
▁Other	-2921
▁alone	-2922
▁birth	-2923
▁doors	-2924
▁langu	-2925
▁minim	-2926
▁prefs	-2927
▁third	-2928
▁Option	-2929
▁become	-2930
▁cheese	-2931
▁closes	-2932
▁itself	-2933
▁turned	-2934
▁playing	-2935
▁release	-2936
▁textbox	-2937
▁updated	-2938
▁homeless	-2939
▁chocolate	-2940
▁complexity	-2941
▁properties	-2942
ED	-2943
EE	-2944
ef	-2945
wh	-2946
Man	-2947
erg	-2948
fer	-2949
ify	-2950
▁40	-2951
▁Ew	-2952
▁Hi	-2953
▁Li	-2954
▁Pe	-2955
▁SC	-2956
▁af	-2957
ales	-2958
ffee	-2959
ooth	-2960
▁Day	-2961
▁FRE	-2962
▁Jer	-2963
▁coc	-2964
▁gun	-2965
▁hat	-2966
▁odd	-2967
▁tem	-2968
▁var	-2969
▁vir	-2970
allow	-2971
erman	-2972
quest	-2973
ubber	-2974
▁100%	-2975
▁bull	-2976
▁cold	-2977
▁damn	-2978
▁deal	-2979
▁disk	-2980
▁huge	-2981
▁hung	-2982
▁legs	-2983
▁near	-2984
▁pers	-2985
▁tast	-2986
▁Daddy	-2987
▁added	-2988
▁alert	-2989
▁likes	-2990
▁effect	-2991
▁living	-2992
▁looked	-2993
▁moving	-2994
▁object	-2995
▁script	-2996
▁secure	-2997
▁submit	-2998
▁underw	-2999
▁Address	-3000
▁Burgund	-3001
▁Ragetti	-3002
▁Dutchman	-3003
▁toolbars	-3004
▁Extensions	-3005
▁downloaded	-3006
▁Thunderbird	-3007
30	-3008
LT	-3009
ci	-3010
tk	-3011
ERT	-3012
Pro	-3013
ana	-3014
arb	-3015
fig	-3016
gan	-3017
sey	-3018
▁30	-3019
▁50	-3020
▁Aw	-3021
Find	-3022
agne	-3023
cial	-3024
html	-3025
ists	-3026
link	-3027
time	-3028
uity	-3029
used	-3030
▁20-	-3031
▁Alt	-3032
▁HER	-3033
▁div	-3034
▁ice	-3035
▁sea	-3036
anger	-3037
astle	-3038
ipped	-3039
▁CART	-3040
▁East	-3041
▁From	-3042
▁fast	-3043
▁kiss	-3044
▁slim	-3045
remote	-3046
▁Honey	-3047
▁brown	-3048
▁drugs	-3049
▁fonts	-3050
▁ready	-3051
▁smoke	-3052
▁stuck	-3053
▁swear	-3054
▁veget	-3055
singing	-3056
▁Europe	-3057
▁FRENCH	-3058
▁Flying	-3059
▁Pretty	-3060
▁across	-3061
▁action	-3062
▁choose	-3063
▁struct	-3064
ookmarks	-3065
▁desktop	-3066
▁service	-3067
▁session	-3068
ification	-3069
▁checkbox	-3070
▁daughter	-3071
▁styleshe	-3072
▁gentlemen	-3073
▁navigation	-3074
IV	-3075
It	-3076
Oh	-3077
af	-3078
li	-3079
sm	-3080
Add	-3081
TON	-3082
ald	-3083
edd	-3084
set	-3085
sta	-3086
tab	-3087
▁12	-3088
▁Ed	-3089
▁Lo	-3090
▁Ok	-3091
ETTI	-3092
RING	-3093
That	-3094
aced	-3095
hern	-3096
▁0.7	-3097
▁Att	-3098
▁Ele	-3099
▁RAG	-3100
▁art	-3101
▁boo	-3102
▁egg	-3103
▁huh	-3104
▁lay	-3105
▁rap	-3106
▁shr	-3107
esome	-3108
orrow	-3109
right	-3110
▁City	-3111
▁Cras	-3112
▁Male	-3113
▁bars	-3114
▁case	-3115
▁flat	-3116
▁fram	-3117
▁jail	-3118
▁kick	-3119
▁mind	-3120
▁norm	-3121
▁ones	-3122
▁quit	-3123
screen	-3124
▁Japan	-3125
▁forms	-3126
▁named	-3127
▁words	-3128
RINGTON	-3129
▁Images	-3130
▁dinner	-3131
▁except	-3132
▁fairly	-3133
▁Context	-3134
▁Preview	-3135
▁RAGETTI	-3136
▁blocked	-3137
▁calling	-3138
▁deleted	-3139
▁feature	-3140
▁perform	-3141
▁serious	-3142
▁tooltip	-3143
▁certific	-3144
▁security	-3145
▁Manhattan	-3146
▁NORRINGTON	-3147
CH	-3148
Th	-3149
au	-3150
Don	-3151
ama	-3152
erv	-3153
ido	-3154
mon	-3155
ney	-3156
oci	-3157
osp	-3158
rit	-3159
ron	-3160
ume	-3161
▁ID	-3162
▁MS	-3163
alid	-3164
alth	-3165
ibbs	-3166
ilet	-3167
peed	-3168
pted	-3169
shit	-3170
vern	-3171
▁0.6	-3172
▁Big	-3173
▁Bro	-3174
▁tre	-3175
intel	-3176
inter	-3177
othes	-3178
rible	-3179
wheel	-3180
▁Here	-3181
▁Laun	-3182
▁Next	-3183
▁bigg	-3184
▁cock	-3185
▁coke	-3186
▁cred	-3187
▁fake	-3188
▁knew	-3189
▁late	-3190
▁sand	-3191
▁seat	-3192
▁sees	-3193
▁shot	-3194
▁tent	-3195
ishing	-3196
▁balls	-3197
▁cross	-3198
▁floor	-3199
▁freak	-3200
▁grand	-3201
▁indic	-3202
▁keeps	-3203
▁notes	-3204
▁paper	-3205
▁usage	-3206
Options	-3207
▁Jersey	-3208
▁Should	-3209
▁asking	-3210
▁bought	-3211
▁leaves	-3212
▁needed	-3213
▁report	-3214
▁saving	-3215
▁toilet	-3216
Firebird	-3217
▁Mexican	-3218
▁Perhaps	-3219
▁changed	-3220
▁husband	-3221
▁nightly	-3222
▁process	-3223
▁refresh	-3224
▁removed	-3225
▁waiting	-3226
▁American	-3227
▁Whatever	-3228
▁customer	-3229
▁standard	-3230
▁Excellent	-3231
▁passwords	-3232
▁Norrington	-3233
▁immediately	-3234
AM	-3235
DF	-3236
IC	-3237
OS	-3238
St	-3239
▁0	-3240
▁:	-3241
AND	-3242
enn	-3243
how	-3244
iod	-3245
pth	-3246
unt	-3247
▁25	-3248
▁Of	-3249
▁ju	-3250
ALMA	-3251
BERT	-3252
ails	-3253
flow	-3254
oter	-3255
plug	-3256
sole	-3257
ully	-3258
▁Bug	-3259
▁CAN	-3260
▁TIA	-3261
▁abs	-3262
▁cab	-3263
▁cow	-3264
▁due	-3265
agine	-3266
aking	-3267
ublic	-3268
▁Font	-3269
▁Hold	-3270
▁Lord	-3271
▁Loud	-3272
▁Soft	-3273
▁cage	-3274
▁clop	-3275
▁fact	-3276
▁orig	-3277
▁ride	-3278
▁sent	-3279
▁sugg	-3280
▁wall	-3281
amelot	-3282
hentic	-3283
▁Could	-3284
▁DALMA	-3285
▁Yahoo	-3286
▁begin	-3287
▁broke	-3288
▁event	-3289
▁fault	-3290
▁horse	-3291
▁kinda	-3292
▁learn	-3293
▁names	-3294
▁pound	-3295
▁separ	-3296
▁straw	-3297
▁worth	-3298
▁Blonde	-3299
▁Thanks	-3300
▁Vendor	-3301
▁cannib	-3302
▁family	-3303
▁forget	-3304
▁ghetto	-3305
▁manage	-3306
▁memory	-3307
▁points	-3308
▁tannic	-3309
▁thanks	-3310
▁unless	-3311
▁virgin	-3312
finitely	-3313
▁Camelot	-3314
▁Central	-3315
▁HERBERT	-3316
▁ability	-3317
▁classic	-3318
▁clothes	-3319
▁improve	-3320
▁monitor	-3321
▁parents	-3322
▁flavours	-3323
▁fragrant	-3324
▁language	-3325
▁question	-3326
▁Customize	-3327
▁Downloads	-3328
▁Implement	-3329
▁behaviour	-3330
▁highlight	-3331
▁disappears	-3332
▁displaying	-3333
▁motherfucker	-3334
IT	-3335
UN	-3336
gh	-3337
TRL	-3338
any	-3339
arl	-3340
asp	-3341
bal	-3342
eer	-3343
for	-3344
iny	-3345
iot	-3346
mmm	-3347
nam	-3348
net	-3349
pre	-3350
▁Le	-3351
▁Sy	-3352
▁TV	-3353
▁et	-3354
Well	-3355
ader	-3356
ares	-3357
iday	-3358
raid	-3359
tion	-3360
urch	-3361
▁Des	-3362
▁His	-3363
▁Int	-3364
▁Mar	-3365
▁Mod	-3366
▁Rob	-3367
▁Son	-3368
▁Str	-3369
▁eas	-3370
▁exe	-3371
▁ill	-3372
▁mag	-3373
▁pot	-3374
▁whe	-3375
Cause	-3376
arded	-3377
celot	-3378
ience	-3379
isten	-3380
olute	-3381
style	-3382
uplic	-3383
▁CTRL	-3384
▁Give	-3385
▁Over	-3386
▁Port	-3387
▁Sure	-3388
▁Turn	-3389
▁beat	-3390
▁fart	-3391
▁fell	-3392
▁hour	-3393
▁jump	-3394
▁pole	-3395
▁sick	-3396
angsta	-3397
ashion	-3398
ensity	-3399
oosing	-3400
▁GUEST	-3401
▁Three	-3402
▁apart	-3403
▁colum	-3404
▁depth	-3405
▁email	-3406
▁incre	-3407
▁lunch	-3408
▁often	-3409
▁quiet	-3410
▁shoot	-3411
▁tight	-3412
▁Button	-3413
▁associ	-3414
▁decent	-3415
▁fruity	-3416
▁ground	-3417
▁handle	-3418
▁partic	-3419
▁thinks	-3420
▁typing	-3421
Download	-3422
▁Teenage	-3423
▁checked	-3424
▁ignored	-3425
▁network	-3426
▁quality	-3427
▁selling	-3428
▁suggest	-3429
▁towards	-3430
▁deleting	-3431
▁favorite	-3432
▁handling	-3433
▁Launcelot	-3434
▁shortcuts	-3435
▁attempting	-3436
▁autoscroll	-3437
▁Downloading	-3438
▁certificate	-3439
▁concentrated	-3440
.0	-3441
ME	-3442
We	-3443
do	-3444
kn	-3445
And	-3446
ENE	-3447
IER	-3448
ere	-3449
hin	-3450
ico	-3451
mas	-3452
opy	-3453
yer	-3454
▁20	-3455
▁MA	-3456
▁ya	-3457
▁ye	-3458
anch	-3459
bout	-3460
cons	-3461
cust	-3462
fort	-3463
▁Lat	-3464
▁MTA	-3465
▁Pol	-3466
▁Say	-3467
▁Was	-3468
▁fel	-3469
▁gri	-3470
▁jar	-3471
▁lat	-3472
▁pie	-3473
▁tom	-3474
Enter	-3475
LDIER	-3476
ables	-3477
astic	-3478
ional	-3479
ising	-3480
ities	-3481
order	-3482
raken	-3483
venue	-3484
▁Cath	-3485
▁Full	-3486
▁Nigg	-3487
▁Russ	-3488
▁Site	-3489
▁User	-3490
▁born	-3491
▁deep	-3492
▁disc	-3493
▁edge	-3494
▁exam	-3495
▁exit	-3496
▁self	-3497
▁wedd	-3498
atures	-3499
robber	-3500
▁Quick	-3501
▁SCENE	-3502
▁South	-3503
▁becom	-3504
▁blind	-3505
▁cheap	-3506
▁falls	-3507
▁human	-3508
▁linux	-3509
▁older	-3510
▁panel	-3511
▁tries	-3512
▁twins	-3513
browser	-3514
outhern	-3515
ruction	-3516
▁Cookie	-3517
▁German	-3518
▁Google	-3519
▁Ladies	-3520
▁Person	-3521
▁Random	-3522
▁Slight	-3523
▁Update	-3524
▁afraid	-3525
▁corner	-3526
▁failed	-3527
▁hidden	-3528
▁modern	-3529
▁months	-3530
▁period	-3531
▁popups	-3532
▁stored	-3533
▁tentac	-3534
▁wonder	-3535
▁Ability	-3536
▁Crashes	-3537
▁SOLDIER	-3538
▁chicken	-3539
▁convers	-3540
▁created	-3541
▁seconds	-3542
▁similar	-3543
▁smoking	-3544
▁dragging	-3545
▁employee	-3546
▁existing	-3547
▁filename	-3548
▁property	-3549
▁visiting	-3550
▁accessing	-3551
▁exception	-3552
▁minerality	-3553
US	-3554
rc	-3555
MAN	-3556
PER	-3557
The	-3558
ads	-3559
ips	-3560
mit	-3561
ric	-3562
tes	-3563
ugh	-3564
vis	-3565
▁Ir	-3566
▁ft	-3567
▁gy	-3568
ROWD	-3569
Tool	-3570
adio	-3571
bing	-3572
dden	-3573
edia	-3574
enus	-3575
fill	-3576
ires	-3577
izza	-3578
onut	-3579
orge	-3580
quor	-3581
▁Har	-3582
▁MAN	-3583
▁PDF	-3584
▁Sat	-3585
▁Sim	-3586
▁row	-3587
blank	-3588
ement	-3589
oring	-3590
riage	-3591
ution	-3592
▁Free	-3593
▁Move	-3594
▁Only	-3595
▁beer	-3596
▁coun	-3597
▁dire	-3598
▁fing	-3599
▁migr	-3600
▁rain	-3601
icious	-3602
pector	-3603
ribute	-3604
▁Bimbo	-3605
▁Bring	-3606
▁CROWD	-3607
▁Clean	-3608
▁Drink	-3609
▁Short	-3610
▁Times	-3611
▁Using	-3612
▁brain	-3613
▁resol	-3614
▁story	-3615
▁sucks	-3616
▁typed	-3617
▁write	-3618
ampagne	-3619
▁Avenue	-3620
▁adding	-3621
▁forgot	-3622
▁moment	-3623
▁sudden	-3624
▁America	-3625
▁British	-3626
▁Fucking	-3627
▁Request	-3628
▁against	-3629
▁coconut	-3630
▁entered	-3631
▁failure	-3632
▁percent	-3633
▁Actually	-3634
▁Burgundy	-3635
▁Southern	-3636
▁entering	-3637
▁specific	-3638
▁watching	-3639
▁delicious	-3640
▁following	-3641
▁questions	-3642
▁screaming	-3643
▁seriously	-3644
▁concentration	-3645
45	-3646
EK	-3647
Ex	-3648
So	-3649
ms	-3650
BAL	-3651
URL	-3652
ada	-3653
coh	-3654
ibr	-3655
rom	-3656
▁Ge	-3657
▁vi	-3658
each	-3659
face	-3660
ideo	-3661
ills	-3662
illy	-3663
iver	-3664
oral	-3665
with	-3666
▁Ooo	-3667
▁cal	-3668
▁log	-3669
▁obs	-3670
▁pol	-3671
▁tra	-3672
▁tri	-3673
▁vol	-3674
NIBAL	-3675
ached	-3676
actly	-3677
ances	-3678
arian	-3679
ccess	-3680
ckett	-3681
enter	-3682
herry	-3683
ootst	-3684
pause	-3685
using	-3686
ustic	-3687
▁Cont	-3688
▁Easy	-3689
▁auth	-3690
▁bags	-3691
▁edit	-3692
▁feet	-3693
▁game	-3694
▁lick	-3695
▁mine	-3696
▁plat	-3697
▁prot	-3698
▁repe	-3699
▁soul	-3700
config	-3701
idding	-3702
istant	-3703
▁Light	-3704
▁Nigga	-3705
▁Round	-3706
▁brave	-3707
▁candy	-3708
▁dream	-3709
▁early	-3710
▁gross	-3711
▁knock	-3712
▁queer	-3713
▁sever	-3714
▁smart	-3715
▁spend	-3716
ability	-3717
ossible	-3718
▁Change	-3719
▁Double	-3720
▁Kraken	-3721
▁Themes	-3722
▁cancel	-3723
▁frames	-3724
▁ladies	-3725
▁normal	-3726
▁overwr	-3727
▁social	-3728
▁sounds	-3729
ootstrap	-3730
▁****(*)	-3731
▁Compass	-3732
▁Display	-3733
▁bottles	-3734
▁console	-3735
▁correct	-3736
▁crashed	-3737
▁returns	-3738
▁stopped	-3739
▁strange	-3740
▁whether	-3741
▁CANNIBAL	-3742
▁Everyone	-3743
▁Japanese	-3744
▁Remember	-3745
▁Slightly	-3746
▁computer	-3747
▁username	-3748
▁Christmas	-3749
▁functionality	-3750
.2	-3751
20	-3752
mp	-3753
▁=	-3754
NIS	-3755
amy	-3756
bin	-3757
ech	-3758
gar	-3759
icy	-3760
imp	-3761
oin	-3762
yed	-3763
zip	-3764
▁16	-3765
▁17	-3766
▁FF	-3767
▁Ma	-3768
▁ok	-3769
▁ur	-3770
MAST	-3771
boat	-3772
fire	-3773
girl	-3774
itty	-3775
orld	-3776
otic	-3777
vent	-3778
walk	-3779
▁Aye	-3780
▁Bad	-3781
▁Cal	-3782
▁DEN	-3783
▁Fav	-3784
▁Gay	-3785
▁Gen	-3786
▁Tea	-3787
▁det	-3788
▁dro	-3789
▁low	-3790
▁mac	-3791
▁max	-3792
▁mid	-3793
▁pdf	-3794
alent	-3795
arter	-3796
going	-3797
igned	-3798
iling	-3799
oding	-3800
pages	-3801
reate	-3802
ulous	-3803
▁Icon	-3804
▁Mail	-3805
▁Stud	-3806
▁Work	-3807
▁cork	-3808
▁dirt	-3809
▁disg	-3810
▁hide	-3811
▁hosp	-3812
▁hurt	-3813
▁luck	-3814
▁news	-3815
▁numb	-3816
▁peak	-3817
▁plan	-3818
▁porn	-3819
▁post	-3820
▁slut	-3821
▁thug	-3822
▁vert	-3823
MASTER	-3824
ending	-3825
izable	-3826
▁First	-3827
▁Guido	-3828
▁Older	-3829
▁activ	-3830
▁along	-3831
▁grabs	-3832
▁https	-3833
▁locks	-3834
▁loses	-3835
▁naked	-3836
▁share	-3837
▁shoes	-3838
▁slept	-3839
▁surpr	-3840
Mozilla	-3841
etscape	-3842
▁Columb	-3843
▁DENNIS	-3844
▁People	-3845
▁Waiter	-3846
▁bridge	-3847
▁church	-3848
▁coffee	-3849
▁crying	-3850
▁engine	-3851
▁format	-3852
▁hungry	-3853
▁killed	-3854
▁matter	-3855
▁nobody	-3856
▁orange	-3857
▁remind	-3858
▁resize	-3859
▁seeing	-3860
▁smoker	-3861
▁Grandma	-3862
▁creates	-3863
▁dialogs	-3864
▁hanging	-3865
▁singing	-3866
▁texture	-3867
▁wedding	-3868
Bookmarks	-3869
onsistent	-3870
▁Business	-3871
▁Catholic	-3872
▁Customer	-3873
▁birthday	-3874
▁contents	-3875
▁internet	-3876
▁overflow	-3877
▁pointing	-3878
▁redirect	-3879
▁rendered	-3880
▁websites	-3881
▁Seriously	-3882
▁underwear	-3883
hentication	-3884
▁disappoint	-3885
▁fullscreen	-3886
▁responding	-3887
'?	-3888
tr	-3889
yy	-3890
(**	-3891
Nor	-3892
amb	-3893
ari	-3894
col	-3895
ino	-3896
ley	-3897
ohn	-3898
por	-3899
ppy	-3900
que	-3901
sel	-3902
uce	-3903
urb	-3904
url	-3905
uth	-3906
▁Ph	-3907
▁ir	-3908
▁um	-3909
(**)	-3910
HTML	-3911
View	-3912
airs	-3913
cont	-3914
iter	-3915
ivid	-3916
izes	-3917
lick	-3918
oles	-3919
orex	-3920
read	-3921
rows	-3922
▁Eas	-3923
▁Huh	-3924
▁Ste	-3925
▁Tod	-3926
▁dun	-3927
▁est	-3928
▁fre	-3929
▁rac	-3930
▁rob	-3931
▁spl	-3932
ained	-3933
eared	-3934
ended	-3935
itten	-3936
pping	-3937
useum	-3938
▁Down	-3939
▁Pure	-3940
▁Ston	-3941
▁ball	-3942
▁fish	-3943
▁hobo	-3944
▁loop	-3945
▁none	-3946
▁rope	-3947
access	-3948
aurant	-3949
plorer	-3950
select	-3951
▁Bible	-3952
▁Block	-3953
▁Robin	-3954
▁Those	-3955
▁appro	-3956
▁below	-3957
▁corru	-3958
▁frame	-3959
▁graph	-3960
▁model	-3961
▁notic	-3962
▁steal	-3963
▁answer	-3964
▁branch	-3965
▁butter	-3966
▁column	-3967
▁freeze	-3968
▁lawyer	-3969
▁minute	-3970
▁mumble	-3971
▁prison	-3972
▁seemed	-3973
▁Problem	-3974
▁becomes	-3975
▁bitches	-3976
▁blocker	-3977
▁confirm	-3978
▁entries	-3979
▁include	-3980
▁leaving	-3981
▁letters	-3982
▁mention	-3983
▁rounded	-3984
▁station	-3985
▁trouble	-3986
▁Fragrant	-3987
▁Interest	-3988
▁absolute	-3989
▁behavior	-3990
▁bullshit	-3991
▁platform	-3992
▁printing	-3993
▁Champagne	-3994
▁Selecting	-3995
▁attention	-3996
▁intensity	-3997
▁launching	-3998
▁difference	-3999
▁conversation	-4000
?)	-4001
Ch	-4002
Do	-4003
LY	-4004
Re	-4005
SO	-4006
TK	-4007
sl	-4008
Get	-4009
IDS	-4010
eep	-4011
ilt	-4012
loc	-4013
oph	-4014
see	-4015
son	-4016
▁15	-4017
▁35	-4018
▁Da	-4019
▁Sk	-4020
▁bu	-4021
▁xp	-4022
OMAN	-4023
aint	-4024
aved	-4025
ided	-4026
only	-4027
oury	-4028
tegr	-4029
uses	-4030
▁Mid	-4031
▁Out	-4032
▁RFE	-4033
▁Shh	-4034
▁Too	-4035
▁ann	-4036
▁etc	-4037
▁imp	-4038
▁lie	-4039
▁mot	-4040
▁nor	-4041
▁sus	-4042
▁tun	-4043
acing	-4044
block	-4045
check	-4046
ender	-4047
enger	-4048
ethod	-4049
fully	-4050
heard	-4051
ingly	-4052
kward	-4053
ously	-4054
shirt	-4055
▁AIDS	-4056
▁Aust	-4057
▁Comm	-4058
▁John	-4059
▁Supp	-4060
▁diff	-4061
▁diss	-4062
▁dumb	-4063
▁expl	-4064
▁felt	-4065
▁host	-4066
▁neck	-4067
▁pops	-4068
▁runs	-4069
▁shop	-4070
▁symb	-4071
▁tags	-4072
▁woke	-4073
anging	-4074
button	-4075
▁Irish	-4076
▁Menus	-4077
▁Needs	-4078
▁Queen	-4079
▁Table	-4080
▁These	-4081
▁Which	-4082
▁alcoh	-4083
▁fully	-4084
▁guard	-4085
▁moved	-4086
▁pause	-4087
▁pleas	-4088
▁power	-4089
▁speed	-4090
▁spell	-4091
▁teeth	-4092
▁thank	-4093
▁visit	-4094
▁weren	-4095
ipboard	-4096
▁Access	-4097
▁Listen	-4098
▁Screen	-4099
▁attend	-4100
▁dining	-4101
▁dollar	-4102
▁header	-4103
▁squeak	-4104
▁worker	-4105
▁Nothing	-4106
▁Teacher	-4107
▁awesome	-4108
▁captain	-4109
▁finally	-4110
▁himself	-4111
▁hitting	-4112
▁initial	-4113
▁kidding	-4114
▁lacking	-4115
▁numbers	-4116
▁several	-4117
▁success	-4118
▁Toolbars	-4119
▁finished	-4120
▁pictures	-4121
▁possibly	-4122
▁pressing	-4123
▁suddenly	-4124
▁tomorrow	-4125
Norrington	-4126
▁Scrollbar	-4127
▁apartment	-4128
▁attribute	-4129
▁excellent	-4130
▁implement	-4131
▁specified	-4132
▁Girlfriend	-4133
▁containing	-4134
▁stylesheet	-4135
▁MozillaFirebird	-4136
")	-4137
",	-4138
*.	-4139
,"	-4140
.)	-4141
32	-4142
XP	-4143
zz	-4144
IDG	-4145
New	-4146
Pod	-4147
RAT	-4148
Set	-4149
UST	-4150
eaf	-4151
job	-4152
let	-4153
med	-4154
olo	-4155
ule	-4156
unc	-4157
vil	-4158
▁AN	-4159
▁Bi	-4160
▁By	-4161
▁CH	-4162
▁FB	-4163
INST	-4164
iest	-4165
pace	-4166
save	-4167
sive	-4168
▁1.4	-4169
▁Clo	-4170
▁DOM	-4171
▁Heh	-4172
▁Ins	-4173
▁Off	-4174
▁Ooh	-4175
▁Tom	-4176
▁ate	-4177
▁bat	-4178
▁cum	-4179
▁fly	-4180
▁fut	-4181
▁gtk	-4182
▁lib	-4183
▁mix	-4184
▁obv	-4185
▁pat	-4186
▁sal	-4187
▁sum	-4188
▁van	-4189
aving	-4190
erver	-4191
field	-4192
icans	-4193
istry	-4194
itive	-4195
robat	-4196
▁Mess	-4197
▁Migr	-4198
▁Once	-4199
▁Poss	-4200
▁asks	-4201
▁bird	-4202
▁bust	-4203
▁cost	-4204
▁iPod	-4205
▁kept	-4206
▁laun	-4207
▁mach	-4208
▁mast	-4209
▁poop	-4210
▁sail	-4211
▁serv	-4212
▁viol	-4213
Pintel	-4214
ancing	-4215
anking	-4216
arette	-4217
bedded	-4218
illage	-4219
illion	-4220
incess	-4221
onents	-4222
overed	-4223
terday	-4224
unette	-4225
weight	-4226
window	-4227
▁Allow	-4228
▁Class	-4229
▁Gibbs	-4230
▁Icons	-4231
▁Sweet	-4232
▁Touch	-4233
▁boobs	-4234
▁books	-4235
▁catch	-4236
▁death	-4237
▁ident	-4238
▁label	-4239
▁lives	-4240
▁marry	-4241
▁piece	-4242
▁pizza	-4243
▁track	-4244
▁types	-4245
ternate	-4246
uration	-4247
▁Import	-4248
▁Status	-4249
▁Stoner	-4250
▁applet	-4251
▁brings	-4252
▁castle	-4253
▁domain	-4254
▁duplic	-4255
▁execut	-4256
▁famous	-4257
▁figure	-4258
▁intell	-4259
▁liquor	-4260
▁listed	-4261
▁master	-4262
▁online	-4263
▁rustic	-4264
▁tabbed	-4265
▁target	-4266
aspberry	-4267
▁Knights	-4268
▁Russian	-4269
▁Student	-4270
▁allowed	-4271
▁express	-4272
▁happens	-4273
▁ignores	-4274
▁imagine	-4275
▁individ	-4276
▁parsing	-4277
▁perfect	-4278
▁remains	-4279
▁swallow	-4280
▁European	-4281
▁Explorer	-4282
▁Personal	-4283
▁attempts	-4284
▁cannibal	-4285
▁expected	-4286
▁hospital	-4287
▁imported	-4288
▁register	-4289
▁shrubber	-4290
▁somebody	-4291
▁Boyfriend	-4292
▁beginning	-4293
▁cigarette	-4294
▁everybody	-4295
##	-4296
Be	-4297
SP	-4298
Sh	-4299
rr	-4300
ze	-4301
But	-4302
Mac	-4303
asm	-4304
iam	-4305
ids	-4306
kit	-4307
new	-4308
obe	-4309
off	-4310
oof	-4311
oom	-4312
ott	-4313
rdf	-4314
sec	-4315
she	-4316
ugg	-4317
ups	-4318
▁Av	-4319
▁er	-4320
▁ge	-4321
Page	-4322
aded	-4323
agel	-4324
ccur	-4325
comp	-4326
drop	-4327
icro	-4328
leep	-4329
orts	-4330
reme	-4331
tool	-4332
town	-4333
ummy	-4334
yond	-4335
▁#1,	-4336
▁Bag	-4337
▁Bet	-4338
▁Dom	-4339
▁NAR	-4340
▁Pin	-4341
▁aud	-4342
▁cam	-4343
▁css	-4344
▁fag	-4345
▁hip	-4346
▁mil	-4347
▁swe	-4348
About	-4349
RATOR	-4350
about	-4351
annel	-4352
bered	-4353
berty	-4354
clang	-4355
erate	-4356
icted	-4357
ivers	-4358
music	-4359
otton	-4360
velop	-4361
▁2003	-4362
▁Cert	-4363
▁Dele	-4364
▁Even	-4365
▁Last	-4366
▁Prom	-4367
▁Tech	-4368
▁Type	-4369
▁amaz	-4370
▁blue	-4371
▁boot	-4372
▁boys	-4373
▁chat	-4374
▁club	-4375
▁dogs	-4376
▁feed	-4377
▁join	-4378
▁meal	-4379
▁park	-4380
▁puts	-4381
▁spir	-4382
▁thin	-4383
active	-4384
efined	-4385
itions	-4386
orexic	-4387
▁Check	-4388
▁Clear	-4389
▁bunch	-4390
▁carry	-4391
▁dunno	-4392
▁expen	-4393
▁juice	-4394
▁lacks	-4395
▁match	-4396
▁maxim	-4397
▁meant	-4398
▁navig	-4399
▁offic	-4400
▁paste	-4401
▁remem	-4402
▁width	-4403
▁worse	-4404
itching	-4405
perties	-4406
▁Cancel	-4407
▁GUESTS	-4408
▁Plugin	-4409
▁Twenty	-4410
▁arrows	-4411
▁babies	-4412
▁bright	-4413
▁cancer	-4414
▁medium	-4415
▁office	-4416
▁others	-4417
▁spaces	-4418
▁symbol	-4419
▁vendor	-4420
▁Looking	-4421
▁Scrapes	-4422
▁animals	-4423
▁element	-4424
▁exactly	-4425
▁forever	-4426
▁general	-4427
▁plugins	-4428
▁quickly	-4429
▁related	-4430
struction	-4431
▁Complete	-4432
▁NARRATOR	-4433
▁elements	-4434
▁keywords	-4435
▁profiles	-4436
▁progress	-4437
▁richness	-4438
▁Incorrect	-4439
▁Inspector	-4440
▁attendant	-4441
▁uninstall	-4442
▁Installing	-4443
▁friendship	-4444
▁applications	-4445
▁notification	-4446
*!	-4447
10	-4448
He	-4449
My	-4450
OK	-4451
TP	-4452
UL	-4453
bb	-4454
tw	-4455
ALE	-4456
ENT	-4457
Hey	-4458
OON	-4459
She	-4460
arr	-4461
flu	-4462
ien	-4463
ums	-4464
ury	-4465
www	-4466
▁96	-4467
▁BR	-4468
▁Fa	-4469
▁HS	-4470
▁Mr	-4471
▁Rh	-4472
▁pa	-4473
EKEE	-4474
alse	-4475
anny	-4476
apse	-4477
ards	-4478
area	-4479
ency	-4480
hand	-4481
ians	-4482
ises	-4483
lies	-4484
oops	-4485
soft	-4486
ural	-4487
▁Bab	-4488
▁Car	-4489
▁Fat	-4490
▁Has	-4491
▁Hmm	-4492
▁Rep	-4493
▁Tot	-4494
▁XPI	-4495
▁bow	-4496
▁cra	-4497
▁dig	-4498
▁fan	-4499
▁hee	-4500
▁hom	-4501
▁map	-4502
▁rat	-4503
aches	-4504
attoo	-4505
icher	-4506
icons	-4507
icult	-4508
lobal	-4509
ongue	-4510
onkey	-4511
oured	-4512
owers	-4513
space	-4514
tings	-4515
▁Gent	-4516
▁Jews	-4517
▁Mult	-4518
▁Must	-4519
▁Oooh	-4520
▁Time	-4521
▁Want	-4522
▁base	-4523
▁boom	-4524
▁cent	-4525
▁crab	-4526
▁dest	-4527
▁ears	-4528
▁fizz	-4529
▁glad	-4530
▁jack	-4531
▁joke	-4532
▁king	-4533
▁nuts	-4534
▁ring	-4535
▁root	-4536
▁sear	-4537
▁snow	-4538
▁spot	-4539
▁task	-4540
▁wrap	-4541
enuine	-4542
iction	-4543
inding	-4544
tering	-4545
▁BRIDG	-4546
▁World	-4547
▁badly	-4548
▁crowd	-4549
▁emplo	-4550
▁idiot	-4551
▁knows	-4552
▁nutty	-4553
▁occur	-4554
▁offer	-4555
▁overl	-4556
▁owner	-4557
▁rship	-4558
▁sheet	-4559
▁silly	-4560
▁steps	-4561
▁tells	-4562
▁trash	-4563
▁video	-4564
▁volat	-4565
EKEEPER	-4566
Install	-4567
ibility	-4568
▁Claret	-4569
▁Turner	-4570
▁accent	-4571
▁arrest	-4572
▁caught	-4573
▁chance	-4574
▁cherry	-4575
▁creamy	-4576
▁credit	-4577
▁dating	-4578
▁depend	-4579
▁floral	-4580
▁follow	-4581
▁future	-4582
▁govern	-4583
▁includ	-4584
▁issues	-4585
▁nigger	-4586
▁refres	-4587
▁smooth	-4588
▁stands	-4589
▁tongue	-4590
▁toward	-4591
▁walked	-4592
▁yellow	-4593
icrosoft	-4594
pecially	-4595
stantial	-4596
ustomize	-4597
▁African	-4598
▁CARTOON	-4599
▁Elegant	-4600
▁Feature	-4601
▁Support	-4602
▁account	-4603
▁brought	-4604
▁excited	-4605
▁impress	-4606
▁leather	-4607
▁machine	-4608
▁neither	-4609
▁renders	-4610
▁restore	-4611
▁Columbia	-4612
▁Employee	-4613
▁Keyboard	-4614
▁Printing	-4615
▁defaults	-4616
▁instance	-4617
▁oxidised	-4618
▁recently	-4619
▁retarded	-4620
▁sleeping	-4621
▁throbber	-4622
▁raspberry	-4623
▁recognize	-4624
▁secondary	-4625
▁structure	-4626
▁everywhere	-4627
▁individual	-4628
▁remembered	-4629
▁restaurant	-4630
▁scrollbars	-4631
▁strawberry	-4632
▁disappeared	-4633
▁BRIDGEKEEPER	-4634
▁customization	-4635
">	-4636
',	-4637
),	-4638
CC	-4639
To	-4640
la	-4641
lt	-4642
yo	-4643
AMY	-4644
REL	-4645
aff	-4646
aim	-4647
bag	-4648
dis	-4649
dry	-4650
ior	-4651
jar	-4652
oid	-4653
rus	-4654
ryt	-4655
squ	-4656
udd	-4657
▁("	-4658
▁42	-4659
▁Aa	-4660
▁Co	-4661
▁JS	-4662
▁NI	-4663
▁Ne	-4664
▁Ty	-4665
▁da	-4666
▁hi	-4667
▁js	-4668
▁os	-4669
INGO	-4670
anic	-4671
ased	-4672
bled	-4673
ends	-4674
etro	-4675
host	-4676
ming	-4677
oard	-4678
quot	-4679
this	-4680
urry	-4681
wise	-4682
▁###	-4683
▁Ann	-4684
▁FTP	-4685
▁GTK	-4686
▁ISL	-4687
▁May	-4688
▁Mer	-4689
▁Pat	-4690
▁SSL	-4691
▁War	-4692
▁bod	-4693
▁dat	-4694
▁dem	-4695
▁esc	-4696
▁gym	-4697
▁hig	-4698
▁hop	-4699
▁nsI	-4700
▁pet	-4701
▁pin	-4702
▁sat	-4703
▁wat	-4704
Click	-4705
Frame	-4706
LLAMY	-4707
althy	-4708
anana	-4709
eaker	-4710
erved	-4711
hance	-4712
inary	-4713
ribut	-4714
▁Cons	-4715
▁Didn	-4716
▁MALE	-4717
▁Pref	-4718
▁Stat	-4719
▁Tell	-4720
▁arri	-4721
▁camp	-4722
▁goin	-4723
▁mist	-4724
▁note	-4725
▁oper	-4726
▁pant	-4727
▁pink	-4728
▁prov	-4729
▁rabb	-4730
▁tits	-4731
▁unus	-4732
▁wont	-4733
ersion	-4734
parent	-4735
pected	-4736
racted	-4737
ressed	-4738
search	-4739
▁Bitch	-4740
▁DINGO	-4741
▁Guess	-4742
▁Links	-4743
▁Somet	-4744
▁Under	-4745
▁basic	-4746
▁built	-4747
▁compl	-4748
▁crewm	-4749
▁drive	-4750
▁drops	-4751
▁holds	-4752
▁hurry	-4753
▁issue	-4754
▁queen	-4755
▁radio	-4756
▁reach	-4757
▁reset	-4758
▁sauce	-4759
▁scene	-4760
▁setup	-4761
▁shift	-4762
▁sugar	-4763
▁taken	-4764
▁tired	-4765
▁tools	-4766
▁total	-4767
▁trunc	-4768
▁worst	-4769
Firefox	-4770
Manager	-4771
inating	-4772
mozilla	-4773
speaker	-4774
▁ISLAND	-4775
▁aboard	-4776
▁animal	-4777
▁apples	-4778
▁bigger	-4779
▁border	-4780
▁choice	-4781
▁colors	-4782
▁flight	-4783
▁fruits	-4784
▁island	-4785
▁latest	-4786
▁letter	-4787
▁method	-4788
▁pissed	-4789
▁skinny	-4790
▁tattoo	-4791
▁throws	-4792
▁travel	-4793
▁twenty	-4794
▁worked	-4795
artender	-4796
▁BELLAMY	-4797
▁Barista	-4798
▁Cookies	-4799
▁Intense	-4800
▁Keyword	-4801
▁Mineral	-4802
▁Missing	-4803
▁Privacy	-4804
▁alcohol	-4805
▁counter	-4806
▁example	-4807
▁updates	-4808
▁Brunette	-4809
▁Promoter	-4810
▁Shortcut	-4811
▁Waitress	-4812
▁anywhere	-4813
▁business	-4814
▁consider	-4815
▁directly	-4816
▁embedded	-4817
▁software	-4818
▁terrible	-4819
▁whenever	-4820
▁condition	-4821
▁direction	-4822
▁enjoyable	-4823
▁authentication	-4824
"!	-4825
''	-4826
-0	-4827
50	-4828
AS	-4829
FT	-4830
bt	-4831
ka	-4832
uc	-4833
ys	-4834
-0.	-4835
000	-4836
Can	-4837
ERS	-4838
IAN	-4839
ION	-4840
IVE	-4841
OME	-4842
OOT	-4843
SOH	-4844
Tab	-4845
cha	-4846
ero	-4847
fit	-4848
hea	-4849
heh	-4850
hhh	-4851
ige	-4852
lor	-4853
nes	-4854
nut	-4855
omb	-4856
oon	-4857
pal	-4858
pet	-4859
sed	-4860
tle	-4861
une	-4862
xul	-4863
▁AM	-4864
▁Jo	-4865
▁Mc	-4866
▁ST	-4867
▁YO	-4868
▁ap	-4869
▁bi	-4870
▁oh	-4871
This	-4872
arth	-4873
arty	-4874
ases	-4875
aven	-4876
bers	-4877
cell	-4878
egal	-4879
gins	-4880
lper	-4881
menu	-4882
osen	-4883
oups	-4884
pose	-4885
rink	-4886
rodu	-4887
some	-4888
sych	-4889
umps	-4890
vere	-4891
▁199	-4892
▁Aaa	-4893
▁Ass	-4894
▁GRE	-4895
▁Gal	-4896
▁Hea	-4897
▁Log	-4898
▁Mal	-4899
▁Naw	-4900
▁Non	-4901
▁Res	-4902
▁aff	-4903
▁cru	-4904
▁fet	-4905
▁gar	-4906
▁gif	-4907
▁mus	-4908
▁rub	-4909
▁rum	-4910
▁tax	-4911
▁tou	-4912
▁wet	-4913
▁zip	-4914
Close	-4915
Jones	-4916
Space	-4917
aging	-4918
ashes	-4919
cious	-4920
iable	-4921
iding	-4922
iring	-4923
ories	-4924
quant	-4925
vator	-4926
▁Bell	-4927
▁Bush	-4928
▁Char	-4929
▁Drop	-4930
▁Edit	-4931
▁GSOH	-4932
▁Real	-4933
▁Send	-4934
▁Sing	-4935
▁Ummm	-4936
▁ZOOT	-4937
▁bare	-4938
▁bone	-4939
▁cars	-4940
▁cops	-4941
▁cous	-4942
▁desc	-4943
▁dual	-4944
▁dull	-4945
▁eats	-4946
▁eggs	-4947
▁hasn	-4948
▁inde	-4949
▁laid	-4950
▁phot	-4951
▁sexy	-4952
▁spea	-4953
▁vibr	-4954
▁vine	-4955
▁wake	-4956
▁wild	-4957
earing	-4958
enable	-4959
ilence	-4960
ousand	-4961
usting	-4962
▁0.6.1	-4963
▁Sales	-4964
▁Starb	-4965
▁Upper	-4966
▁agree	-4967
▁ahead	-4968
▁clerk	-4969
▁dance	-4970
▁devil	-4971
▁eight	-4972
▁elect	-4973
▁feels	-4974
▁knife	-4975
▁loves	-4976
▁medic	-4977
▁param	-4978
▁patch	-4979
▁picks	-4980
▁shove	-4981
▁silky	-4982
▁stays	-4983
▁stink	-4984
▁stret	-4985
▁threw	-4986
▁trust	-4987
amonkey	-4988
firefox	-4989
ocomple	-4990
osition	-4991
▁Enable	-4992
▁Friday	-4993
▁amount	-4994
▁asleep	-4995
▁beyond	-4996
▁blocks	-4997
▁botryt	-4998
▁breath	-4999
▁classy	-5000
▁editor	-5001
▁enable	-5002
▁escape	-5003
▁filled	-5004
▁lately	-5005
▁niggas	-5006
▁notice	-5007
▁perman	-5008
▁places	-5009
▁police	-5010
▁pulled	-5011
▁racist	-5012
▁riding	-5013
antastic	-5014
ceptions	-5015
missions	-5016
▁Parsing	-5017
▁Yorkers	-5018
▁awkward	-5019
▁crowded	-5020
▁decided	-5021
▁defined	-5022
▁develop	-5023
▁dragged	-5024
▁editing	-5025
▁engines	-5026
▁evening	-5027
▁gangsta	-5028
▁invalid	-5029
▁pressed	-5030
▁quarter	-5031
▁refuses	-5032
▁reports	-5033
▁savoury	-5034
▁seeking	-5035
▁visited	-5036
▁Drinking	-5037
▁Netscape	-5038
▁Possibly	-5039
▁advanced	-5040
▁animated	-5041
▁choosing	-5042
▁collapse	-5043
▁creating	-5044
▁favicons	-5045
▁longboat	-5046
▁thousand	-5047
▁updating	-5048
▁vertical	-5049
▁Overheard	-5050
▁Uninstall	-5051
▁difficult	-5052
▁expensive	-5053
▁partially	-5054
▁separator	-5055
▁tentacles	-5056
▁whitelist	-5057
▁yesterday	-5058
▁Autoscroll	-5059
▁Navigation	-5060
▁definitely	-5061
▁disgusting	-5062
▁particular	-5063
▁vegetarian	-5064
▁Interesting	-5065
-1	-5066
4.	-5067
BL	-5068
Pr	-5069
Un	-5070
sn	-5071
ACT	-5072
ADY	-5073
ESS	-5074
FIC	-5075
UCK	-5076
ato	-5077
bit	-5078
era	-5079
fun	-5080
htt	-5081
ium	-5082
mar	-5083
uer	-5084
zen	-5085
▁13	-5086
▁18	-5087
▁45	-5088
▁CO	-5089
▁GO	-5090
▁Id	-5091
▁PA	-5092
▁Sn	-5093
▁ce	-5094
▁cu	-5095
▁dy	-5096
▁eh	-5097
OMER	-5098
acon	-5099
aine	-5100
aped	-5101
arse	-5102
augh	-5103
bert	-5104
book	-5105
cake	-5106
cing	-5107
clop	-5108
cook	-5109
cuse	-5110
ench	-5111
ifty	-5112
ined	-5113
inet	-5114
izer	-5115
keys	-5116
oker	-5117
olar	-5118
olog	-5119
rael	-5120
stit	-5121
stop	-5122
term	-5123
type	-5124
yard	-5125
▁Cut	-5126
▁Hit	-5127
▁Law	-5128
▁Pie	-5129
▁Put	-5130
▁Sup	-5131
▁URI	-5132
▁Ugh	-5133
▁Vin	-5134
▁Wel	-5135
▁bra	-5136
▁bun	-5137
▁bur	-5138
▁cap	-5139
▁cry	-5140
▁dir	-5141
▁ear	-5142
▁gre	-5143
▁har	-5144
▁heh	-5145
▁lar	-5146
▁mer	-5147
▁mut	-5148
▁opp	-5149
▁org	-5150
▁pir	-5151
▁ren	-5152
▁syn	-5153
ARACT	-5154
abbie	-5155
antly	-5156
assis	-5157
imary	-5158
ished	-5159
istic	-5160
istol	-5161
izard	-5162
izont	-5163
known	-5164
mouse	-5165
ority	-5166
osher	-5167
oving	-5168
sters	-5169
uerto	-5170
unday	-5171
▁CUST	-5172
▁Conf	-5173
▁GIRL	-5174
▁Hisp	-5175
▁Keep	-5176
▁Kore	-5177
▁LADY	-5178
▁Live	-5179
▁Most	-5180
▁Nope	-5181
▁Shop	-5182
▁Take	-5183
▁Tall	-5184
▁Todd	-5185
▁Word	-5186
▁aust	-5187
▁band	-5188
▁bell	-5189
▁bite	-5190
▁butt	-5191
▁chop	-5192
▁fair	-5193
▁held	-5194
▁hole	-5195
▁milk	-5196
▁pret	-5197
▁seek	-5198
▁sets	-5199
▁situ	-5200
▁stat	-5201
▁term	-5202
▁unex	-5203
▁upgr	-5204
always	-5205
erator	-5206
formed	-5207
gative	-5208
ifying	-5209
ission	-5210
rypted	-5211
selves	-5212
ularly	-5213
▁Again	-5214
▁China	-5215
▁Empty	-5216
▁Frank	-5217
▁Fresh	-5218
▁Happy	-5219
▁MINST	-5220
▁North	-5221
▁Seems	-5222
▁Shift	-5223
▁Small	-5224
▁Sober	-5225
▁Stand	-5226
▁WOMAN	-5227
▁appet	-5228
▁baked	-5229
▁based	-5230
▁blend	-5231
▁bread	-5232
▁breat	-5233
▁calls	-5234
▁cover	-5235
▁exper	-5236
▁fixed	-5237
▁grace	-5238
▁grape	-5239
▁heavy	-5240
▁hover	-5241
▁invis	-5242
▁known	-5243
▁laugh	-5244
▁liked	-5245
▁meaty	-5246
▁media	-5247
▁mommy	-5248
▁nasty	-5249
▁outdo	-5250
▁paint	-5251
▁punch	-5252
▁ridic	-5253
▁whore	-5254
▁whose	-5255
▁wrote	-5256
▁yours	-5257
Toolbar	-5258
iesling	-5259
perlink	-5260
plugins	-5261
ushroom	-5262
▁Africa	-5263
▁Latina	-5264
▁Mister	-5265
▁Modern	-5266
▁Puerto	-5267
▁Sunday	-5268
▁Valent	-5269
▁attack	-5270
▁client	-5271
▁danger	-5272
▁easily	-5273
▁exotic	-5274
▁herpes	-5275
▁locked	-5276
▁native	-5277
▁passed	-5278
▁public	-5279
▁purple	-5280
▁slowly	-5281
▁steals	-5282
▁tasted	-5283
▁tastes	-5284
▁taught	-5285
▁tempor	-5286
▁terror	-5287
▁ticket	-5288
▁values	-5289
▁whores	-5290
▁yeasty	-5291
fortable	-5292
▁Beckett	-5293
▁CHARACT	-5294
▁Eastern	-5295
▁General	-5296
▁MySpace	-5297
▁Totally	-5298
▁clearly	-5299
▁evolved	-5300
▁extreme	-5301
▁feeling	-5302
▁fishing	-5303
▁genuine	-5304
▁herself	-5305
▁keeping	-5306
▁pointer	-5307
▁prevent	-5308
▁putting	-5309
▁removes	-5310
▁replace	-5311
▁section	-5312
▁smaller	-5313
▁suspect	-5314
▁written	-5315
▁younger	-5316
▁CUSTOMER	-5317
▁MINSTREL	-5318
▁Multiple	-5319
▁Probably	-5320
▁Straight	-5321
▁accident	-5322
▁apparent	-5323
▁descript	-5324
▁dialogue	-5325
▁elevator	-5326
▁employed	-5327
▁manually	-5328
▁messages	-5329
▁prevents	-5330
▁protocol	-5331
▁realized	-5332
▁removing	-5333
▁resizing	-5334
▁Scrolling	-5335
▁Sometimes	-5336
▁Valentine	-5337
▁basically	-5338
▁gentleman	-5339
▁interface	-5340
▁shrubbery	-5341
▁somewhere	-5342
▁interested	-5343
▁ridiculous	-5344
▁structured	-5345
▁underlying	-5346
▁customizing	-5347
▁inconsistent	-5348
▁Twentysomething	-5349
-8	-5350
1.	-5351
40	-5352
??	-5353
Ad	-5354
IG	-5355
IR	-5356
Im	-5357
OZ	-5358
SH	-5359
YN	-5360
gl	-5361
ju	-5362
ok	-5363
pa	-5364
pu	-5365
rd	-5366
xp	-5367
▁_	-5368
.--	-5369
200	-5370
COR	-5371
ECT	-5372
For	-5373
Use	-5374
Why	-5375
ago	-5376
aph	-5377
bac	-5378
eks	-5379
inc	-5380
ios	-5381
lex	-5382
pad	-5383
raq	-5384
tin	-5385
uga	-5386
win	-5387
zoh	-5388
▁95	-5389
▁BO	-5390
▁Ob	-5391
▁TH	-5392
▁je	-5393
▁ut	-5394
!!!!	-5395
Back	-5396
abby	-5397
ahad	-5398
aves	-5399
avid	-5400
bles	-5401
ccas	-5402
erve	-5403
find	-5404
iner	-5405
nect	-5406
ooch	-5407
otes	-5408
reek	-5409
ules	-5410
umes	-5411
urbs	-5412
ushi	-5413
what	-5414
▁1.0	-5415
▁Art	-5416
▁Ave	-5417
▁CON	-5418
▁Mad	-5419
▁Mag	-5420
▁Mem	-5421
▁OLD	-5422
▁Odd	-5423
▁Sun	-5424
▁Vis	-5425
▁XBL	-5426
▁XUL	-5427
▁Yup	-5428
▁ang	-5429
▁cho	-5430
▁cir	-5431
▁cpu	-5432
▁def	-5433
▁den	-5434
▁eff	-5435
▁fem	-5436
▁gro	-5437
▁haw	-5438
▁hol	-5439
▁mur	-5440
▁pap	-5441
▁pun	-5442
▁sac	-5443
▁saf	-5444
▁scr	-5445
▁sol	-5446
▁sun	-5447
▁tow	-5448
CORDE	-5449
Error	-5450
YNARD	-5451
ardon	-5452
asing	-5453
bette	-5454
endid	-5455
ening	-5456
focus	-5457
ision	-5458
ollow	-5459
onent	-5460
owder	-5461
ument	-5462
verse	-5463
▁Arab	-5464
▁Call	-5465
▁Deli	-5466
▁Dumb	-5467
▁Five	-5468
▁Gren	-5469
▁Hard	-5470
▁Mich	-5471
▁Punk	-5472
▁Wall	-5473
▁boat	-5474
▁busy	-5475
▁clap	-5476
▁clim	-5477
▁cunt	-5478
▁deli	-5479
▁desk	-5480
▁desp	-5481
▁duck	-5482
▁gold	-5483
▁grad	-5484
▁gray	-5485
▁grip	-5486
▁href	-5487
▁perf	-5488
▁rice	-5489
▁rush	-5490
▁sits	-5491
▁suff	-5492
▁tech	-5493
action	-5494
arrhea	-5495
atedly	-5496
atible	-5497
folder	-5498
iquant	-5499
mother	-5500
roller	-5501
▁Adobe	-5502
▁Apple	-5503
▁Broad	-5504
▁Cream	-5505
▁David	-5506
▁Death	-5507
▁GIRLS	-5508
▁James	-5509
▁Pages	-5510
▁Stars	-5511
▁Wanna	-5512
▁artic	-5513
▁awful	-5514
▁bucks	-5515
▁delay	-5516
▁explo	-5517
▁horny	-5518
▁hotel	-5519
▁kills	-5520
▁leads	-5521
▁level	-5522
▁lines	-5523
▁lying	-5524
▁peach	-5525
▁psych	-5526
▁query	-5527
▁raise	-5528
▁relig	-5529
▁sayin	-5530
▁screw	-5531
▁smile	-5532
▁stage	-5533
▁stars	-5534
▁stole	-5535
▁stone	-5536
▁sushi	-5537
▁users	-5538
▁valid	-5539
▁yahoo	-5540
Phoenix	-5541
Profile	-5542
ational	-5543
content	-5544
default	-5545
ination	-5546
orgeous	-5547
phoenix	-5548
ressing	-5549
▁Comple	-5550
▁Cursor	-5551
▁Intern	-5552
▁Israel	-5553
▁barrel	-5554
▁buying	-5555
▁caring	-5556
▁coarse	-5557
▁common	-5558
▁condom	-5559
▁drives	-5560
▁easier	-5561
▁excess	-5562
▁excuse	-5563
▁helper	-5564
▁kosher	-5565
▁larger	-5566
▁museum	-5567
▁nearly	-5568
▁pistol	-5569
▁scared	-5570
▁showed	-5571
▁shower	-5572
▁spirit	-5573
▁strong	-5574
location	-5575
▁Acrobat	-5576
▁Captain	-5577
▁Closing	-5578
▁Forward	-5579
▁MAYNARD	-5580
▁Outlook	-5581
▁Program	-5582
▁Welcome	-5583
▁austere	-5584
▁cancell	-5585
▁carried	-5586
▁depress	-5587
▁drinker	-5588
▁dropped	-5589
▁evident	-5590
▁explain	-5591
▁fingers	-5592
▁forgets	-5593
▁killing	-5594
▁package	-5595
▁passing	-5596
▁passion	-5597
▁primary	-5598
▁product	-5599
▁pulling	-5600
▁refined	-5601
▁regular	-5602
▁reloads	-5603
▁servers	-5604
▁usually	-5605
▁worried	-5606
▁yelling	-5607
▁CONCORDE	-5608
▁Dragging	-5609
▁Hispanic	-5610
▁Progress	-5611
▁approach	-5612
▁botrytis	-5613
▁commands	-5614
▁disables	-5615
▁features	-5616
▁moderate	-5617
▁programs	-5618
▁services	-5619
▁silently	-5620
▁webpages	-5621
▁Bartender	-5622
▁Bootstrap	-5623
▁CHARACTER	-5624
▁Delicious	-5625
▁Starbucks	-5626
▁Switching	-5627
▁alternate	-5628
▁conductor	-5629
▁crackhead	-5630
▁instances	-5631
▁interests	-5632
▁listening	-5633
▁migration	-5634
▁nightlies	-5635
▁otherwise	-5636
▁resizable	-5637
▁connecting	-5638
▁recognized	-5639
▁refreshing	-5640
▁resolution	-5641
▁configuration	-5642
++	-5643
Ds	-5644
Is	-5645
Lo	-5646
Se	-5647
TE	-5648
32.	-5649
:30	-5650
ALL	-5651
Are	-5652
Bar	-5653
Ext	-5654
LTM	-5655
Pre	-5656
Ser	-5657
abl	-5658
ael	-5659
aly	-5660
ape	-5661
arf	-5662
ava	-5663
eds	-5664
enc	-5665
ges	-5666
hab	-5667
ief	-5668
ius	-5669
mod	-5670
onx	-5671
opt	-5672
rah	-5673
uel	-5674
▁60	-5675
▁IN	-5676
▁cy	-5677
ARRI	-5678
Wind	-5679
angs	-5680
ccul	-5681
chor	-5682
copy	-5683
cord	-5684
href	-5685
http	-5686
igod	-5687
immy	-5688
inat	-5689
mond	-5690
owse	-5691
pack	-5692
pera	-5693
ptop	-5694
ripe	-5695
that	-5696
they	-5697
ttes	-5698
uuuu	-5699
xual	-5700
▁0.5	-5701
▁10.	-5702
▁Bea	-5703
▁FLY	-5704
▁Got	-5705
▁Mil	-5706
▁Ohh	-5707
▁Our	-5708
▁Sec	-5709
▁Sty	-5710
▁Tar	-5711
▁Veg	-5712
▁alt	-5713
▁ble	-5714
▁cas	-5715
▁cit	-5716
▁cod	-5717
▁dil	-5718
▁dou	-5719
▁fur	-5720
▁inf	-5721
▁jud	-5722
▁kne	-5723
▁lap	-5724
▁sam	-5725
▁ver	-5726
FICER	-5727
adrus	-5728
arily	-5729
attle	-5730
ected	-5731
eless	-5732
ellow	-5733
gment	-5734
icker	-5735
image	-5736
ippie	-5737
onday	-5738
orant	-5739
orked	-5740
orker	-5741
osaur	-5742
ounce	-5743
place	-5744
ubble	-5745
usion	-5746
valid	-5747
▁Davy	-5748
▁Disk	-5749
▁Iraq	-5750
▁Load	-5751
▁Lock	-5752
▁Miss	-5753
▁Pope	-5754
▁Rest	-5755
▁Rock	-5756
▁True	-5757
▁WLTM	-5758
▁Walk	-5759
▁West	-5760
▁apps	-5761
▁bank	-5762
▁cand	-5763
▁cant	-5764
▁cart	-5765
▁coat	-5766
▁conv	-5767
▁doin	-5768
▁dont	-5769
▁evil	-5770
▁fear	-5771
▁leak	-5772
▁lift	-5773
▁logg	-5774
▁mime	-5775
▁nine	-5776
▁paid	-5777
▁pill	-5778
▁rape	-5779
▁safe	-5780
▁sale	-5781
▁sens	-5782
▁sold	-5783
▁stab	-5784
▁swim	-5785
▁thou	-5786
▁trop	-5787
▁tuna	-5788
▁wash	-5789
anting	-5790
ctions	-5791
ibrant	-5792
import	-5793
rained	-5794
▁Blind	-5795
▁Bronx	-5796
▁Doesn	-5797
▁Eight	-5798
▁Focus	-5799
▁Great	-5800
▁Greek	-5801
▁Hurry	-5802
▁Never	-5803
▁Saved	-5804
▁Seeks	-5805
▁Since	-5806
▁Spare	-5807
▁agent	-5808
▁alive	-5809
▁annoy	-5810
▁apply	-5811
▁board	-5812
▁brand	-5813
▁cares	-5814
▁emerg	-5815
▁fried	-5816
▁fship	-5817
▁liege	-5818
▁loved	-5819
▁lower	-5820
▁multi	-5821
▁organ	-5822
▁plane	-5823
▁pulls	-5824
▁rolls	-5825
▁shack	-5826
▁signs	-5827
▁spank	-5828
▁super	-5829
▁sweat	-5830
▁trade	-5831
▁trees	-5832
▁urine	-5833
▁voice	-5834
checked	-5835
fashion	-5836
izontal	-5837
opening	-5838
▁**(**)	-5839
▁Castle	-5840
▁Creamy	-5841
▁Flight	-5842
▁Hitler	-5843
▁Knight	-5844
▁Launch	-5845
▁Manage	-5846
▁Monday	-5847
▁Polish	-5848
▁Queens	-5849
▁Simple	-5850
▁Yorker	-5851
▁acting	-5852
▁banana	-5853
▁cassis	-5854
▁clicks	-5855
▁combin	-5856
▁cousin	-5857
▁decide	-5858
▁design	-5859
▁errors	-5860
▁groups	-5861
▁height	-5862
▁higher	-5863
▁indeed	-5864
▁integr	-5865
▁layout	-5866
▁loving	-5867
▁messed	-5868
▁nights	-5869
▁occurs	-5870
▁panels	-5871
▁paying	-5872
▁pirate	-5873
▁player	-5874
▁rename	-5875
▁sorted	-5876
▁succul	-5877
▁summer	-5878
▁termin	-5879
▁visual	-5880
Complete	-5881
avigator	-5882
▁Britons	-5883
▁Buttons	-5884
▁Desktop	-5885
▁England	-5886
▁Galahad	-5887
▁Hotmail	-5888
▁Liberty	-5889
▁Loading	-5890
▁OFFICER	-5891
▁Toddler	-5892
▁William	-5893
▁biggest	-5894
▁company	-5895
▁compile	-5896
▁conflic	-5897
▁contain	-5898
▁continu	-5899
▁covered	-5900
▁deletes	-5901
▁figured	-5902
▁focused	-5903
▁handled	-5904
▁meeting	-5905
▁million	-5906
▁noticed	-5907
▁purpose	-5908
▁realize	-5909
▁submenu	-5910
Downloads	-5911
Something	-5912
▁Broadway	-5913
▁Bugzilla	-5914
▁Building	-5915
▁Keywords	-5916
▁Migrator	-5917
▁Settings	-5918
▁Stranger	-5919
▁compared	-5920
▁diarrhea	-5921
▁downtown	-5922
▁encoding	-5923
▁football	-5924
▁horrible	-5925
▁lesbians	-5926
▁maturity	-5927
▁mushroom	-5928
▁original	-5929
▁producer	-5930
▁randomly	-5931
▁required	-5932
▁requires	-5933
▁resolved	-5934
▁sidewalk	-5935
▁transfer	-5936
▁unusable	-5937
▁Christian	-5938
▁Seamonkey	-5939
▁XPInstall	-5940
▁backwards	-5941
▁buildings	-5942
▁clipboard	-5943
▁favorites	-5944
▁hyperlink	-5945
▁important	-5946
▁initially	-5947
▁invisible	-5948
▁maximized	-5949
▁obviously	-5950
▁permanent	-5951
▁professor	-5952
▁remaining	-5953
▁requested	-5954
▁returning	-5955
▁sweetness	-5956
▁undefined	-5957
▁accessible	-5958
▁impossible	-5959
▁indication	-5960
▁pleasantly	-5961
▁description	-5962
▁substantial	-5963
▁particularly	-5964
▁motherfucking	-5965
&#	-5966
,'	-5967
.3	-5968
15	-5969
22	-5970
:"	-5971
As	-5972
ET	-5973
IL	-5974
IP	-5975
On	-5976
PE	-5977
Up	-5978
ai	-5979
da	-5980
ga	-5981
ik	-5982
md	-5983
of	-5984
xx	-5985
▁%	-5986
All	-5987
App	-5988
Aut	-5989
DLL	-5990
Des	-5991
EFT	-5992
Ele	-5993
Rem	-5994
cks	-5995
dri	-5996
esu	-5997
isc	-5998
ooo	-5999
rag	-6000
ray	-6001
uct	-6002
ugs	-6003
zel	-6004
zes	-6005
▁".	-6006
▁.9	-6007
▁11	-6008
▁Ev	-6009
▁LO	-6010
▁MI	-6011
▁NS	-6012
▁Om	-6013
▁PO	-6014
▁RI	-6015
...?	-6016
Aged	-6017
Type	-6018
aaaa	-6019
anke	-6020
comm	-6021
eace	-6022
gypt	-6023
hell	-6024
ilot	-6025
inny	-6026
onym	-6027
pand	-6028
ulke	-6029
velt	-6030
wave	-6031
▁ALT	-6032
▁AND	-6033
▁Agh	-6034
▁Ain	-6035
▁Jon	-6036
▁MID	-6037
▁MOZ	-6038
▁Moz	-6039
▁Net	-6040
▁Pen	-6041
▁Reg	-6042
▁Sho	-6043
▁Ter	-6044
▁Umm	-6045
▁YOU	-6046
▁Yep	-6047
▁adv	-6048
▁lad	-6049
▁lic	-6050
▁lim	-6051
▁maj	-6052
▁mal	-6053
▁nat	-6054
▁ord	-6055
▁php	-6056
▁pix	-6057
▁ran	-6058
▁raw	-6059
▁ske	-6060
▁tan	-6061
▁vac	-6062
▁vom	-6063
▁wel	-6064
CTIVE	-6065
Pause	-6066
Shift	-6067
aling	-6068
ancer	-6069
apped	-6070
ators	-6071
azine	-6072
clock	-6073
close	-6074
icago	-6075
inous	-6076
input	-6077
isper	-6078
night	-6079
quent	-6080
riate	-6081
round	-6082
tones	-6083
woman	-6084
▁Baby	-6085
▁Book	-6086
▁DEAD	-6087
▁Deaf	-6088
▁Gamy	-6089
▁Hall	-6090
▁Iesu	-6091
▁LEFT	-6092
▁Meat	-6093
▁Mike	-6094
▁News	-6095
▁Penn	-6096
▁Play	-6097
▁Size	-6098
▁Slow	-6099
▁Year	-6100
▁bast	-6101
▁bill	-6102
▁earl	-6103
▁ends	-6104
▁firm	-6105
▁gras	-6106
▁iron	-6107
▁keen	-6108
▁lung	-6109
▁palm	-6110
▁plus	-6111
▁pock	-6112
▁push	-6113
▁rate	-6114
▁reve	-6115
▁sake	-6116
▁spit	-6117
▁swit	-6118
▁unre	-6119
▁ways	-6120
▁wide	-6121
ARRIED	-6122
Excuse	-6123
abling	-6124
arbage	-6125
estern	-6126
igging	-6127
ipping	-6128
mumble	-6129
plugin	-6130
scroll	-6131
sholes	-6132
smoker	-6133
squeak	-6134
▁Biker	-6135
▁Close	-6136
▁Egypt	-6137
▁Impro	-6138
▁Jimmy	-6139
▁Local	-6140
▁Media	-6141
▁Opens	-6142
▁Paris	-6143
▁Pinot	-6144
▁Power	-6145
▁Rican	-6146
▁State	-6147
▁Title	-6148
▁Union	-6149
▁Yanke	-6150
▁abort	-6151
▁align	-6152
▁avoid	-6153
▁bacon	-6154
▁bound	-6155
▁cents	-6156
▁combo	-6157
▁comed	-6158
▁false	-6159
▁fifty	-6160
▁freed	-6161
▁grade	-6162
▁grown	-6163
▁heads	-6164
▁hints	-6165
▁influ	-6166
▁lists	-6167
▁lucky	-6168
▁mount	-6169
▁moves	-6170
▁neigh	-6171
▁occas	-6172
▁pills	-6173
▁price	-6174
▁raped	-6175
▁refer	-6176
▁river	-6177
▁shock	-6178
▁shout	-6179
▁stock	-6180
▁trave	-6181
▁trunk	-6182
▁truth	-6183
▁weeks	-6184
armulke	-6185
berries	-6186
cessary	-6187
itional	-6188
loading	-6189
nection	-6190
process	-6191
romedia	-6192
stitute	-6193
terness	-6194
▁Bridge	-6195
▁Decent	-6196
▁Except	-6197
▁Fairly	-6198
▁France	-6199
▁Medium	-6200
▁Nicely	-6201
▁Statue	-6202
▁System	-6203
▁Thirty	-6204
▁almond	-6205
▁attach	-6206
▁begins	-6207
▁breast	-6208
▁browse	-6209
▁camera	-6210
▁chosen	-6211
▁conver	-6212
▁dissap	-6213
▁domine	-6214
▁exists	-6215
▁grapes	-6216
▁hooked	-6217
▁ignore	-6218
▁kicked	-6219
▁laptop	-6220
▁loudly	-6221
▁mailto	-6222
▁matzoh	-6223
▁nothin	-6224
▁peeing	-6225
▁rabbit	-6226
▁rights	-6227
▁sailor	-6228
▁sports	-6229
▁stairs	-6230
▁strict	-6231
▁tables	-6232
▁talked	-6233
▁urlbar	-6234
▁wallet	-6235
▁winter	-6236
oosevelt	-6237
ropriate	-6238
textured	-6239
▁Chicago	-6240
▁Classic	-6241
▁Complex	-6242
▁Fashion	-6243
▁Gangsta	-6244
▁MARRIED	-6245
▁Message	-6246
▁Michael	-6247
▁Rounded	-6248
▁Running	-6249
▁Strange	-6250
▁Tooltip	-6251
▁Village	-6252
▁amazing	-6253
▁anybody	-6254
▁binding	-6255
▁comment	-6256
▁crewman	-6257
▁despite	-6258
▁driving	-6259
▁dumbass	-6260
▁earlier	-6261
▁enhance	-6262
▁finding	-6263
▁flowers	-6264
▁knights	-6265
▁masturb	-6266
▁matches	-6267
▁menubar	-6268
▁minimum	-6269
▁piquant	-6270
▁pissing	-6271
▁privacy	-6272
▁refused	-6273
▁rolling	-6274
▁sorting	-6275
▁staring	-6276
▁tickets	-6277
▁toolkit	-6278
▁vanilla	-6279
▁various	-6280
▁welcome	-6281
Bootstrap	-6282
fashioned	-6283
▁Advanced	-6284
▁Favicons	-6285
▁Features	-6286
▁Starting	-6287
▁anorexic	-6288
▁clearing	-6289
▁constant	-6290
▁continue	-6291
▁distance	-6292
▁finishes	-6293
▁gorgeous	-6294
▁increase	-6295
▁infinite	-6296
▁intercom	-6297
▁internal	-6298
▁launches	-6299
▁marriage	-6300
▁negative	-6301
▁observer	-6302
▁painting	-6303
▁produces	-6304
▁searches	-6305
▁separate	-6306
▁shopping	-6307
▁shutdown	-6308
▁stripper	-6309
▁tentacle	-6310
▁vineyard	-6311
accessible	-6312
▁Available	-6313
▁cancelled	-6314
▁completed	-6315
▁currently	-6316
▁generated	-6317
▁interview	-6318
▁oxidation	-6319
▁parameter	-6320
▁passenger	-6321
▁situation	-6322
▁succulent	-6323
▁supported	-6324
▁Attractive	-6325
▁Properties	-6326
▁absolutely	-6327
▁autocomple	-6328
▁bitterness	-6329
▁consistent	-6330
▁crewmember	-6331
▁repeatedly	-6332
▁unexpected	-6333
▁volatility	-6334
▁Loudspeaker	-6335
▁originating	-6336
▁stylesheets	-6337
▁transparent	-6338
▁Construction	-6339
▁Installation	-6340
▁associations	-6341
▁confirmation	-6342
'!	-6343
.,	-6344
8-	-6345
95	-6346
BC	-6347
De	-6348
EX	-6349
Go	-6350
NG	-6351
PT	-6352
VI	-6353
ji	-6354
rs	-6355
uk	-6356
vy	-6357
yn	-6358
DLE	-6359
URS	-6360
aco	-6361
asc	-6362
cpp	-6363
ede	-6364
gen	-6365
guy	-6366
iem	-6367
ili	-6368
ils	-6369
itz	-6370
ixt	-6371
lem	-6372
los	-6373
nay	-6374
ned	-6375
reg	-6376
rig	-6377
ros	-6378
uly	-6379
urs	-6380
vag	-6381
▁!"	-6382
▁$2	-6383
▁14	-6384
▁21	-6385
▁57	-6386
▁59	-6387
▁DV	-6388
▁EN	-6389
▁Es	-6390
▁Je	-6391
▁Ow	-6392
▁PC	-6393
▁Ro	-6394
▁SA	-6395
▁SH	-6396
▁Ya	-6397
▁ow	-6398
▁vs	-6399
ARTY	-6400
Copy	-6401
Data	-6402
Fuck	-6403
King	-6404
NOME	-6405
Okay	-6406
TTRA	-6407
Text	-6408
UTCH	-6409
ades	-6410
ancy	-6411
anel	-6412
anut	-6413
burg	-6414
crew	-6415
fast	-6416
from	-6417
inks	-6418
inst	-6419
ipes	-6420
know	-6421
lder	-6422
lied	-6423
logy	-6424
long	-6425
lymp	-6426
nome	-6427
pric	-6428
reci	-6429
rell	-6430
rier	-6431
uing	-6432
unky	-6433
vron	-6434
when	-6435
▁-->	-6436
▁10-	-6437
▁30-	-6438
▁Ask	-6439
▁Cre	-6440
▁Ell	-6441
▁GUI	-6442
▁Hah	-6443
▁Hic	-6444
▁Lab	-6445
▁Mmm	-6446
▁NOT	-6447
▁Nat	-6448
▁Naz	-6449
▁Pay	-6450
▁Sar	-6451
▁Scr	-6452
▁Tia	-6453
▁Way	-6454
▁ant	-6455
▁arg	-6456
▁fle	-6457
▁fro	-6458
▁ftp	-6459
▁gum	-6460
▁ham	-6461
▁lan	-6462
▁pad	-6463
▁ped	-6464
▁pri	-6465
▁tim	-6466
▁tur	-6467
▁wax	-6468
▁wit	-6469
▁xml	-6470
Gibbs	-6471
amboo	-6472
bacco	-6473
break	-6474
house	-6475
iforn	-6476
imate	-6477
itial	-6478
itles	-6479
itted	-6480
namic	-6481
ondon	-6482
oston	-6483
otech	-6484
▁?...	-6485
▁Ball	-6486
▁Copy	-6487
▁Dirt	-6488
▁Ever	-6489
▁Goth	-6490
▁Late	-6491
▁Lots	-6492
▁MIME	-6493
▁Mark	-6494
▁Mets	-6495
▁Mind	-6496
▁Much	-6497
▁POST	-6498
▁Quit	-6499
▁Whoa	-6500
▁Zoot	-6501
▁bear	-6502
▁beef	-6503
▁boss	-6504
▁cast	-6505
▁caus	-6506
▁cave	-6507
▁core	-6508
▁crap	-6509
▁craw	-6510
▁dild	-6511
▁dock	-6512
▁dona	-6513
▁dump	-6514
▁fool	-6515
▁gamy	-6516
▁geek	-6517
▁godd	-6518
▁hits	-6519
▁laug	-6520
▁lord	-6521
▁mate	-6522
▁pane	-6523
▁pray	-6524
▁sher	-6525
▁spaw	-6526
▁surf	-6527
▁tele	-6528
▁tons	-6529
▁upst	-6530
▁vest	-6531
Create	-6532
Donald	-6533
Extens	-6534
adding	-6535
ectual	-6536
engers	-6537
ifteen	-6538
olaris	-6539
oochie	-6540
ortuga	-6541
osaurs	-6542
palate	-6543
player	-6544
ralian	-6545
urable	-6546
▁ATTRA	-6547
▁Agent	-6548
▁Charm	-6549
▁Child	-6550
▁DUTCH	-6551
▁Fonts	-6552
▁Girls	-6553
▁Green	-6554
▁Heave	-6555
▁India	-6556
▁Jappy	-6557
▁Might	-6558
▁Olymp	-6559
▁Peter	-6560
▁Techn	-6561
▁Think	-6562
▁WinXP	-6563
▁accel	-6564
▁bagel	-6565
▁booty	-6566
▁cabin	-6567
▁caret	-6568
▁chasm	-6569
▁claim	-6570
▁cliff	-6571
▁dense	-6572
▁drank	-6573
▁embar	-6574
▁fills	-6575
▁fired	-6576
▁force	-6577
▁games	-6578
▁overr	-6579
▁range	-6580
▁sales	-6581
▁score	-6582
▁shell	-6583
▁spent	-6584
▁study	-6585
▁toast	-6586
▁trail	-6587
▁treat	-6588
▁twist	-6589
▁vegan	-6590
▁wears	-6591
▁wound	-6592
▁xpcom	-6593
Beckett	-6594
arettes	-6595
atively	-6596
estures	-6597
filling	-6598
hington	-6599
history	-6600
inatown	-6601
looking	-6602
mission	-6603
ocument	-6604
olution	-6605
reement	-6606
▁Active	-6607
▁Always	-6608
▁Asians	-6609
▁Boston	-6610
▁Bright	-6611
▁Cabbie	-6612
▁Cotton	-6613
▁Create	-6614
▁FLYING	-6615
▁Fuckin	-6616
▁Harlem	-6617
▁Health	-6618
▁MIDDLE	-6619
▁Nobody	-6620
▁Pintel	-6621
▁Rename	-6622
▁Unless	-6623
▁advert	-6624
▁afford	-6625
▁allerg	-6626
▁anchor	-6627
▁author	-6628
▁bloody	-6629
▁bugger	-6630
▁cached	-6631
▁chicks	-6632
▁circum	-6633
▁denied	-6634
▁descri	-6635
▁encoun	-6636
▁enjoys	-6637
▁faggot	-6638
▁faster	-6639
▁finger	-6640
▁flabby	-6641
▁gotten	-6642
▁harder	-6643
▁honied	-6644
▁iframe	-6645
▁inline	-6646
▁kissed	-6647
▁missed	-6648
▁neighb	-6649
▁placed	-6650
▁pounds	-6651
▁prefer	-6652
▁pushed	-6653
▁redraw	-6654
▁releas	-6655
▁richer	-6656
▁scream	-6657
▁secret	-6658
▁thrown	-6659
▁trains	-6660
▁unlock	-6661
▁variet	-6662
▁viewer	-6663
▁wasted	-6664
▁widget	-6665
▁wizard	-6666
complete	-6667
function	-6668
ispering	-6669
iversity	-6670
▁***(**)	-6671
▁Current	-6672
▁Perfect	-6673
▁Seeking	-6674
▁Station	-6675
▁blowjob	-6676
▁corrupt	-6677
▁dressed	-6678
▁endless	-6679
▁falling	-6680
▁further	-6681
▁handler	-6682
▁holiday	-6683
▁however	-6684
▁officer	-6685
▁onclick	-6686
▁pushing	-6687
▁reflect	-6688
▁reminds	-6689
▁respons	-6690
▁scrolls	-6691
▁specify	-6692
▁streets	-6693
▁suppose	-6694
▁tabbing	-6695
▁taskbar	-6696
▁tobacco	-6697
▁touches	-6698
▁turning	-6699
Customize	-6700
fessional	-6701
▁Bimbette	-6702
▁Californ	-6703
▁Changing	-6704
▁Choosing	-6705
▁DUTCHMAN	-6706
▁McDonald	-6707
▁Pressing	-6708
▁Princess	-6709
▁Software	-6710
▁Yarmulke	-6711
▁annoying	-6712
▁arrested	-6713
▁assholes	-6714
▁breaking	-6715
▁carriage	-6716
▁carrying	-6717
▁crashing	-6718
▁delicate	-6719
▁exciting	-6720
▁governor	-6721
▁graphics	-6722
▁hipsters	-6723
▁inactive	-6724
▁magazine	-6725
▁occasion	-6726
▁pleasure	-6727
▁registry	-6728
▁speaking	-6729
▁surprise	-6730
▁throwing	-6731
▁tourists	-6732
▁vintages	-6733
▁Attention	-6734
▁Chinatown	-6735
▁Roosevelt	-6736
▁Selection	-6737
▁appearing	-6738
▁breakfast	-6739
▁component	-6740
▁connected	-6741
▁duplicate	-6742
▁everytime	-6743
▁excessive	-6744
▁functions	-6745
▁happening	-6746
▁minimized	-6747
▁reference	-6748
▁statusbar	-6749
▁surprised	-6750
▁truncated	-6751
▁unchecked	-6752
▁virginity	-6753
▁Australian	-6754
▁Background	-6755
▁appetising	-6756
▁especially	-6757
▁management	-6758
▁overwrites	-6759
▁percentage	-6760
▁submitting	-6761
▁successful	-6762
▁themselves	-6763
▁Application	-6764
▁Businessman	-6765
▁Information	-6766
▁comfortable	-6767
▁grandmother	-6768
▁highlighted	-6769
▁permissions	-6770
▁personality	-6771
▁highlighting	-6772
!,	-6773
16	-6774
21	-6775
98	-6776
Bl	-6777
CE	-6778
HH	-6779
KS	-6780
NE	-6781
NS	-6782
RU	-6783
TF	-6784
VS	-6785
Yo	-6786
].	-6787
ds	-6788
gi	-6789
ls	-6790
ni	-6791
py	-6792
uv	-6793
wd	-6794
ws	-6795
ya	-6796
▁`	-6797
▁~	-6798
/11	-6799
ARY	-6800
Cle	-6801
Con	-6802
IRE	-6803
IST	-6804
TLE	-6805
Tia	-6806
Web	-6807
bug	-6808
don	-6809
dot	-6810
eez	-6811
eps	-6812
gtk	-6813
ila	-6814
kin	-6815
lim	-6816
omy	-6817
onk	-6818
pop	-6819
rey	-6820
ris	-6821
say	-6822
spl	-6823
sty	-6824
sub	-6825
tar	-6826
try	-6827
txt	-6828
uke	-6829
web	-6830
▁."	-6831
▁2.	-6832
▁26	-6833
▁32	-6834
▁43	-6835
▁46	-6836
▁Ca	-6837
▁Eh	-6838
▁El	-6839
▁Ep	-6840
▁Er	-6841
▁Fo	-6842
▁NT	-6843
▁Po	-6844
▁Sa	-6845
▁ms	-6846
▁wa	-6847
Amer	-6848
Cont	-6849
Load	-6850
Show	-6851
UART	-6852
ania	-6853
assy	-6854
cean	-6855
ceed	-6856
chel	-6857
cles	-6858
clud	-6859
core	-6860
ctrl	-6861
elah	-6862
ened	-6863
heim	-6864
iers	-6865
imme	-6866
iper	-6867
lete	-6868
loca	-6869
nard	-6870
odox	-6871
olen	-6872
oned	-6873
phen	-6874
pire	-6875
quee	-6876
roir	-6877
site	-6878
stro	-6879
uate	-6880
▁40-	-6881
▁Air	-6882
▁Ake	-6883
▁Bob	-6884
▁Box	-6885
▁Bra	-6886
▁CAR	-6887
▁Cow	-6888
▁Cru	-6889
▁End	-6890
▁Fix	-6891
▁Fun	-6892
▁GIF	-6893
▁Gro	-6894
▁Hil	-6895
▁Ill	-6896
▁Jan	-6897
▁Lim	-6898
▁Met	-6899
▁Mon	-6900
▁Mus	-6901
▁Sex	-6902
▁THE	-6903
▁ais	-6904
▁bes	-6905
▁bri	-6906
▁eis	-6907
▁fol	-6908
▁hey	-6909
▁lit	-6910
▁rot	-6911
▁sul	-6912
▁una	-6913
▁yog	-6914
ANDOM	-6915
Clear	-6916
ERSON	-6917
Event	-6918
Tools	-6919
URSAR	-6920
acity	-6921
amond	-6922
ancel	-6923
antic	-6924
ateur	-6925
build	-6926
burgh	-6927
ental	-6928
ested	-6929
ggers	-6930
icial	-6931
igger	-6932
irrel	-6933
lines	-6934
neath	-6935
ograp	-6936
oints	-6937
omach	-6938
osing	-6939
perly	-6940
phant	-6941
print	-6942
rance	-6943
rency	-6944
tered	-6945
ulate	-6946
urday	-6947
▁Anim	-6948
▁Anth	-6949
▁Aren	-6950
▁BeOS	-6951
▁Bill	-6952
▁Cool	-6953
▁Dark	-6954
▁Deep	-6955
▁Dire	-6956
▁Four	-6957
▁Gold	-6958
▁Hand	-6959
▁Hide	-6960
▁Hill	-6961
▁Hind	-6962
▁Know	-6963
▁Main	-6964
▁Past	-6965
▁Pres	-6966
▁Pull	-6967
▁Tony	-6968
▁Week	-6969
▁adds	-6970
▁buff	-6971
▁calm	-6972
▁cats	-6973
▁comb	-6974
▁crit	-6975
▁dial	-6976
▁dime	-6977
▁dorm	-6978
▁duel	-6979
▁emot	-6980
▁gang	-6981
▁gard	-6982
▁goat	-6983
▁gots	-6984
▁gunp	-6985
▁heat	-6986
▁hill	-6987
▁lazy	-6988
▁lets	-6989
▁libr	-6990
▁logo	-6991
▁mama	-6992
▁mint	-6993
▁nerv	-6994
▁pair	-6995
▁pale	-6996
▁pimp	-6997
▁prem	-6998
▁priv	-6999
▁rats	-7000
▁rece	-7001
▁road	-7002
▁surv	-7003
▁thre	-7004
▁titt	-7005
▁tour	-7006
▁urls	-7007
▁weap	-7008
▁wore	-7009
▁zoom	-7010
Manage	-7011
Please	-7012
change	-7013
etroot	-7014
hafuck	-7015
inated	-7016
ophile	-7017
ording	-7018
roduce	-7019
stated	-7020
stripe	-7021
thodox	-7022
unting	-7023
ushing	-7024
▁Crack	-7025
▁Fruit	-7026
▁Group	-7027
▁MARTY	-7028
▁Opera	-7029
▁Pause	-7030
▁Proxy	-7031
▁Satan	-7032
▁Sista	-7033
▁Smart	-7034
▁Smile	-7035
▁Smith	-7036
▁Spell	-7037
▁Style	-7038
▁TITLE	-7039
▁Trans	-7040
▁Vegas	-7041
▁Vinci	-7042
▁XHTML	-7043
▁angry	-7044
▁bless	-7045
▁bunny	-7046
▁cages	-7047
▁dildo	-7048
▁divor	-7049
▁drawn	-7050
▁ended	-7051
▁faith	-7052
▁final	-7053
▁forum	-7054
▁guest	-7055
▁heels	-7056
▁jeans	-7057
▁jumps	-7058
▁knees	-7059
▁lived	-7060
▁mixed	-7061
▁north	-7062
▁ocean	-7063
▁outta	-7064
▁peril	-7065
▁plain	-7066
▁reply	-7067
▁saves	-7068
▁scale	-7069
▁sends	-7070
▁skirt	-7071
▁slice	-7072
▁souls	-7073
▁spill	-7074
▁sprit	-7075
▁stare	-7076
▁swamp	-7077
▁tarry	-7078
▁tough	-7079
▁trick	-7080
▁truck	-7081
▁uncle	-7082
▁woody	-7083
Desktop	-7084
Element	-7085
abulous	-7086
currant	-7087
locaust	-7088
manager	-7089
ramatic	-7090
redibly	-7091
ryption	-7092
windows	-7093
▁Anyone	-7094
▁BURSAR	-7095
▁Barolo	-7096
▁Better	-7097
▁Canada	-7098
▁Causes	-7099
▁Corked	-7100
▁Delete	-7101
▁Disney	-7102
▁Follow	-7103
▁GUARDS	-7104
▁George	-7105
▁Hallow	-7106
▁Helper	-7107
▁London	-7108
▁Memory	-7109
▁Museum	-7110
▁Omigod	-7111
▁PERSON	-7112
▁RANDOM	-7113
▁Single	-7114
▁Skinny	-7115
▁Stoned	-7116
▁Trader	-7117
▁adress	-7118
▁affect	-7119
▁allows	-7120
▁bamboo	-7121
▁blonde	-7122
▁cannon	-7123
▁commun	-7124
▁compan	-7125
▁dealer	-7126
▁depart	-7127
▁detect	-7128
▁dilute	-7129
▁effort	-7130
▁entity	-7131
▁facing	-7132
▁floats	-7133
▁forest	-7134
▁gettin	-7135
▁insert	-7136
▁locale	-7137
▁lookin	-7138
▁makeup	-7139
▁murder	-7140
▁nature	-7141
▁orgasm	-7142
▁outfit	-7143
▁partly	-7144
▁peanut	-7145
▁pocket	-7146
▁poison	-7147
▁rapist	-7148
▁regist	-7149
▁sacred	-7150
▁safari	-7151
▁shitty	-7152
▁square	-7153
▁stores	-7154
▁talkin	-7155
▁temper	-7156
▁throne	-7157
▁urinal	-7158
Advanced	-7159
American	-7160
ardonnay	-7161
bookmark	-7162
download	-7163
ervative	-7164
ificates	-7165
selected	-7166
▁Akeelah	-7167
▁Amateur	-7168
▁Another	-7169
▁Biotech	-7170
▁Control	-7171
▁Freezes	-7172
▁Gentile	-7173
▁Germany	-7174
▁Husband	-7175
▁Imagine	-7176
▁Jackson	-7177
▁Solaris	-7178
▁Tortuga	-7179
▁Version	-7180
▁appreci	-7181
▁blowing	-7182
▁channel	-7183
▁cheated	-7184
▁compass	-7185
▁condoms	-7186
▁crewmen	-7187
▁diamond	-7188
▁dismiss	-7189
▁drawing	-7190
▁exiting	-7191
▁foreign	-7192
▁garbage	-7193
▁garbled	-7194
▁glasses	-7195
▁grandma	-7196
▁graphic	-7197
▁heading	-7198
▁healthy	-7199
▁leading	-7200
▁located	-7201
▁overlap	-7202
▁persist	-7203
▁produce	-7204
▁promise	-7205
▁prompts	-7206
▁railing	-7207
▁requiem	-7208
▁require	-7209
▁resolve	-7210
▁screwed	-7211
▁scripts	-7212
▁selects	-7213
▁speaker	-7214
▁stomach	-7215
▁strings	-7216
▁stylish	-7217
▁suburbs	-7218
▁sweetie	-7219
▁tending	-7220
▁terroir	-7221
▁timeout	-7222
▁titties	-7223
▁unknown	-7224
▁village	-7225
▁weather	-7226
▁weighty	-7227
bookmarks	-7228
ilization	-7229
navigator	-7230
processor	-7231
▁Blocking	-7232
▁Charming	-7233
▁Grenache	-7234
▁Mexicans	-7235
▁Saturday	-7236
▁Shopgirl	-7237
▁accepted	-7238
▁addicted	-7239
▁checking	-7240
▁director	-7241
▁fighting	-7242
▁freaking	-7243
▁independ	-7244
▁laughing	-7245
▁launched	-7246
▁minimize	-7247
▁neighbor	-7248
▁princess	-7249
▁relative	-7250
▁reserved	-7251
▁riesling	-7252
▁stroller	-7253
▁suggests	-7254
▁textarea	-7255
▁Chocolate	-7256
▁Fantastic	-7257
▁Halloween	-7258
▁Holocaust	-7259
▁Microsoft	-7260
▁Passwords	-7261
▁automatic	-7262
▁backspace	-7263
▁cannibals	-7264
▁continues	-7265
▁extracted	-7266
▁generally	-7267
▁gunpowder	-7268
▁importing	-7269
▁localhost	-7270
▁reloading	-7271
▁searching	-7272
▁standards	-7273
▁stretched	-7274
▁temporary	-7275
▁terrorist	-7276
Preferences	-7277
▁ATTRACTIVE	-7278
▁California	-7279
▁Completely	-7280
▁Everything	-7281
▁Macromedia	-7282
▁Motherfuck	-7283
▁Scrollbars	-7284
▁University	-7285
▁cigarettes	-7286
▁passengers	-7287
▁persistent	-7288
▁prostitute	-7289
▁restarting	-7290
▁underwater	-7291
▁Customizing	-7292
▁differently	-7293
▁performance	-7294
▁characterful	-7295
▁disappointed	-7296
▁intellectual	-7297
▁mouthfilling	-7298
▁disappointing	-7299
▁autocompletion	-7300
!'	-7301
!)	-7302
!*	-7303
*,	-7304
09	-7305
18	-7306
8.	-7307
:\	-7308
>"	-7309
AT	-7310
CR	-7311
HO	-7312
II	-7313
MP	-7314
SC	-7315
Tr	-7316
UI	-7317
YO	-7318
]:	-7319
gz	-7320
hi	-7321
ii	-7322
nn	-7323
ua	-7324
wy	-7325
▁)	-7326
▁;	-7327
Arr	-7328
COM	-7329
EAR	-7330
How	-7331
Mom	-7332
RAN	-7333
RFE	-7334
SUN	-7335
TER	-7336
Yes	-7337
abe	-7338
anz	-7339
ara	-7340
beh	-7341
cko	-7342
cky	-7343
cus	-7344
erm	-7345
gie	-7346
hib	-7347
hop	-7348
htm	-7349
ida	-7350
img	-7351
isf	-7352
isk	-7353
mng	-7354
moz	-7355
ndy	-7356
num	-7357
ora	-7358
pea	-7359
peg	-7360
pot	-7361
pwd	-7362
src	-7363
urt	-7364
vah	-7365
wav	-7366
▁*.	-7367
▁..	-7368
▁24	-7369
▁36	-7370
▁89	-7371
▁90	-7372
▁99	-7373
▁Dy	-7374
▁MB	-7375
▁ME	-7376
▁SV	-7377
▁TO	-7378
▁Vi	-7379
▁fo	-7380
▁op	-7381
▁ru	-7382
▁ta	-7383
...'	-7384
0000	-7385
File	-7386
Home	-7387
ILOR	-7388
Pref	-7389
RONE	-7390
Wait	-7391
aden	-7392
ador	-7393
alty	-7394
ateg	-7395
brew	-7396
cann	-7397
edit	-7398
erby	-7399
erge	-7400
gent	-7401
help	-7402
high	-7403
hood	-7404
iant	-7405
idth	-7406
ighs	-7407
iron	-7408
just	-7409
lets	-7410
live	-7411
made	-7412
mate	-7413
mngr	-7414
noon	-7415
oked	-7416
ouis	-7417
oyal	-7418
rapp	-7419
ston	-7420
tail	-7421
ucky	-7422
uits	-7423
umed	-7424
urse	-7425
user	-7426
ustr	-7427
vest	-7428
wall	-7429
▁35-	-7430
▁6.0	-7431
▁ALL	-7432
▁AVI	-7433
▁Ant	-7434
▁Boo	-7435
▁Cam	-7436
▁DIV	-7437
▁DTE	-7438
▁Den	-7439
▁Dog	-7440
▁GOD	-7441
▁GUY	-7442
▁Hag	-7443
▁Ham	-7444
▁Hon	-7445
▁Jun	-7446
▁Kat	-7447
▁Lea	-7448
▁Lem	-7449
▁Les	-7450
▁Lex	-7451
▁Mat	-7452
▁Mor	-7453
▁PAR	-7454
▁Rel	-7455
▁Ret	-7456
▁Six	-7457
▁Sus	-7458
▁TAB	-7459
▁Tim	-7460
▁Ult	-7461
▁Van	-7462
▁Won	-7463
▁ash	-7464
▁bin	-7465
▁bud	-7466
▁bum	-7467
▁deg	-7468
▁dip	-7469
▁equ	-7470
▁err	-7471
▁gut	-7472
▁moz	-7473
▁pit	-7474
▁rad	-7475
▁rim	-7476
▁sad	-7477
▁sem	-7478
▁spy	-7479
▁ssl	-7480
▁tip	-7481
▁toe	-7482
▁umb	-7483
▁uns	-7484
▁unt	-7485
Array	-7486
Print	-7487
Where	-7488
abble	-7489
acked	-7490
acter	-7491
after	-7492
agent	-7493
ailed	-7494
aming	-7495
ammit	-7496
anged	-7497
angle	-7498
anner	-7499
anted	-7500
anter	-7501
arthy	-7502
bject	-7503
bound	-7504
boxes	-7505
chair	-7506
corde	-7507
ernel	-7508
essed	-7509
files	-7510
ickel	-7511
icket	-7512
iform	-7513
igent	-7514
iggle	-7515
iment	-7516
inger	-7517
orney	-7518
orses	-7519
osite	-7520
shift	-7521
start	-7522
stems	-7523
stick	-7524
trunk	-7525
which	-7526
▁....	-7527
▁2004	-7528
▁9/11	-7529
▁Amaz	-7530
▁Beer	-7531
▁Cali	-7532
▁Chap	-7533
▁Edin	-7534
▁FUCK	-7535
▁Fail	-7536
▁Fore	-7537
▁Hmmm	-7538
▁Kids	-7539
▁Kind	-7540
▁Lost	-7541
▁Made	-7542
▁Mart	-7543
▁Mary	-7544
▁Midw	-7545
▁Name	-7546
▁Puff	-7547
▁Ripe	-7548
▁Same	-7549
▁Sant	-7550
▁Sher	-7551
▁Shhh	-7552
▁Spec	-7553
▁Talk	-7554
▁Task	-7555
▁Wife	-7556
▁aged	-7557
▁armp	-7558
▁arms	-7559
▁bene	-7560
▁bisc	-7561
▁caps	-7562
▁chip	-7563
▁cran	-7564
▁dear	-7565
▁diet	-7566
▁flag	-7567
▁fort	-7568
▁grow	-7569
▁heav	-7570
▁holy	-7571
▁homo	-7572
▁hood	-7573
▁junk	-7574
▁leaf	-7575
▁liar	-7576
▁mass	-7577
▁nipp	-7578
▁nods	-7579
▁panc	-7580
▁penc	-7581
▁pier	-7582
▁pige	-7583
▁pile	-7584
▁pipe	-7585
▁prec	-7586
▁prep	-7587
▁pron	-7588
▁punk	-7589
▁rent	-7590
▁role	-7591
▁roof	-7592
▁rout	-7593
▁salt	-7594
▁scut	-7595
▁seas	-7596
▁sink	-7597
▁ster	-7598
▁team	-7599
▁tear	-7600
▁ties	-7601
▁tiny	-7602
▁togg	-7603
▁tone	-7604
▁trip	-7605
UARTER	-7606
allows	-7607
ausage	-7608
cannib	-7609
cookie	-7610
ential	-7611
fortun	-7612
idence	-7613
igrant	-7614
inally	-7615
lderly	-7616
naming	-7617
ointed	-7618
olving	-7619
omatic	-7620
ounter	-7621
placed	-7622
pricot	-7623
rupted	-7624
script	-7625
source	-7626
stream	-7627
styled	-7628
unning	-7629
verage	-7630
vision	-7631
worker	-7632
zipped	-7633
▁1.4.2	-7634
▁20030	-7635
▁Aging	-7636
▁Bagel	-7637
▁Being	-7638
▁Blank	-7639
▁Brave	-7640
▁CRONE	-7641
▁Cache	-7642
▁Chass	-7643
▁Clerk	-7644
▁Coney	-7645
▁Found	-7646
▁GREEN	-7647
▁Going	-7648
▁Guard	-7649
▁Louis	-7650
▁MacOS	-7651
▁Nazis	-7652
▁Point	-7653
▁Prada	-7654
▁RIGHT	-7655
▁Royal	-7656
▁Squad	-7657
▁Today	-7658
▁Train	-7659
▁Watch	-7660
▁Weird	-7661
▁Wheel	-7662
▁While	-7663
▁admin	-7664
▁aisle	-7665
▁among	-7666
▁aside	-7667
▁basis	-7668
▁bench	-7669
▁bleed	-7670
▁blows	-7671
▁bones	-7672
▁brush	-7673
▁chord	-7674
▁cloth	-7675
▁colon	-7676
▁cough	-7677
▁court	-7678
▁crime	-7679
▁doubt	-7680
▁dying	-7681
▁earth	-7682
▁finds	-7683
▁forth	-7684
▁fries	-7685
▁giant	-7686
▁guide	-7687
▁liter	-7688
▁modal	-7689
▁ninet	-7690
▁parts	-7691
▁plays	-7692
▁rough	-7693
▁rules	-7694
▁salad	-7695
▁semen	-7696
▁serve	-7697
▁shore	-7698
▁smoky	-7699
▁snake	-7700
▁solid	-7701
▁split	-7702
▁stall	-7703
▁suave	-7704
▁tooth	-7705
▁tryin	-7706
▁tween	-7707
▁uncom	-7708
▁yeast	-7709
▁youth	-7710
cluding	-7711
ography	-7712
options	-7713
ritical	-7714
silence	-7715
▁AVIARY	-7716
▁Anyway	-7717
▁Apples	-7718
▁Disapp	-7719
▁Domain	-7720
▁Duplic	-7721
▁Empire	-7722
▁Enough	-7723
▁Expand	-7724
▁Ground	-7725
▁Hebrew	-7726
▁Herpes	-7727
▁Integr	-7728
▁Jewess	-7729
▁Korean	-7730
▁Master	-7731
▁Mature	-7732
▁Mexico	-7733
▁Office	-7734
▁Reload	-7735
▁Richer	-7736
▁SAILOR	-7737
▁Server	-7738
▁Spring	-7739
▁Subway	-7740
▁addict	-7741
▁apolog	-7742
▁appley	-7743
▁autoly	-7744
▁battle	-7745
▁belong	-7746
▁binary	-7747
▁bitter	-7748
▁bodies	-7749
▁busted	-7750
▁casual	-7751
▁cellar	-7752
▁comedy	-7753
▁copies	-7754
▁corked	-7755
▁device	-7756
▁drinks	-7757
▁establ	-7758
▁export	-7759
▁expose	-7760
▁farted	-7761
▁forces	-7762
▁grayed	-7763
▁hippie	-7764
▁incomp	-7765
▁insult	-7766
▁intern	-7767
▁ironic	-7768
▁labels	-7769
▁lights	-7770
▁manner	-7771
▁market	-7772
▁mellow	-7773
▁motion	-7774
▁narrow	-7775
▁naught	-7776
▁peachy	-7777
▁recall	-7778
▁resume	-7779
▁rowing	-7780
▁rubber	-7781
▁settle	-7782
▁silent	-7783
▁simult	-7784
▁stares	-7785
▁stayed	-7786
▁taller	-7787
▁threat	-7788
▁vinous	-7789
▁waters	-7790
Toolbars	-7791
dramatic	-7792
irectory	-7793
position	-7794
possible	-7795
ulations	-7796
▁Aaaaugh	-7797
▁Airport	-7798
▁Brother	-7799
▁Certain	-7800
▁Command	-7801
▁Dirtbag	-7802
▁Lesbian	-7803
▁QUARTER	-7804
▁Someone	-7805
▁Startup	-7806
▁Working	-7807
▁Yankees	-7808
▁Younger	-7809
▁applets	-7810
▁article	-7811
▁bastard	-7812
▁caramel	-7813
▁carries	-7814
▁cashier	-7815
▁dancing	-7816
▁details	-7817
▁doorway	-7818
▁engaged	-7819
▁escaped	-7820
▁expired	-7821
▁fifteen	-7822
▁freedom	-7823
▁goddamn	-7824
▁illegal	-7825
▁kissing	-7826
▁knowing	-7827
▁lantern	-7828
▁learned	-7829
▁letting	-7830
▁library	-7831
▁lighter	-7832
▁needing	-7833
▁objects	-7834
▁obvious	-7835
▁outdoor	-7836
▁payment	-7837
▁perfume	-7838
▁printer	-7839
▁provide	-7840
▁reaches	-7841
▁silence	-7842
▁stories	-7843
▁systems	-7844
▁tattoos	-7845
▁umbrell	-7846
▁vibrant	-7847
▁whipped	-7848
▁writing	-7849
available	-7850
boyfriend	-7851
customize	-7852
installer	-7853
▁Anorexic	-7854
▁Anything	-7855
▁Apparent	-7856
▁Concorde	-7857
▁Republic	-7858
▁Throbber	-7859
▁allergic	-7860
▁beetroot	-7861
▁complain	-7862
▁confused	-7863
▁controls	-7864
▁discreet	-7865
▁dressing	-7866
▁dropping	-7867
▁electric	-7868
▁embarras	-7869
▁expanded	-7870
▁fabulous	-7871
▁floating	-7872
▁forehead	-7873
▁friendly	-7874
▁generous	-7875
▁graceful	-7876
▁included	-7877
▁instruct	-7878
▁medicine	-7879
▁navigate	-7880
▁official	-7881
▁overlaps	-7882
▁passerby	-7883
▁positive	-7884
▁renaming	-7885
▁replaced	-7886
▁shoulder	-7887
▁sometime	-7888
▁spanking	-7889
▁splendid	-7890
▁versions	-7891
▁warnings	-7892
▁weekends	-7893
components	-7894
▁Edinburgh	-7895
▁McDonalds	-7896
▁Whitelist	-7897
▁afternoon	-7898
▁depressed	-7899
▁dinosaurs	-7900
▁disabling	-7901
▁documents	-7902
▁encrypted	-7903
▁expecting	-7904
▁extremely	-7905
▁forgotten	-7906
▁generates	-7907
▁including	-7908
▁influence	-7909
▁mouseover	-7910
▁mushrooms	-7911
▁pedophile	-7912
▁positions	-7913
▁premature	-7914
▁presented	-7915
▁religious	-7916
▁sensitive	-7917
▁threesome	-7918
▁Burgundian	-7919
▁Exceptions	-7920
▁completion	-7921
▁components	-7922
▁constantly	-7923
▁corruption	-7924
▁executable	-7925
▁formatting	-7926
▁government	-7927
▁horizontal	-7928
▁impressive	-7929
▁mousewheel	-7930
▁previously	-7931
▁references	-7932
▁registered	-7933
▁restrained	-7934
▁submission	-7935
▁underneath	-7936
▁destination	-7937
▁instruction	-7938
▁lightweight	-7939
▁Inconsistent	-7940
▁accidentally	-7941
▁conservative	-7942
▁inaccessible	-7943
▁occasionally	-7944
▁preprocessor	-7945
▁Customization	-7946
▁QUARTERMASTER	-7947
▁Thirtysomething	-7948
.5	-7949
13	-7950
17	-7951
2:	-7952
36	-7953
39	-7954
48	-7955
5.	-7956
59	-7957
;"	-7958
?'	-7959
AC	-7960
Al	-7961
BO	-7962
DA	-7963
HP	-7964
Ha	-7965
MB	-7966
Ni	-7967
RY	-7968
SE	-7969
UP	-7970
][	-7971
_0	-7972
ec	-7973
ev	-7974
fs	-7975
ih	-7976
ja	-7977
▁@	-7978
!!!	-7979
!--	-7980
0.8	-7981
ADR	-7982
ASC	-7983
Bay	-7984
Did	-7985
ISH	-7986
ITC	-7987
LET	-7988
Log	-7989
Mod	-7990
Moz	-7991
Old	-7992
One	-7993
PEG	-7994
Per	-7995
ROR	-7996
ROT	-7997
Reg	-7998
Win	-7999
ado	-8000
agh	-8001
apl	-8002
arg	-8003
ays	-8004
ban	-8005
css	-8006
cue	-8007
dat	-8008
des	-8009
dom	-8010
eac	-8011
erb	-8012
esc	-8013
fix	-8014
gal	-8015
hmm	-8016
iju	-8017
ira	-8018
kee	-8019
mal	-8020
nal	-8021
nin	-8022
oco	-8023
oto	-8024
ply	-8025
pol	-8026
rat	-8027
rie	-8028
ril	-8029
rim	-8030
rix	-8031
ula	-8032
val	-8033
woo	-8034
xml	-8035
▁"?	-8036
▁$1	-8037
▁34	-8038
▁37	-8039
▁5.	-8040
▁53	-8041
▁8:	-8042
▁?:	-8043
▁DO	-8044
▁Kl	-8045
▁Mm	-8046
▁PR	-8047
▁Pa	-8048
▁RE	-8049
▁SU	-8050
▁VD	-8051
▁Ye	-8052
▁py	-8053
"...	-8054
,000	-8055
Auto	-8056
Bird	-8057
CCUS	-8058
Form	-8059
Have	-8060
Mail	-8061
Migr	-8062
ONKS	-8063
Stop	-8064
TTON	-8065
When	-8066
Year	-8067
acks	-8068
aire	-8069
aldo	-8070
anza	-8071
atha	-8072
auto	-8073
awed	-8074
bies	-8075
case	-8076
cers	-8077
cert	-8078
eddy	-8079
ello	-8080
epar	-8081
eper	-8082
erdy	-8083
erry	-8084
even	-8085
fish	-8086
goti	-8087
hest	-8088
iary	-8089
icer	-8090
idel	-8091
iety	-8092
java	-8093
mars	-8094
meat	-8095
mitt	-8096
nine	-8097
nuts	-8098
oded	-8099
omas	-8100
onse	-8101
oooo	-8102
orth	-8103
otch	-8104
pass	-8105
pers	-8106
ples	-8107
pons	-8108
pple	-8109
ques	-8110
rast	-8111
rewd	-8112
stal	-8113
tabs	-8114
thud	-8115
tled	-8116
ubby	-8117
udes	-8118
ugar	-8119
uman	-8120
wich	-8121
yeah	-8122
▁0.3	-8123
▁0.4	-8124
▁1.5	-8125
▁Ahh	-8126
▁Ang	-8127
▁BRO	-8128
▁Bal	-8129
▁Bel	-8130
▁Bon	-8131
▁Bow	-8132
▁Buy	-8133
▁Bye	-8134
▁CVS	-8135
▁DVD	-8136
▁Dem	-8137
▁Dit	-8138
▁Euh	-8139
▁FIT	-8140
▁Fil	-8141
▁Fle	-8142
▁Gra	-8143
▁HIV	-8144
▁Haw	-8145
▁Joe	-8146
▁Jul	-8147
▁LEE	-8148
▁Mis	-8149
▁Nic	-8150
▁PHP	-8151
▁Pal	-8152
▁Pot	-8153
▁Ros	-8154
▁SUN	-8155
▁SVG	-8156
▁Sil	-8157
▁Smo	-8158
▁Sox	-8159
▁Spl	-8160
▁Sur	-8161
▁Tob	-8162
▁Tro	-8163
▁Tur	-8164
▁Wed	-8165
▁adm	-8166
▁ala	-8167
▁bor	-8168
▁ced	-8169
▁doc	-8170
▁dos	-8171
▁eel	-8172
▁flu	-8173
▁gas	-8174
▁ing	-8175
▁jer	-8176
▁ker	-8177
▁lob	-8178
▁lus	-8179
▁mel	-8180
▁mol	-8181
▁nav	-8182
▁naw	-8183
▁nin	-8184
▁pig	-8185
▁pub	-8186
▁rin	-8187
▁rom	-8188
▁sar	-8189
▁soc	-8190
▁spo	-8191
▁unw	-8192
▁upt	-8193
▁xul	-8194
▁yrs	-8195
ADRUS	-8196
Block	-8197
INGLE	-8198
Linux	-8199
Marty	-8200
ORIAN	-8201
Thank	-8202
ackle	-8203
aleon	-8204
allic	-8205
alous	-8206
apsed	-8207
arlie	-8208
asure	-8209
bsite	-8210
cover	-8211
ctors	-8212
dated	-8213
enced	-8214
endar	-8215
eness	-8216
ented	-8217
fered	-8218
fight	-8219
first	-8220
gance	-8221
glass	-8222
hover	-8223
idate	-8224
ifest	-8225
ignon	-8226
iliar	-8227
imize	-8228
itary	-8229
itude	-8230
leton	-8231
linux	-8232
looks	-8233
marks	-8234
myard	-8235
names	-8236
organ	-8237
orida	-8238
ourse	-8239
ouses	-8240
raphs	-8241
state	-8242
there	-8243
umped	-8244
urban	-8245
urger	-8246
ushed	-8247
usive	-8248
verts	-8249
voter	-8250
yahoo	-8251
▁0.8+	-8252
▁Bede	-8253
▁Best	-8254
▁Bone	-8255
▁Bull	-8256
▁Chat	-8257
▁Club	-8258
▁Code	-8259
▁Corn	-8260
▁Cred	-8261
▁Data	-8262
▁Desi	-8263
▁Dork	-8264
▁Exit	-8265
▁Fair	-8266
▁Jama	-8267
▁Land	-8268
▁Less	-8269
▁Libr	-8270
▁Life	-8271
▁Limo	-8272
▁Line	-8273
▁Mass	-8274
▁Meth	-8275
▁None	-8276
▁Part	-8277
▁Pers	-8278
▁Rend	-8279
▁STDs	-8280
▁Slim	-8281
▁Star	-8282
▁Stew	-8283
▁Taco	-8284
▁Tour	-8285
▁Vers	-8286
▁Vert	-8287
▁Zero	-8288
▁avoc	-8289
▁bald	-8290
▁bike	-8291
▁bold	-8292
▁bugs	-8293
▁cask	-8294
▁claw	-8295
▁cows	-8296
▁craz	-8297
▁cult	-8298
▁dare	-8299
▁debt	-8300
▁deod	-8301
▁dies	-8302
▁dish	-8303
▁eBay	-8304
▁edgy	-8305
▁fasc	-8306
▁fate	-8307
▁fles	-8308
▁frag	-8309
▁fres	-8310
▁fund	-8311
▁grew	-8312
▁hadn	-8313
▁hero	-8314
▁jpeg	-8315
▁lact	-8316
▁lead	-8317
▁lies	-8318
▁mous	-8319
▁null	-8320
▁pony	-8321
▁pour	-8322
▁rude	-8323
▁shad	-8324
▁slap	-8325
▁snot	-8326
▁soda	-8327
▁thru	-8328
▁tied	-8329
▁trad	-8330
▁tunn	-8331
▁zipp	-8332
Remove	-8333
Select	-8334
Source	-8335
angels	-8336
chrome	-8337
dialog	-8338
ension	-8339
ensive	-8340
estone	-8341
hedule	-8342
icator	-8343
ijuana	-8344
ington	-8345
irtual	-8346
launch	-8347
logist	-8348
nesday	-8349
ournal	-8350
owsing	-8351
ported	-8352
struct	-8353
submit	-8354
urgers	-8355
▁Books	-8356
▁Canal	-8357
▁Daily	-8358
▁Earth	-8359
▁GREEK	-8360
▁Hampt	-8361
▁Harry	-8362
▁Input	-8363
▁Inter	-8364
▁Items	-8365
▁Large	-8366
▁Login	-8367
▁Lucky	-8368
▁MONKS	-8369
▁Metro	-8370
▁Nanny	-8371
▁Night	-8372
▁Party	-8373
▁Paste	-8374
▁Pilot	-8375
▁Pleas	-8376
▁Quiet	-8377
▁ROMAN	-8378
▁Sarah	-8379
▁Sound	-8380
▁Speed	-8381
▁Susan	-8382
▁Trust	-8383
▁autod	-8384
▁beans	-8385
▁beast	-8386
▁belly	-8387
▁birds	-8388
▁blame	-8389
▁boots	-8390
▁breed	-8391
▁chief	-8392
▁chops	-8393
▁comin	-8394
▁consc	-8395
▁dozen	-8396
▁eaten	-8397
▁exits	-8398
▁folks	-8399
▁frequ	-8400
▁hairy	-8401
▁halts	-8402
▁harsh	-8403
▁hates	-8404
▁herbs	-8405
▁honor	-8406
▁leafy	-8407
▁loops	-8408
▁maint	-8409
▁major	-8410
▁metal	-8411
▁momma	-8412
▁nails	-8413
▁neare	-8414
▁noise	-8415
▁peace	-8416
▁photo	-8417
▁pinot	-8418
▁plans	-8419
▁prett	-8420
▁purse	-8421
▁rehab	-8422
▁restr	-8423
▁rises	-8424
▁roses	-8425
▁scare	-8426
▁scarf	-8427
▁scary	-8428
▁seven	-8429
▁slash	-8430
▁slide	-8431
▁sneak	-8432
▁south	-8433
▁sperm	-8434
▁spicy	-8435
▁sport	-8436
▁swing	-8437
▁teach	-8438
▁techn	-8439
▁terms	-8440
▁theat	-8441
▁thick	-8442
▁timed	-8443
▁unres	-8444
▁upset	-8445
▁waste	-8446
Privacy	-8447
Service	-8448
Windows	-8449
ategory	-8450
blocked	-8451
dressed	-8452
essions	-8453
imately	-8454
indings	-8455
instead	-8456
isation	-8457
onymous	-8458
osexual	-8459
profile	-8460
someone	-8461
toolbar	-8462
▁Accept	-8463
▁Broker	-8464
▁Butter	-8465
▁COTTON	-8466
▁Center	-8467
▁Design	-8468
▁Epatha	-8469
▁Foster	-8470
▁HADRUS	-8471
▁Hadrus	-8472
▁Hilton	-8473
▁Jonath	-8474
▁Junior	-8475
▁MACCUS	-8476
▁Mercer	-8477
▁Native	-8478
▁Orange	-8479
▁PARROT	-8480
▁Police	-8481
▁Popups	-8482
▁Prince	-8483
▁Public	-8484
▁Return	-8485
▁Russia	-8486
▁SINGLE	-8487
▁Script	-8488
▁Shrewd	-8489
▁Termin	-8490
▁Weiner	-8491
▁Yeasty	-8492
▁altern	-8493
▁arrive	-8494
▁boring	-8495
▁borrow	-8496
▁bother	-8497
▁bubble	-8498
▁bumped	-8499
▁candle	-8500
▁carpet	-8501
▁center	-8502
▁checks	-8503
▁citric	-8504
▁demand	-8505
▁distin	-8506
▁emerge	-8507
▁events	-8508
▁extent	-8509
▁financ	-8510
▁flying	-8511
▁fright	-8512
▁frozen	-8513
▁genius	-8514
▁global	-8515
▁grassy	-8516
▁handic	-8517
▁highly	-8518
▁hooker	-8519
▁horses	-8520
▁hyphen	-8521
▁inches	-8522
▁infant	-8523
▁mainly	-8524
▁manual	-8525
▁marked	-8526
▁messes	-8527
▁mister	-8528
▁nearby	-8529
▁offers	-8530
▁oldest	-8531
▁papers	-8532
▁pillow	-8533
▁playin	-8534
▁purity	-8535
▁recomm	-8536
▁record	-8537
▁remain	-8538
▁retard	-8539
▁robbed	-8540
▁runnin	-8541
▁sexual	-8542
▁sheets	-8543
▁shovel	-8544
▁slides	-8545
▁smelly	-8546
▁smoked	-8547
▁sought	-8548
▁spider	-8549
▁spread	-8550
▁spritz	-8551
▁sticky	-8552
▁stolen	-8553
▁sucked	-8554
▁swords	-8555
▁thirty	-8556
▁titles	-8557
▁turkey	-8558
▁unused	-8559
▁weapon	-8560
Migrator	-8561
chanting	-8562
firebird	-8563
gression	-8564
standard	-8565
standing	-8566
▁Alright	-8567
▁BROTHER	-8568
▁Charlie	-8569
▁Company	-8570
▁Confirm	-8571
▁Connect	-8572
▁Counter	-8573
▁Curious	-8574
▁Dialogs	-8575
▁Favicon	-8576
▁Florida	-8577
▁Fratboy	-8578
▁Hitting	-8579
▁Improve	-8580
▁Invalid	-8581
▁Letters	-8582
▁Library	-8583
▁Lighter	-8584
▁Plugins	-8585
▁Release	-8586
▁Silence	-8587
▁Stylish	-8588
▁Sweetie	-8589
▁Warning	-8590
▁Webpage	-8591
▁applied	-8592
▁banging	-8593
▁banking	-8594
▁bowling	-8595
▁breathe	-8596
▁burning	-8597
▁capital	-8598
▁charity	-8599
▁cocaine	-8600
▁conform	-8601
▁contest	-8602
▁credits	-8603
▁delight	-8604
▁haircut	-8605
▁helping	-8606
▁honeyed	-8607
▁knocked	-8608
▁license	-8609
▁listing	-8610
▁logging	-8611
▁meaning	-8612
▁members	-8613
▁naughty	-8614
▁nervous	-8615
▁offered	-8616
▁padding	-8617
▁panties	-8618
▁partner	-8619
▁pasting	-8620
▁private	-8621
▁project	-8622
▁reached	-8623
▁resized	-8624
▁resizes	-8625
▁rigging	-8626
▁science	-8627
▁scrapes	-8628
▁screams	-8629
▁sending	-8630
▁shortly	-8631
▁smarter	-8632
▁somehow	-8633
▁stabbed	-8634
▁staying	-8635
▁studies	-8636
▁subways	-8637
▁symbols	-8638
▁teacher	-8639
▁theater	-8640
▁typical	-8641
▁unlocks	-8642
▁upgrade	-8643
▁vegetal	-8644
▁violent	-8645
▁whoever	-8646
▁wrongly	-8647
encrypted	-8648
▁Balanced	-8649
▁Bedevere	-8650
▁Deleting	-8651
▁Homeless	-8652
▁Orthodox	-8653
▁Salesguy	-8654
▁Scrabble	-8655
▁Suburban	-8656
▁Tooltips	-8657
▁Vertical	-8658
▁accounts	-8659
▁attorney	-8660
▁brothers	-8661
▁browsers	-8662
▁creature	-8663
▁describe	-8664
▁elephant	-8665
▁entirely	-8666
▁farmyard	-8667
▁feedback	-8668
▁graduate	-8669
▁hovering	-8670
▁involved	-8671
▁luscious	-8672
▁meetings	-8673
▁modified	-8674
▁normally	-8675
▁opposite	-8676
▁ordering	-8677
▁outdated	-8678
▁outdoors	-8679
▁packaged	-8680
▁presence	-8681
▁releases	-8682
▁reloaded	-8683
▁reported	-8684
▁response	-8685
▁returned	-8686
▁seashell	-8687
▁sidebars	-8688
▁sideways	-8689
▁skeleton	-8690
▁smallest	-8691
▁striking	-8692
▁students	-8693
▁textured	-8694
▁titlebar	-8695
▁tooltips	-8696
▁touchpad	-8697
▁tracking	-8698
▁volatile	-8699
▁waitress	-8700
▁wondered	-8701
Extensions	-8702
▁Clipboard	-8703
▁Crackhead	-8704
▁Duplicate	-8705
▁Highlight	-8706
▁Shortcuts	-8707
▁Wednesday	-8708
▁accesskey	-8709
▁according	-8710
▁activated	-8711
▁alignment	-8712
▁alongside	-8713
▁animation	-8714
▁apologize	-8715
▁autolytic	-8716
▁companion	-8717
▁contribut	-8718
▁countries	-8719
▁cranberry	-8720
▁deodorant	-8721
▁dissapear	-8722
▁emergency	-8723
▁fantastic	-8724
▁formatted	-8725
▁identical	-8726
▁immigrant	-8727
▁improving	-8728
▁indicator	-8729
▁inspector	-8730
▁mentioned	-8731
▁mothafuck	-8732
▁platforms	-8733
▁president	-8734
▁redirects	-8735
▁streaming	-8736
▁wonderful	-8737
▁Chardonnay	-8738
▁Preference	-8739
▁accesskeys	-8740
▁addressbar	-8741
▁apparently	-8742
▁associated	-8743
▁checkboxes	-8744
▁duplicated	-8745
▁encounters	-8746
▁exceptions	-8747
▁functional	-8748
▁homosexual	-8749
▁initialize	-8750
▁navigating	-8751
▁performing	-8752
▁vertically	-8753
▁whispering	-8754
AutoComplete	-8755
▁Fashionista	-8756
▁approaching	-8757
▁connections	-8758
▁directories	-8759
▁functioning	-8760
▁integration	-8761
▁intelligent	-8762
▁unavailable	-8763
▁utilization	-8764
▁Certificates	-8765
▁Motherfucker	-8766
▁Uninstalling	-8767
▁blackcurrant	-8768
▁construction	-8769
▁masturbating	-8770
▁neighborhood	-8771
▁whitelisting	-8772
ProfileMigrator	-8773
!]	-8774
'"	-8775
('	-8776
-2	-8777
.]	-8778
19	-8779
25	-8780
3.	-8781
47	-8782
7.	-8783
70	-8784
75	-8785
96	-8786
=1	-8787
AP	-8788
Ac	-8789
An	-8790
BM	-8791
Ed	-8792
FK	-8793
KE	-8794
MY	-8795
RC	-8796
Sc	-8797
Uh	-8798
Um	-8799
WW	-8800
cf	-8801
dc	-8802
dr	-8803
lv	-8804
td	-8805
uf	-8806
uj	-8807
vs	-8808
▁{	-8809
▁	-8810
">"	-8811
(?)	-8812
***	-8813
-88	-8814
11)	-8815
400	-8816
405	-8817
9.1	-8818
;&#	-8819
CER	-8820
Com	-8821
GER	-8822
Hat	-8823
Loc	-8824
Nah	-8825
Not	-8826
ONE	-8827
ORT	-8828
OUN	-8829
Pop	-8830
Run	-8831
TIC	-8832
Was	-8833
YAL	-8834
aud	-8835
bad	-8836
bel	-8837
bet	-8838
big	-8839
can	-8840
dir	-8841
eau	-8842
epy	-8843
esy	-8844
fly	-8845
gth	-8846
ham	-8847
hem	-8848
hip	-8849
hot	-8850
iks	-8851
iom	-8852
irs	-8853
ket	-8854
law	-8855
lly	-8856
map	-8857
met	-8858
now	-8859
oda	-8860
orc	-8861
pee	-8862
php	-8863
pos	-8864
ran	-8865
rot	-8866
sea	-8867
sem	-8868
sit	-8869
tax	-8870
toE	-8871
tte	-8872
two	-8873
ugu	-8874
usi	-8875
was	-8876
xpi	-8877
zil	-8878
▁"&	-8879
▁"0	-8880
▁.)	-8881
▁1,	-8882
▁23	-8883
▁28	-8884
▁47	-8885
▁48	-8886
▁49	-8887
▁8.	-8888
▁93	-8889
▁98	-8890
▁==	-8891
▁AS	-8892
▁CD	-8893
▁Cy	-8894
▁DM	-8895
▁EM	-8896
▁GP	-8897
▁II	-8898
▁IS	-8899
▁Mo	-8900
▁NV	-8901
▁Oy	-8902
▁TA	-8903
▁US	-8904
▁Ur	-8905
▁WY	-8906
▁ax	-8907
▁ec	-8908
▁pu	-8909
...!	-8910
59-1	-8911
BRAN	-8912
Comp	-8913
Ctrl	-8914
DATA	-8915
Date	-8916
Done	-8917
EARL	-8918
ITCH	-8919
Like	-8920
Mart	-8921
agus	-8922
amps	-8923
andy	-8924
auce	-8925
away	-8926
bonk	-8927
bott	-8928
card	-8929
cked	-8930
clap	-8931
cony	-8932
corn	-8933
damn	-8934
data	-8935
eaux	-8936
empl	-8937
engu	-8938
erle	-8939
etch	-8940
exas	-8941
fits	-8942
fold	-8943
four	-8944
gage	-8945
gets	-8946
good	-8947
heme	-8948
heon	-8949
home	-8950
howl	-8951
iami	-8952
idly	-8953
igny	-8954
iksa	-8955
ilos	-8956
ingu	-8957
ingy	-8958
ints	-8959
ique	-8960
irut	-8961
istr	-8962
itan	-8963
ived	-8964
izzy	-8965
kick	-8966
kish	-8967
left	-8968
neco	-8969
ners	-8970
news	-8971
ombs	-8972
omer	-8973
oons	-8974
orad	-8975
oria	-8976
orks	-8977
ourt	-8978
pref	-8979
pril	-8980
quin	-8981
rama	-8982
reed	-8983
rewr	-8984
roar	-8985
roat	-8986
suck	-8987
sylv	-8988
test	-8989
urot	-8990
utty	-8991
uugh	-8992
ynch	-8993
your	-8994
▁#2,	-8995
▁$20	-8996
▁(0.	-8997
▁130	-8998
▁300	-8999
▁Aah	-9000
▁Age	-9001
▁Ana	-9002
▁Atl	-9003
▁Aww	-9004
▁Bee	-9005
▁Bit	-9006
▁CRA	-9007
▁Cab	-9008
▁Cit	-9009
▁Cmd	-9010
▁Cra	-9011
▁DON	-9012
▁Dec	-9013
▁Dou	-9014
▁Dow	-9015
▁Dri	-9016
▁Enc	-9017
▁Esc	-9018
▁Eww	-9019
▁Fer	-9020
▁Fly	-9021
▁Ger	-9022
▁Hee	-9023
▁Him	-9024
▁Hol	-9025
▁Hor	-9026
▁IBM	-9027
▁IME	-9028
▁LOV	-9029
▁MER	-9030
▁Med	-9031
▁OSX	-9032
▁Opt	-9033
▁PIG	-9034
▁Pet	-9035
▁Pul	-9036
▁Ray	-9037
▁Ref	-9038
▁SEE	-9039
▁STD	-9040
▁Sch	-9041
▁Sum	-9042
▁Tou	-9043
▁Try	-9044
▁Unc	-9045
▁Yay	-9046
▁Yea	-9047
▁ast	-9048
▁blo	-9049
▁cup	-9050
▁dim	-9051
▁doo	-9052
▁dot	-9053
▁ens	-9054
▁env	-9055
▁gam	-9056
▁hav	-9057
▁hij	-9058
▁jam	-9059
▁joy	-9060
▁kit	-9061
▁mir	-9062
▁obl	-9063
▁oil	-9064
▁rev	-9065
▁rhy	-9066
▁sed	-9067
▁sky	-9068
▁som	-9069
▁tie	-9070
▁wal	-9071
▁wow	-9072
▁wra	-9073
."...	-9074
ASCII	-9075
Build	-9076
ECTOR	-9077
ELECT	-9078
GNOME	-9079
Image	-9080
Right	-9081
Setup	-9082
acles	-9083
alert	-9084
altor	-9085
andel	-9086
andon	-9087
anges	-9088
aning	-9089
aphor	-9090
aping	-9091
aring	-9092
arten	-9093
asser	-9094
avery	-9095
based	-9096
class	-9097
clunk	-9098
coded	-9099
color	-9100
crash	-9101
cuted	-9102
eling	-9103
eller	-9104
erial	-9105
esses	-9106
ferer	-9107
ffeed	-9108
frame	-9109
fruit	-9110
group	-9111
icate	-9112
icide	-9113
icing	-9114
icked	-9115
igate	-9116
ighty	-9117
inder	-9118
ingle	-9119
irsty	-9120
iseed	-9121
itech	-9122
itled	-9123
ittin	-9124
ledge	-9125
ombre	-9126
oning	-9127
orged	-9128
orman	-9129
orted	-9130
paper	-9131
perty	-9132
phone	-9133
ports	-9134
pound	-9135
rease	-9136
ribly	-9137
rings	-9138
roach	-9139
rokes	-9140
ruity	-9141
stood	-9142
store	-9143
sugar	-9144
sweet	-9145
tools	-9146
types	-9147
uable	-9148
udden	-9149
uffle	-9150
ugged	-9151
ulner	-9152
ussie	-9153
vious	-9154
while	-9155
ystem	-9156
yvern	-9157
zheim	-9158
▁2000	-9159
▁Ahhh	-9160
▁Blue	-9161
▁Bord	-9162
▁Both	-9163
▁Boun	-9164
▁Brad	-9165
▁Cash	-9166
▁Coco	-9167
▁Coke	-9168
▁Cute	-9169
▁Date	-9170
▁Dave	-9171
▁Dies	-9172
▁Dock	-9173
▁Draw	-9174
▁DtoE	-9175
▁Duck	-9176
▁EITC	-9177
▁Feed	-9178
▁Food	-9179
▁Fool	-9180
▁GENT	-9181
▁Grey	-9182
▁HIST	-9183
▁Hang	-9184
▁Huge	-9185
▁INSP	-9186
▁JPEG	-9187
▁Left	-9188
▁Lose	-9189
▁Mode	-9190
▁Morm	-9191
▁PORT	-9192
▁Plus	-9193
▁Pong	-9194
▁Poor	-9195
▁Post	-9196
▁Prov	-9197
▁Root	-9198
▁Sept	-9199
▁Sugg	-9200
▁Thpp	-9201
▁Troj	-9202
▁Tues	-9203
▁Wine	-9204
▁anti	-9205
▁appe	-9206
▁bark	-9207
▁blog	-9208
▁cake	-9209
▁chew	-9210
▁dise	-9211
▁educ	-9212
▁enem	-9213
▁film	-9214
▁fold	-9215
▁fork	-9216
▁gift	-9217
▁glue	-9218
▁grin	-9219
▁guns	-9220
▁hamm	-9221
▁hump	-9222
▁imag	-9223
▁inch	-9224
▁jerk	-9225
▁jobs	-9226
▁mort	-9227
▁nail	-9228
▁oily	-9229
▁outr	-9230
▁owns	-9231
▁pans	-9232
▁perl	-9233
▁perm	-9234
▁phys	-9235
▁pork	-9236
▁rack	-9237
▁rail	-9238
▁reas	-9239
▁rewr	-9240
▁risk	-9241
▁seal	-9242
▁shif	-9243
▁sixt	-9244
▁skip	-9245
▁snea	-9246
▁subs	-9247
▁susp	-9248
▁tank	-9249
▁tart	-9250
▁till	-9251
▁tire	-9252
▁tops	-9253
▁town	-9254
▁unde	-9255
▁wand	-9256
▁wing	-9257
BRANCH	-9258
Cotton	-9259
Dialog	-9260
Hadrus	-9261
Object	-9262
Search	-9263
Themes	-9264
Update	-9265
Window	-9266
alegal	-9267
annabe	-9268
aptism	-9269
arious	-9270
arling	-9271
arters	-9272
ckwave	-9273
dating	-9274
ection	-9275
embers	-9276
essert	-9277
estion	-9278
ferent	-9279
gement	-9280
gfault	-9281
giving	-9282
handed	-9283
heonix	-9284
holder	-9285
icated	-9286
ifully	-9287
inking	-9288
inside	-9289
jected	-9290
malade	-9291
marker	-9292
medium	-9293
ndrome	-9294
nology	-9295
ources	-9296
oxious	-9297
packer	-9298
really	-9299
rength	-9300
ubbles	-9301
uction	-9302
urches	-9303
urious	-9304
urlbar	-9305
ursday	-9306
veland	-9307
▁Alert	-9308
▁Amish	-9309
▁April	-9310
▁Baked	-9311
▁DHTML	-9312
▁Danza	-9313
▁Enjoy	-9314
▁Entry	-9315
▁Eurot	-9316
▁Fails	-9317
▁Favor	-9318
▁Files	-9319
▁HEADS	-9320
▁Hangs	-9321
▁Haven	-9322
▁Herby	-9323
▁Hindu	-9324
▁Italy	-9325
▁LEECH	-9326
▁Laden	-9327
▁Later	-9328
▁Likes	-9329
▁Malay	-9330
▁March	-9331
▁Miami	-9332
▁Naked	-9333
▁Order	-9334
▁PEARL	-9335
▁Panel	-9336
▁Pizza	-9337
▁Place	-9338
▁Prefs	-9339
▁ROYAL	-9340
▁Radio	-9341
▁Rhode	-9342
▁Rhone	-9343
▁Roman	-9344
▁Saint	-9345
▁Separ	-9346
▁Shall	-9347
▁Smoky	-9348
▁Soave	-9349
▁Spain	-9350
▁Super	-9351
▁Syrah	-9352
▁Texas	-9353
▁Third	-9354
▁Tight	-9355
▁Until	-9356
▁accur	-9357
▁adult	-9358
▁aging	-9359
▁areas	-9360
▁asses	-9361
▁audio	-9362
▁backs	-9363
▁barri	-9364
▁beard	-9365
▁bills	-9366
▁blanc	-9367
▁brief	-9368
▁buddy	-9369
▁burnt	-9370
▁cable	-9371
▁camel	-9372
▁chall	-9373
▁chars	-9374
▁chase	-9375
▁chill	-9376
▁chose	-9377
▁cigar	-9378
▁coast	-9379
▁couch	-9380
▁crawl	-9381
▁debug	-9382
▁defin	-9383
▁dicks	-9384
▁draws	-9385
▁equiv	-9386
▁exact	-9387
▁exhib	-9388
▁faces	-9389
▁faded	-9390
▁femin	-9391
▁fetch	-9392
▁fires	-9393
▁gimme	-9394
▁gnome	-9395
▁grail	-9396
▁hazel	-9397
▁hides	-9398
▁holes	-9399
▁inapp	-9400
▁irony	-9401
▁juicy	-9402
▁limit	-9403
▁liver	-9404
▁mader	-9405
▁magic	-9406
▁marks	-9407
▁minor	-9408
▁modif	-9409
▁moose	-9410
▁newly	-9411
▁nonex	-9412
▁ought	-9413
▁outer	-9414
▁penny	-9415
▁pixel	-9416
▁proud	-9417
▁quits	-9418
▁reads	-9419
▁relax	-9420
▁rocks	-9421
▁roots	-9422
▁seats	-9423
▁seper	-9424
▁shade	-9425
▁shalt	-9426
▁shark	-9427
▁shave	-9428
▁shots	-9429
▁sides	-9430
▁sized	-9431
▁sizer	-9432
▁slows	-9433
▁sober	-9434
▁songs	-9435
▁spawn	-9436
▁spots	-9437
▁spray	-9438
▁staff	-9439
▁storm	-9440
▁tempt	-9441
▁thumb	-9442
▁thump	-9443
▁towel	-9444
▁upper	-9445
▁waist	-9446
▁waxed	-9447
▁whist	-9448
▁winem	-9449
-8859-1	-9450
Captain	-9451
History	-9452
aligned	-9453
buttons	-9454
chanter	-9455
connect	-9456
cookies	-9457
crewmen	-9458
ctangle	-9459
current	-9460
defined	-9461
display	-9462
empting	-9463
enabled	-9464
fiction	-9465
folders	-9466
herries	-9467
iformed	-9468
ilities	-9469
initial	-9470
jointed	-9471
openURL	-9472
parency	-9473
ponsive	-9474
preview	-9475
ributes	-9476
sidebar	-9477
ulation	-9478
zheimer	-9479
▁Almost	-9480
▁Aussie	-9481
▁Beirut	-9482
▁Brazil	-9483
▁Broken	-9484
▁Charge	-9485
▁Classy	-9486
▁Client	-9487
▁Cruise	-9488
▁Doctor	-9489
▁Errors	-9490
▁Exotic	-9491
▁Failed	-9492
▁Freeze	-9493
▁Heaven	-9494
▁Honied	-9495
▁Johnny	-9496
▁Liquor	-9497
▁MERCER	-9498
▁Moving	-9499
▁Others	-9500
▁PIGLET	-9501
▁Parker	-9502
▁Player	-9503
▁Preppy	-9504
▁Reader	-9505
▁Reason	-9506
▁RedHat	-9507
▁School	-9508
▁Staten	-9509
▁States	-9510
▁Static	-9511
▁Stupid	-9512
▁Summer	-9513
▁Typing	-9514
▁United	-9515
▁Visual	-9516
▁accomp	-9517
▁advent	-9518
▁append	-9519
▁ashore	-9520
▁basket	-9521
▁behave	-9522
▁beside	-9523
▁burned	-9524
▁burrit	-9525
▁career	-9526
▁caused	-9527
▁cedary	-9528
▁claret	-9529
▁clears	-9530
▁closet	-9531
▁cooked	-9532
▁coulda	-9533
▁dancer	-9534
▁depths	-9535
▁desper	-9536
▁digest	-9537
▁disres	-9538
▁dragon	-9539
▁dreams	-9540
▁eleven	-9541
▁ending	-9542
▁fallen	-9543
▁favour	-9544
▁filter	-9545
▁finest	-9546
▁forced	-9547
▁former	-9548
▁framed	-9549
▁freaky	-9550
▁gained	-9551
▁giggle	-9552
▁hotter	-9553
▁humour	-9554
▁insane	-9555
▁intend	-9556
▁jacket	-9557
▁kernel	-9558
▁knight	-9559
▁knocks	-9560
▁lifted	-9561
▁lockup	-9562
▁logged	-9563
▁losing	-9564
▁member	-9565
▁mirror	-9566
▁modest	-9567
▁mousse	-9568
▁negoti	-9569
▁ninety	-9570
▁parade	-9571
▁passes	-9572
▁pencil	-9573
▁photos	-9574
▁pieces	-9575
▁pigeon	-9576
▁played	-9577
▁plenty	-9578
▁posted	-9579
▁poured	-9580
▁punish	-9581
▁pushes	-9582
▁racing	-9583
▁reader	-9584
▁redire	-9585
▁refrig	-9586
▁refuse	-9587
▁repain	-9588
▁repeat	-9589
▁rescue	-9590
▁reserv	-9591
▁retain	-9592
▁satisf	-9593
▁season	-9594
▁shared	-9595
▁signed	-9596
▁silver	-9597
▁sleeps	-9598
▁smokes	-9599
▁sombre	-9600
▁speaks	-9601
▁spices	-9602
▁spring	-9603
▁states	-9604
▁static	-9605
▁strike	-9606
▁surely	-9607
▁tackle	-9608
▁toffee	-9609
▁toggle	-9610
▁tomato	-9611
▁transl	-9612
▁tunnel	-9613
▁unlike	-9614
▁upload	-9615
▁upside	-9616
▁viewed	-9617
▁waited	-9618
▁wheels	-9619
▁whites	-9620
▁wicked	-9621
▁wooden	-9622
!!!!!!!!	-9623
Registry	-9624
Whatever	-9625
aneously	-9626
balanced	-9627
ergarten	-9628
existent	-9629
friendly	-9630
ifferent	-9631
pleasant	-9632
sylvania	-9633
▁Barnard	-9634
▁Channel	-9635
▁Charles	-9636
▁Chicken	-9637
▁Clearly	-9638
▁Console	-9639
▁Cornell	-9640
▁Credits	-9641
▁Elderly	-9642
▁Element	-9643
▁Exactly	-9644
▁Getting	-9645
▁Healthy	-9646
▁Indians	-9647
▁Madeira	-9648
▁Madonna	-9649
▁Married	-9650
▁Network	-9651
▁Patient	-9652
▁Puligny	-9653
▁Realtor	-9654
▁Refined	-9655
▁Richard	-9656
▁Setting	-9657
▁Special	-9658
▁Trading	-9659
▁Tuesday	-9660
▁actions	-9661
▁aligned	-9662
▁alright	-9663
▁anyways	-9664
▁appends	-9665
▁apricot	-9666
▁armpits	-9667
▁arrives	-9668
▁artwork	-9669
▁balcony	-9670
▁behaves	-9671
▁billion	-9672
▁breasts	-9673
▁careful	-9674
▁charges	-9675
▁chasing	-9676
▁choices	-9677
▁cloning	-9678
▁closest	-9679
▁cloying	-9680
▁columns	-9681
▁cracker	-9682
▁crosses	-9683
▁curious	-9684
▁cursing	-9685
▁cutting	-9686
▁density	-9687
▁depends	-9688
▁discuss	-9689
▁dynamic	-9690
▁environ	-9691
▁filling	-9692
▁flashes	-9693
▁flatter	-9694
▁flavour	-9695
▁fresher	-9696
▁grabbed	-9697
▁growing	-9698
▁handjob	-9699
▁handles	-9700
▁hinting	-9701
▁hookers	-9702
▁insists	-9703
▁kicking	-9704
▁mistake	-9705
▁musical	-9706
▁natural	-9707
▁nearest	-9708
▁nowhere	-9709
▁offline	-9710
▁opposed	-9711
▁outings	-9712
▁overlay	-9713
▁parties	-9714
▁raining	-9715
▁recover	-9716
▁regress	-9717
▁reverse	-9718
▁sausage	-9719
▁shaking	-9720
▁shocked	-9721
▁sincere	-9722
▁stepped	-9723
▁stuffed	-9724
▁submits	-9725
▁surfing	-9726
▁theatre	-9727
▁thunder	-9728
▁tightly	-9729
▁travell	-9730
▁treated	-9731
▁useless	-9732
▁vicious	-9733
▁willing	-9734
atibility	-9735
extension	-9736
microsoft	-9737
necessary	-9738
undefined	-9739
▁Bordeaux	-9740
▁Columbus	-9741
▁Commuter	-9742
▁Contents	-9743
▁Creating	-9744
▁Daughter	-9745
▁Egyptian	-9746
▁Feedback	-9747
▁Hamptons	-9748
▁Meathead	-9749
▁Olympics	-9750
▁POSTDATA	-9751
▁ROMANTIC	-9752
▁Removing	-9753
▁Riesling	-9754
▁Sidebars	-9755
▁Splendid	-9756
▁Superman	-9757
▁Terminal	-9758
▁accessed	-9759
▁appended	-9760
▁assigned	-9761
▁attached	-9762
▁biscuits	-9763
▁bringing	-9764
▁calendar	-9765
▁centered	-9766
▁coloured	-9767
▁conflict	-9768
▁coworker	-9769
▁critical	-9770
▁decision	-9771
▁diamonds	-9772
▁elegance	-9773
▁engaging	-9774
▁familiar	-9775
▁feelings	-9776
▁filesize	-9777
▁followed	-9778
▁gestures	-9779
▁hardcore	-9780
▁honestly	-9781
▁ignorant	-9782
▁ignoring	-9783
▁installs	-9784
▁interpre	-9785
▁marrying	-9786
▁metallic	-9787
▁metaphor	-9788
▁movement	-9789
▁optional	-9790
▁ordinary	-9791
▁override	-9792
▁pancakes	-9793
▁persists	-9794
▁prisoner	-9795
▁referrer	-9796
▁reliable	-9797
▁requests	-9798
▁restarts	-9799
▁retained	-9800
▁roommate	-9801
▁scrolled	-9802
▁scuttled	-9803
▁selector	-9804
▁sessions	-9805
▁shitting	-9806
▁spelling	-9807
▁squirrel	-9808
▁strength	-9809
▁surround	-9810
▁swallows	-9811
▁unwanted	-9812
▁varietal	-9813
background	-9814
connection	-9815
functional	-9816
girlfriend	-9817
gmentation	-9818
necologist	-9819
properties	-9820
▁Americans	-9821
▁Chassagne	-9822
▁Cleveland	-9823
▁Eurotrash	-9824
▁Exception	-9825
▁HISTORIAN	-9826
▁INSPECTOR	-9827
▁Interests	-9828
▁Paralegal	-9829
▁President	-9830
▁Rendering	-9831
▁Shockwave	-9832
▁Uniformed	-9833
▁addresses	-9834
▁agreement	-9835
▁assistant	-9836
▁breathing	-9837
▁certainly	-9838
▁clickable	-9839
▁completes	-9840
▁conflicts	-9841
▁confusing	-9842
▁continent	-9843
▁converted	-9844
▁depending	-9845
▁emotional	-9846
▁executive	-9847
▁gardening	-9848
▁homepages	-9849
▁intermitt	-9850
▁languages	-9851
▁liquorice	-9852
▁malformed	-9853
▁marijuana	-9854
▁marmalade	-9855
▁modifying	-9856
▁necessary	-9857
▁overboard	-9858
▁overtones	-9859
▁protected	-9860
▁quicktime	-9861
▁recommend	-9862
▁reinstall	-9863
▁sombreros	-9864
▁starboard	-9865
▁subfolder	-9866
▁submitted	-9867
▁umbrellas	-9868
▁usernames	-9869
▁Apparently	-9870
▁Attempting	-9871
▁Backpacker	-9872
▁Connection	-9873
▁Definitely	-9874
▁Especially	-9875
▁Impossible	-9876
▁	-9877
e	-9878
o	-9879
t	-9880
a	-9881
n	-9882
i	-9883
s	-9884
r	-9885
l	-9886
h	-9887
d	-9888
u	-9889
c	-9890
g	-9891
m	-9892
y	-9893
w	-9894
.	-9895
p	-9896
b	-9897
f	-9898
k	-9899
:	-9900
,	-9901
I	-9902
'	-9903
v	-9904
T	-9905
S	-9906
A	-9907
G	-9908
?	-9909
W	-9910
x	-9911
C	-9912
!	-9913
-	-9914
R	-9915
*	-9916
M	-9917
#	-9918
L	-9919
N	-9920
B	-9921
D	-9922
E	-9923
H	-9924
"	-9925
O	-9926
F	-9927
Y	-9928
P	-9929
1	-9930
2	-9931
U	-9932
z	-9933
j	-9934
J	-9935
[	-9936
]	-9937
(	-9938
0	-9939
)	-9940
q	-9941
K	-9942
V	-9943
/	-9944
3	-9945
5	-9946
Q	-9947
9	-9948
4	-9949
X	-9950
>	-9951
;	-9952
8	-9953
6	-9954
+	-9955
&	-9956
7	-9957
Z	-9958
_	-9959
<	-9960
=	-9961
%	-9962
|	-9963
$	-9964
@	-9965
\	-9966
~	-9967
`	-9968
{	-9969
é	-9970
	-9971
	-9972
â	-9973
	-9974
́	-9975
^	-9976
}	-9977
Â	-9978
	-9979
ä	-9980
ö	-9981
ü	-9982
č	-9983
ŕ	-9984
ť	-9985
	-9986
	-9987
ß	-9988
Ă	-9989
ď	-9990
ĺ	-9991
Ł	-9992
Ť	-9993
ż	-9994
̋	-9995
